{"!":0,"\"":1,"#":2,"$":3,"%":4,"&":5,"'":6,"(":7,")":8,"*":9,"+":10,",":11,"-":12,".":13,"/":14,"0":15,"1":16,"2":17,"3":18,"4":19,"5":20,"6":21,"7":22,"8":23,"9":24,":":25,";":26,"<":27,"=":28,">":29,"?":30,"@":31,"A":32,"B":33,"C":34,"D":35,"E":36,"F":37,"G":38,"H":39,"I":40,"J":41,"K":42,"L":43,"M":44,"N":45,"O":46,"P":47,"Q":48,"R":49,"S":50,"T":51,"U":52,"V":53,"W":54,"X":55,"Y":56,"Z":57,"[":58,"\\":59,"]":60,"^":61,"_":62,"`":63,"a":64,"b":65,"c":66,"d":67,"e":68,"f":69,"g":70,"h":71,"i":72,"j":73,"k":74,"l":75,"m":76,"n":77,"o":78,"p":79,"q":80,"r":81,"s":82,"t":83,"u":84,"v":85,"w":86,"x":87,"y":88,"z":89,"{":90,"|":91,"}":92,"~":93,"¡":94,"¢":95,"£":96,"¤":97,"¥":98,"¦":99,"§":100,"¨":101,"©":102,"ª":103,"«":104,"¬":105,"®":106,"¯":107,"°":108,"±":109,"²":110,"³":111,"´":112,"µ":113,"¶":114,"·":115,"¸":116,"¹":117,"º":118,"»":119,"¼":120,"½":121,"¾":122,"¿":123,"À":124,"Á":125,"Â":126,"Ã":127,"Ä":128,"Å":129,"Æ":130,"Ç":131,"È":132,"É":133,"Ê":134,"Ë":135,"Ì":136,"Í":137,"Î":138,"Ï":139,"Ð":140,"Ñ":141,"Ò":142,"Ó":143,"Ô":144,"Õ":145,"Ö":146,"×":147,"Ø":148,"Ù":149,"Ú":150,"Û":151,"Ü":152,"Ý":153,"Þ":154,"ß":155,"à":156,"á":157,"â":158,"ã":159,"ä":160,"å":161,"æ":162,"ç":163,"è":164,"é":165,"ê":166,"ë":167,"ì":168,"í":169,"î":170,"ï":171,"ð":172,"ñ":173,"ò":174,"ó":175,"ô":176,"õ":177,"ö":178,"÷":179,"ø":180,"ù":181,"ú":182,"û":183,"ü":184,"ý":185,"þ":186,"ÿ":187,"Ā":188,"ā":189,"Ă":190,"ă":191,"Ą":192,"ą":193,"Ć":194,"ć":195,"Ĉ":196,"ĉ":197,"Ċ":198,"ċ":199,"Č":200,"č":201,"Ď":202,"ď":203,"Đ":204,"đ":205,"Ē":206,"ē":207,"Ĕ":208,"ĕ":209,"Ė":210,"ė":211,"Ę":212,"ę":213,"Ě":214,"ě":215,"Ĝ":216,"ĝ":217,"Ğ":218,"ğ":219,"Ġ":220,"ġ":221,"Ģ":222,"ģ":223,"Ĥ":224,"ĥ":225,"Ħ":226,"ħ":227,"Ĩ":228,"ĩ":229,"Ī":230,"ī":231,"Ĭ":232,"ĭ":233,"Į":234,"į":235,"İ":236,"ı":237,"Ĳ":238,"ĳ":239,"Ĵ":240,"ĵ":241,"Ķ":242,"ķ":243,"ĸ":244,"Ĺ":245,"ĺ":246,"Ļ":247,"ļ":248,"Ľ":249,"ľ":250,"Ŀ":251,"ŀ":252,"Ł":253,"ł":254,"Ń":255,"ĠĠ":256,"Ġt":257,"Ġa":258,"he":259,"in":260,"ĠĠĠĠ":261,"on":262,"er":263,"--":264,"re":265,"Ġthe":266,"at":267,"Ġw":268,"Ġs":269,"an":270,"or":271,"is":272,"it":273,"es":274,"ou":275,"en":276,"ed":277,"Ġc":278,"Ġb":279,"Ġo":280,"ing":281,"om":282,"Ġf":283,"al":284,"Ġp":285,"Ġm":286,"ar":287,"----":288,"Ġto":289,"Ġan":290,"le":291,"Ġd":292,"Ġth":293,"ĠĠĠĠĠĠĠĠ":294,"ic":295,"Ġof":296,"ion":297,"st":298,"ĠI":299,"\\'":300,"Ġh":301,"Ġin":302,"Ġ\\":303,".\\":304,"as":305,"==":306,"Ġand":307,"ll":308,"Ġn":309,"ve":310,"Ġ(":311,"ot":312,"et":313,"ec":314,"ly":315,"Ġis":316,"Ġg":317,"ac":318,"Ġl":319,"ĠS":320,"ĠT":321,"**":322,"ent":323,"ut":324,"ow":325,"us":326,"--------":327,"Ġthat":328,"Ġre":329,"Ġy":330,"ĠC":331,"ver":332,"__":333,"ĠA":334,"Ġe":335,"ro":336,"ation":337,"id":338,"Ġbe":339,"ay":340,"Ġon":341,"ld":342,"ad":343,"Ġyou":344,"im":345,"ĠM":346,"am":347,"Ġfor":348,"Ġit":349,"ig":350,"se":351,"un":352,"Ġ1":353,"ĠF":354,"nt":355,"====":356,"rom":357,"..":358,"il":359,"ĠB":360,"ĠR":361,"ĠĠĠ":362,"ĠP":363,"Ġwh":364,"ol":365,"ect":366,"ce":367,"ith":368,")\\":369,"ĠĠĠĠĠĠĠĠĠĠĠĠĠĠĠĠ":370,"ke":371,"ave":372,"ur":373,"ch":374,"ost":375,"if":376,"her":377,"edu":378,"ĠD":379,"ter":380,"ĠW":381,"out":382,"ri":383,"em":384,"ir":385,"Ġst":386,"ub":387,"ist":388,"od":389,"ag":390,"ĠH":391,"Ġnot":392,"ill":393,"Ġwith":394,"and":395,"Ġas":396,"ould":397,"****":398,"Ġare":399,"Ġhave":400,"pp":401,"iz":402,"el":403,"com":404,"ab":405,"nS":406,"Ġr":407,"nd":408,"Ġ\"":409,"ĠG":410,"ew":411,"op":412,"----------------":413,"Ġhe":414,"Ġor":415,"ĠN":416,"____":417,"Ġ2":418,"nI":419,">>":420,"Ġdo":421,"ity":422,"um":423,"ers":424,"est":425,"ul":426,"ĠThe":427,":\\":428,"ject":429,"ĠU":430,"Ġthis":431,"ct":432,"ate":433,"os":434,"ines":435,"Ġcon":436,"ht":437,"ĠL":438,"Ġpro":439,"Ġwas":440,"nO":441,"rg":442,"00":443,"nL":444,"ore":445,"ap":446,"ard":447,"ubject":448,"Ġat":449,"Ġus":450,"ess":451,"Ġcom":452,"ĠO":453,"qu":454,"ĠE":455,"ization":456,"\\\\":457,"Ġwr":458,"ain":459,"Ġk":460,"ant":461,"anization":462,"nLines":463,"th":464,"Ġar":465,"nSubject":466,"ĠFrom":467,"Ġab":468,"ust":469,"rganization":470,"========":471,"Ġse":472,"res":473,"Ġcan":474,"nOrganization":475,"ight":476,"Ġex":477,"Ġ-":478,"one":479,"?\\":480,"ind":481,"ome":482,",\\":483,"tic":484,"Ġv":485,"all":486,"ĠJ":487,"up":488,"Ġwe":489,"Ġany":490,"our":491,"Ġ3":492,"Ġby":493,"ĠRe":494,"Ġthey":495,"Ġbut":496,"ally":497,"Ġsh":498,">\\":499,"Ġme":500,"Ġj":501,"ort":502,"Ġwrit":503,"vers":504,"nM":505,"oc":506,"Ġfrom":507,"Ġ<":508,"ni":509,"Ġgo":510,"are":511,"art":512,"ast":513,"ich":514,"ie":515,"Ġsu":516,"ks":517,"Ġde":518,"Ġ|":519,"ment":520,"ine":521,"ive":522,"end":523,"ry":524,"Ġwould":525,"Ġal":526,"Ġall":527,"pt":528,"av":529,"Ġwor":530,"Ġch":531,"ian":532,"^^":533,"Ġwrites":534,"ike":535,"ib":536,"Ġmy":537,"iv":538,"ies":539,"nT":540,"********":541,"ose":542,"ack":543,"of":544,"Ġwill":545,"ns":546,"oug":547,"Ġun":548,"age":549,"ak":550,"ther":551,"ud":552,"Ġle":553,"Ġabout":554,"~~":555,"Ġif":556,"now":557,"ticle":558,"ĠK":559,"for":560,"pl":561,"nN":562,"hen":563,"ge":564,"ell":565,"ra":566,"Ġthere":567,"Ġsome":568,"ame":569,"nc":570,"oo":571,"ĠV":572,"Ġone":573,"ere":574,"Ġarticle":575,"ĠĠĠĠĠĠĠ":576,"Ġne":577,"ions":578,"ail":579,"Ġout":580,"Ġsp":581,"ep":582,"Ġyour":583,"________":584,"Ġwhat":585,"hat":586,"og":587,"Ġhas":588,"ink":589,"Ġso":590,"Ġ4":591,"cc":592,"|>":593,"ide":594,"Ġwho":595,"93":596,"ous":597,"ase":598,"fer":599,"Ġknow":600,"ence":601,"ĠUni":602,"to":603,"Ġpl":604,"ear":605,"ure":606,"ice":607,"der":608,"ĠĠĠĠĠ":609,"ound":610,"act":611,"Ġup":612,"ire":613,"able":614,"ake":615,"nIn":616,"ue":617,"ong":618,"Ġ*":619,"uc":620,"versity":621,"Ġget":622,"pr":623,"very":624,"ff":625,"gr":626,"Ġ0":627,"so":628,"19":629,"Ġcomp":630,"ip":631,"nD":632,"Ġdis":633,"Ġno":634,"ia":635,"...":636,"nA":637,"ber":638,"osting":639,"nw":640,"Ġlike":641,"Ġqu":642,"Ġad":643,"ex":644,"Ġother":645,"--------------------------------":646,"Ġtr":647,"Ġim":648,"ĠUniversity":649,"ans":650,"ĠY":651,"eop":652,"Ġthem":653,"nthe":654,"Ġ19":655,"Ġwere":656,"ace":657,"int":658,"eople":659,"ĠSt":660,"ough":661,"Ġdon":662,"cl":663,"Ġmore":664,"Ġwhich":665,"Ġjust":666,"his":667,"hing":668,"Ġcl":669,"use":670,"Host":671,"Ġtheir":672,"Posting":673,"Ġag":674,"ews":675,"ary":676,"ime":677,"Ġ5":678,"Ġhad":679,"Ġman":680,"ated":681,"ĠCh":682,"Ġam":683,"Ġen":684,"here":685,"================":686,"ual":687,"ook":688,"ile":689,"rib":690,"Ġpr":691,"Ġthan":692,"ne":693,"Ġev":694,"Ġpeople":695,"ress":696,"ĠIt":697,"ĠIn":698,"ass":699,"Ġthink":700,"ult":701,"np":702,"ial":703,"ach":704,"Ġapp":705,"Ġ--":706,"ĠĠĠĠĠĠ":707,"ical":708,"nb":709,"ov":710,"Ġsay":711,"Ġbeen":712,"Ġ6":713,"Ġdoes":714,"yst":715,"man":716,"Ġ$":717,"ution":718,"Ġ>":719,"Ġres":720,"ree":721,"ms":722,"Ġonly":723,"ble":724,"Ġwhen":725,"ord":726,"ystem":727,"aw":728,"cs":729,"Ġcont":730,"net":731,"ations":732,"Ġ\\'":733,"ause":734,"ci":735,"NT":736,"ug":737,"Ġgr":738,"!!":739,"ob":740,"ng":741,"ics":742,"per":743,"Ġhis":744,"ite":745,"ens":746,"ons":747,"++":748,"ech":749,"^^^^":750,"the":751,"ĠĠĠĠĠĠĠĠĠĠĠĠĠĠĠĠĠĠĠĠĠĠĠĠ":752,"ick":753,"ont":754,"10":755,"ory":756,"Ġuse":757,"Ġinter":758,"Ġpre":759,"Ġbel":760,"nm":761,"ĠX":762,"Ġ8":763,"ance":764,"hy":765,"uch":766,"ond":767,"ows":768,"Ġ/":769,"Ġbec":770,"Ġper":771,"Ġhow":772,"ny":773,"Ġdid":774,"~~~~":775,"ĠIf":776,"ish":777,"=-":778,"te":779,"\"\\":780,"ings":781,"ĠCom":782,"12":783,"IN":784,"app":785,"ious":786,"Ġtime":787,"****************":788,"ang":789,"Ġ7":790,"ark":791,"ign":792,"ible":793,"Ġalso":794,"ors":795,"nR":796,"Ġcould":797,"rist":798,"Ġwant":799,"itt":800,"Ġshould":801,"Ġpo":802,"Ġbet":803,"ER":804,"nC":805,"ED":806,"....":807,").":808,"form":809,"wo":810,"ays":811,"11":812,"20":813,"!\\":814,"ath":815,"ents":816,"ove":817,"=-=-":818,"ition":819,"ĠAr":820,"ple":821,"Ġthen":822,"OS":823,"Ġsc":824,"ware":825,"nThe":826,"other":827,"oft":828,"oll":829,"sel":830,"Ġmay":831,"-\\":832,"put":833,"Ġsee":834,"Ġbelie":835,"lic":836,"pe":837,"ount":838,"::":839,"nW":840,"ax":841,"nf":842,"1993":843,"Ġwork":844,"istrib":845,"ĠIs":846,"50":847,"aid":848,"Ġneed":849,"Ġover":850,"Ġser":851,"...\\":852,"ix":853,"Ġoff":854,"Ġinto":855,"ull":856,"reat":857,"nl":858,"ild":859,"ps":860,"ĠĠĠĠĠĠĠĠĠ":861,"oh":862,"Ġke":863,"ĠThis":864,"Ġthese":865,"Ġsupp":866,"port":867,"),":868,"Ġact":869,"Ġright":870,"Ġyear":871,"________________":872,"omet":873,"irst":874,"ning":875,"Ġ9":876,"Ġway":877,"mer":878,"nX":879,"han":880,"Ġgood":881,"Ġproble":882,"ade":883,"nP":884,"Ġ[":885,"Ġrel":886,"Ġ.":887,"own":888,"str":889,"##":890,"enc":891,"istribution":892,"iss":893,"ĠĠĠĠĠĠĠĠĠĠĠĠĠĠĠĠĠĠĠĠĠĠĠĠĠĠĠĠĠĠĠĠ":894,"The":895,"ca":896,"nB":897,"ert":898,"olog":899,"fter":900,"Ġdri":901,"oss":902,"gram":903,"Ġbecause":904,"SA":905,"Ġunder":906,"du":907,"indows":908,"Ġthose":909,"OM":910,"Ġsin":911,"Ġmake":912,"Ġmuch":913,"ton":914,"Apr":915,"ting":916,"Ġeven":917,"Ġ:":918,"vel":919,"we":920,"ntp":921,"Ġread":922,"nin":923,"ism":924,"ts":925,"erson":926,"ock":927,"ĠHe":928,"nH":929,"nh":930,"lect":931,"ote":932,"Ġtwo":933,"NTP":934,"ĠChrist":935,"nNntp":936,"14":937,"Ġvery":938,"Ġcar":939,"na":940,"nNNTP":941,"nDistribution":942,"fore":943,"che":944,"Ġob":945,"ys":946,"ĠAnd":947,"AT":948,").\\":949,"ict":950,"ower":951,"Ġdif":952,"read":953,"ĠGod":954,"Ġour":955,"Ġ_":956,"sh":957,"Ġbl":958,"ason":959,"io":960,"nF":961,"Ġrun":962,"wn":963,"Ġcall":964,"ians":965,"Ġtoo":966,"Ġmany":967,"Ġevery":968,"15":969,"ON":970,"ĠYou":971,"Ġsystem":972,"de":973,"Ġcomm":974,"Ġlook":975,"Ġagain":976,"lease":977,"ually":978,"not":979,"Ġnow":980,"Ġback":981,"Ġcons":982,"Ġdes":983,"cept":984,"ES":985,"Ġseem":986,"ise":987,"Ġquest":988,"000":989,"igh":990,"Ġet":991,"13":992,"Ġpart":993,"Ġgu":994,"25":995,"Ġfl":996,"Ġdef":997,"aph":998,"Ġanyone":999,"Ġpoint":1000,"Ġsuch":1001,"ĠQ":1002,"]\\":1003,"Ġrec":1004,"nand":1005,"Ġ#":1006,"Ġsaid":1007,"clud":1008,"oth":1009,"ah":1010,"86":1011,"Ġfirst":1012,"Ġmost":1013,"Ġadd":1014,"Ġmod":1015,"Ġ10":1016,"ener":1017,"Ġhere":1018,"40":1019,"iew":1020,"Ġused":1021,"AN":1022,"ific":1023,"nto":1024,"Ġnew":1025,"Ġhim":1026,"Ġworld":1027,"Ġsame":1028,"Ġacc":1029,"aim":1030,"--\\":1031,"Ġprogram":1032,"ran":1033,"avid":1034,"be":1035,"ied":1036,"les":1037,"Ġwell":1038,"Ġthr":1039,"Ġbu":1040,"Ġ|\\":1041,"To":1042,"uss":1043,"Ġhel":1044,"ages":1045,"16":1046,"thing":1047,"inal":1048,"ros":1049,"ork":1050,"way":1051,"org":1052,"Ġop":1053,"Ġass":1054,"Ġbeing":1055,"Ġits":1056,"Ġrem":1057,"nof":1058,"ood":1059,"ph":1060,"In":1061,"17":1062,"uk":1063,"tt":1064,"Ġsomet":1065,"vern":1066,"30":1067,"pect":1068,"oy":1069,"Ġcr":1070,"oftware":1071,"old":1072,"ates":1073,"ves":1074,"ought":1075,"Ġfind":1076,"Ġdiffer":1077,"Ġatt":1078,"ox":1079,"Ġown":1080,"self":1081,"ody":1082,"ft":1083,"ational":1084,"Ġpost":1085,"ey":1086,"son":1087,"AL":1088,"Ġac":1089,"Ġpar":1090,"vernment":1091,"Ġplay":1092,"ĠBut":1093,"Ġbelieve":1094,"ames":1095,"ĠHow":1096,"men":1097,"ĠDe":1098,"red":1099,"Ġwhere":1100,"Ġfe":1101,"IT":1102,"ale":1103,"Ġstart":1104,"atter":1105,"AR":1106,"alk":1107,"eply":1108,"Ġdec":1109,"Ġproblem":1110,"ik":1111,"Ġbr":1112,"mail":1113,">,":1114,"ĠAl":1115,"OR":1116,"Ġsim":1117,"att":1118,"ists":1119,"nG":1120,"Ġnum":1121,"Ġfact":1122,"Ġtry":1123,"Ġro":1124,"Ġte":1125,"22":1126,"ever":1127,"Ġset":1128,"ider":1129,".\"":1130,"Ġreally":1131,"erv":1132,"ĠThey":1133,"formation":1134,"Ġafter":1135,"ater":1136,"ather":1137,"ST":1138,"urn":1139,"ĠWhat":1140,"co":1141,"Ġsec":1142,"ute":1143,"any":1144,"Ġ&":1145,"ably":1146,"EDU":1147,"ful":1148,"ley":1149,"ern":1150,"nre":1151,"ins":1152,"Ġmight":1153,"80":1154,"az":1155,"================================":1156,"mit":1157,"ata":1158,"ident":1159,"\\\\\\\\":1160,"Ġhard":1161,"Ġstill":1162,"ven":1163,"24":1164,"ck":1165,"ren":1166,"oup":1167,"ular":1168,"su":1169,"ĠComput":1170,"ĠPro":1171,"//":1172,"Ġph":1173,"Ġinf":1174,"iet":1175,"Ġform":1176,"Ġbas":1177,"ility":1178,"ext":1179,"++++":1180,"Ġhelp":1181,"ology":1182,"xual":1183,"land":1184,"Ġsomething":1185,"ards":1186,"Ġlong":1187,"iles":1188,"ating":1189,"Ġgoing":1190,"Ġreg":1191,"Ġav":1192,"ĠAs":1193,"irect":1194,"~~~~~~~~":1195,"au":1196,"ween":1197,"Ġfoll":1198,"ru":1199,"Ġ=":1200,"Ġco":1201,"Ġmon":1202,"23":1203,"ĠCl":1204,"ily":1205,"nJ":1206,"its":1207,"echn":1208,"Ġwhy":1209,"Ġperson":1210,"ĠWe":1211,"day":1212,"Ġbefore":1213,"Ġcol":1214,"get":1215,"^^^^^^^^":1216,"uff":1217,"version":1218,"ron":1219,"ten":1220,"60":1221,"Ġhapp":1222,"Ġquestion":1223,"rew":1224,"aking":1225,"reen":1226,"ither":1227,"Ġx":1228,"Ġind":1229,"Ġ+":1230,"owing":1231,"Ġinst":1232,"OT":1233,"nReply":1234,"Ġgot":1235,"Ġtake":1236,"ner":1237,"Ġsl":1238,"Ġspe":1239,"ces":1240,"??":1241,"Ġsm":1242,"hed":1243,"ife":1244,"Ġnever":1245,"Ġgovernment":1246,"Ġthings":1247,"ives":1248,"18":1249,"Ġbetter":1250,"Ġyears":1251,"Ġwon":1252,"Ġspec":1253,"ĠThere":1254,"nK":1255,"ublic":1256,"Ġreal":1257,"Ġcor":1258,"oes":1259,"sw":1260,"Ġsince":1261,"Ġfile":1262,"ement":1263,"uth":1264,"ize":1265,"cess":1266,"Ġinclud":1267,"Ġhand":1268,"Ġel":1269,"Ġmean":1270,"sc":1271,"Ġche":1272,"Ġusing":1273,"Ġter":1274,"ET":1275,"Ġdisc":1276,"Ġsupport":1277,"Ġinv":1278,"Ġlast":1279,"Ġthrough":1280,"Ġmade":1281,"Ġdoesn":1282,"Ġsur":1283,"Ġ20":1284,"=-=-=-=-":1285,"bo":1286,"Ġsure":1287,">>>":1288,"ĠCan":1289,"Ġeff":1290,"Ġresp":1291,"Ġshe":1292,"Ġinterest":1293,"ee":1294,"ho":1295,"ĠSp":1296,"Ġetc":1297,"Ġsomeone":1298,"hanks":1299,"nthat":1300,"Ġask":1301,"less":1302,"Ġposs":1303,"air":1304,"Ġreason":1305,"Ġbetween":1306,"EN":1307,"Ġ\\\\":1308,"35":1309,"ipp":1310,"Ġput":1311,"akes":1312,"Ġ24":1313,"----------------------------------------------------------------":1314,"Ġfew":1315,"27":1316,"Ġgener":1317,"SI":1318,"ris":1319,"Ġthing":1320,"Ġcle":1321,"Ġboth":1322,"Ġword":1323,"><":1324,"rael":1325,"ange":1326,"Ġchild":1327,"af":1328,"Ġlot":1329,"ittle":1330,"Ġtell":1331,"bit":1332,"ision":1333,"ier":1334,"Ġcour":1335,"ĠNew":1336,"ator":1337,"ĠInc":1338,"nal":1339,"Ġnumber":1340,".,":1341,"Ġinformation":1342,"ction":1343,"ĠTh":1344,"nE":1345,"Ġadv":1346,"Ġwar":1347,"imes":1348,"ohn":1349,"nit":1350,"ailable":1351,"osexual":1352,"let":1353,"enter":1354,"Ġher":1355,"ĠInt":1356,"COM":1357,"Ġwithout":1358,"26":1359,"Ġstand":1360,"ved":1361,"orm":1362,"nn":1363,"Ġdown":1364,"isc":1365,"uck":1366,".\"\\":1367,"Ġmust":1368,"Ġlet":1369,"ok":1370,"ply":1371,"::::":1372,"rit":1373,"Ġlist":1374,"ative":1375,"Ġhav":1376,"ember":1377,"92":1378,"Ġide":1379,"Ġaround":1380,"stit":1381,"Ġint":1382,"Ġcop":1383,"stand":1384,"Ġgame":1385,"ĠArmen":1386,"ities":1387,"ĠComputer":1388,"Ġdet":1389,"med":1390,"Ġpol":1391,"28":1392,"min":1393,"Ġpower":1394,"ev":1395,"ger":1396,"ĠZ":1397,"als":1398,"Ġmess":1399,"Ġclaim":1400,"Ġagainst":1401,"Ġdifferent":1402,"90":1403,"IC":1404,"Ġstat":1405,"gg":1406,"Ġgreat":1407,"Ġ16":1408,"Ġrelig":1409,"ertain":1410,"ool":1411,"sp":1412,"nas":1413,"Ġrequ":1414,"********************************":1415,"Ġ15":1416,"ments":1417,"arch":1418,"osed":1419,"ĠCol":1420,"und":1421,"Ġcome":1422,"Ġinc":1423,"Ġopin":1424,"Ġcur":1425,"Ġear":1426,"bably":1427,"inc":1428,"meric":1429,"aps":1430,"Ġstr":1431,"by":1432,"uman":1433,"gin":1434,"Ġbit":1435,"ĠSh":1436,"ense":1437,"omosexual":1438,"ĠTur":1439,"Ġi":1440,"Ġdr":1441,"Ġdrive":1442,"ption":1443,"ĠIsrael":1444,"Ġext":1445,"ield":1446,"me":1447,"------------":1448,"\",":1449,"atch":1450,"ention":1451,"pro":1452,"ĠMac":1453,"HE":1454,"lim":1455,"nY":1456,"Ġ25":1457,"ty":1458,"Ġlaw":1459,"ony":1460,"Ġdata":1461,"ters":1462,"Ġanything":1463,"ures":1464,"rent":1465,"arge":1466,"ĠCor":1467,"EG":1468,"21":1469,"Ġtrans":1470,"ĠRes":1471,"OU":1472,"aphics":1473,"Ġend":1474,"Ġday":1475,"body":1476,"ering":1477,"ĠGr":1478,"Ġkill":1479,"Ġdidn":1480,"ler":1481,"Ġwhile":1482,"ices":1483,"Ġavailable":1484,"Ġlittle":1485,"nis":1486,"Ġimage":1487,"Ġdirect":1488,"ĠFor":1489,"Ġanother":1490,"ĠĠĠĠĠĠĠĠĠĠĠ":1491,"AM":1492,"ĠĠĠĠĠĠĠĠĠĠ":1493,"Ġgive":1494,"Ġfar":1495,";\\":1496,"Ġseems":1497,"BI":1498,"led":1499,"ĠSystem":1500,"Ġ14":1501,"ness":1502,"Ġnet":1503,"ĠWindows":1504,"33":1505,"88":1506,"ai":1507,"Ġcount":1508,"Ġeach":1509,"Ġleast":1510,"ret":1511,"ĠSci":1512,"Ġenough":1513,"####":1514,"Ġhigh":1515,"Ġins":1516,"ouse":1517,"Ġmin":1518,"ĠChristian":1519,">>\\":1520,"oad":1521,"Ġem":1522,"ope":1523,"idence":1524,"ient":1525,"aul":1526,"AC":1527,"ĠApr":1528,"press":1529,"Ġbo":1530,"Ġtri":1531,"Ġnews":1532,"ĠAd":1533,"ford":1534,"Ġconf":1535,"Ġexam":1536,"uring":1537,"no":1538,"ars":1539,"Ġelse":1540,"ooks":1541,"Ġconsider":1542,"gov":1543,"Ġpass":1544,"ument":1545,"/\\\\":1546,"ĠState":1547,"Ġcontro":1548,"ature":1549,"44":1550,"Ġ17":1551,"hich":1552,"Ġty":1553,"Ġfound":1554,"urch":1555,"Ġkeep":1556,"ately":1557,"hys":1558,"ĠThat":1559,"ĠPC":1560,"Ġ1993":1561,"aj":1562,"Ġpres":1563,"IF":1564,"><><":1565,"Ġcase":1566,"ĠSun":1567,"Ġold":1568,"key":1569,"ords":1570,"ially":1571,"Ġfr":1572,"tern":1573,"Ġbest":1574,"ality":1575,"nr":1576,"ode":1577,"play":1578,"EL":1579,"Ġcare":1580,"Ġsoftware":1581,"Ġprov":1582,"ĠEng":1583,"AS":1584,"ael":1585,"Ġseen":1586,"ection":1587,"Ġloc":1588,"Ġfire":1589,"Ġ18":1590,"ape":1591,"ric":1592,"vious":1593,"Ġwrong":1594,"news":1595,"Ġsays":1596,"tr":1597,"Ġ12":1598,"uslim":1599,"ĠMy":1600,"Ġwhe":1601,"ized":1602,"br":1603,"els":1604,"ĠOr":1605,"Ġcourse":1606,"atic":1607,"Ġkind":1608,"*\\":1609,"Ġprobably":1610,"bert":1611,"ui":1612,"ways":1613,"ID":1614,"Ġexpl":1615,"Ġval":1616,"velop":1617,"iven":1618,"Ġmem":1619,"work":1620,"til":1621,"Ġmor":1622,"ĠAmeric":1623,"aster":1624,"IS":1625,"Ġsol":1626,"xt":1627,"Ġes":1628,"Ġtalk":1629,"ott":1630,"esus":1631,"ichael":1632,"75":1633,"ead":1634,"col":1635,"Ġsub":1636,"UC":1637,"hes":1638,"Ġhappen":1639,"ror":1640,"Ġcertain":1641,"ĠSo":1642,"ait":1643,"ash":1644,"ets":1645,"ĠOn":1646,"Ġlife":1647,"Ġline":1648,"Ġmach":1649,"riv":1650,"Ġorder":1651,"ences":1652,"Ġarg":1653,"ĠMS":1654,"Ġabove":1655,"Ġdiscuss":1656,"IL":1657,"Ġtrue":1658,"Ġdone":1659,"________________________________":1660,"70":1661,"ased":1662,"Ġeither":1663,"===":1664,"ĠCon":1665,"ource":1666,"Ġent":1667,"Ġgun":1668,"Ġplan":1669,"ants":1670,"Ġmessage":1671,"ĠĠĠĠĠĠĠĠĠĠĠĠĠĠĠ":1672,"nIf":1673,"Ġkey":1674,"Ġeffect":1675,"RE":1676,"Ġfiles":1677,"alt":1678,"bers":1679,"Ġbook":1680,"Ch":1681,"Ġstud":1682,"Ġwrote":1683,"Ġever":1684,"Ġlead":1685,"Ġplace":1686,"Ġcalled":1687,"Ġthought":1688,"nbe":1689,"nfor":1690,"my":1691,"nIt":1692,".)\\":1693,"itor":1694,"Ġsit":1695,"Ġfree":1696,"artment":1697,"Ġmed":1698,"........":1699,"ats":1700,"Ġansw":1701,"eth":1702,"Ġcomput":1703,"netcom":1704,"ues":1705,"ĠPh":1706,"Ġer":1707,"Ġable":1708,"Ġfull":1709,"Ġsecond":1710,"Ġchildren":1711,"BM":1712,"was":1713,"Ġheard":1714,"Ġorig":1715,"Ġplease":1716,"ĠĠĠĠĠĠĠĠĠĠĠĠĠ":1717,"St":1718,"ĠSC":1719,"Ġteam":1720,"tp":1721,"rect":1722,"ef":1723,"ĠII":1724,"Ġrefer":1725,"Ġunderstand":1726,"Ġthough":1727,"rop":1728,"off":1729,"/\\\\/\\\\":1730,"Ġsw":1731,"Ġeas":1732,"cm":1733,"ently":1734,"ĠBr":1735,"Ġsugg":1736,"Ġsuggest":1737,"ari":1738,"Ġless":1739,"Ġrep":1740,"Ġgroup":1741,"nj":1742,"ript":1743,"Ġview":1744,"EC":1745,"_/":1746,"non":1747,"eng":1748,"icros":1749,"Ġref":1750,"Ġprop":1751,"MS":1752,"ĠTechn":1753,"ĠNo":1754,"ĠMay":1755,"Ġpossible":1756,"anc":1757,"ĠDo":1758,"Ġexper":1759,"Ġothers":1760,"DOS":1761,"Ġ11":1762,"Ġrather":1763,"ma":1764,"Ġsend":1765,"uiuc":1766,"comm":1767,"ĠUSA":1768,"45":1769,"---\\":1770,"ĠUS":1771,"Ġobject":1772,"Ġhomosexual":1773,"ĠĠĠĠĠĠĠĠĠĠĠĠĠĠĠĠĠ":1774,"amp":1775,"comp":1776,"duct":1777,"ek":1778,"ĠAT":1779,"Ġbuy":1780,"Ġpartic":1781,"Ġsign":1782,"Ġbig":1783,"ĠAll":1784,"Ġ13":1785,"Ġvi":1786,"nThis":1787,"ared":1788,"Ġmail":1789,"Ġnothing":1790,"ky":1791,"ĠApp":1792,"ĠBl":1793,"Ġreport":1794,"Ġproblems":1795,"Ġfeel":1796,"Ġname":1797,"ĠJesus":1798,"65":1799,"apt":1800,"ĠCA":1801,"\".":1802,"||":1803,"Ġmind":1804,"Ġclear":1805,"ĠTr":1806,"Ġlooking":1807,"Ġdefin":1808,"bl":1809,"Ġhuman":1810,"vert":1811,"Ġcard":1812,"ĠĠĠĠĠĠĠĠĠĠĠĠĠĠ":1813,"ume":1814,"bs":1815,"ster":1816,"tI":1817,"Ġversion":1818,"Ġshow":1819,"Ġdoing":1820,"Ġtest":1821,"ĠPL":1822,"Ġ...":1823,"Ġquite":1824,"PEG":1825,"por":1826,"Ġbad":1827,"ission":1828,"02":1829,"ince":1830,"ains":1831,"ĠAny":1832,"ĠĠĠĠĠĠĠĠĠĠĠĠĠĠĠĠĠĠĠĠĠĠĠĠĠĠĠĠĠĠĠĠĠĠĠĠĠĠĠĠ":1833,"gal":1834,"Ġdeal":1835,"Ġpublic":1836,"Ġactually":1837,"Ġfollowing":1838,",\"":1839,"mm":1840,"Ġsever":1841,"words":1842,"ecess":1843,"Ġ:-":1844,"%*":1845,"News":1846,"zer":1847,"Ġresult":1848,"orn":1849,"Ġexist":1850,"91":1851,"Ġevidence":1852,"Ġidea":1853,"Ġyet":1854,"ille":1855,"Ġwhether":1856,"ank":1857,"eter":1858,"32":1859,"Ġpos":1860,"nth":1861,"ĠMuslim":1862,"ĠPl":1863,"aus":1864,"ĠFBI":1865,"selves":1866,"Ġaddress":1867,"ified":1868,"Ġalways":1869,"arl":1870,"95":1871,"cr":1872,"ically":1873,"Ġfun":1874,"David":1875,"cle":1876,"Ġ30":1877,"Ġexample":1878,".\\'":1879,"AX":1880,"gy":1881,"nia":1882,"arent":1883,"con":1884,"nU":1885,"Ġcre":1886,"Ġeng":1887,"Ġisn":1888,"ides":1889,"Ġbeh":1890,"Ġtrying":1891,"++++++++":1892,"aug":1893,"chool":1894,"ĠDavid":1895,"Ġthree":1896,"Ġcomple":1897,"ĠAm":1898,"Ġchip":1899,"Ġprot":1900,"ĠQu":1901,"66":1902,"ux":1903,"Ġsci":1904,"Ġaccept":1905,"Ġhaving":1906,"Ġret":1907,"upp":1908,"ify":1909,"ING":1910,"cher":1911,"Ġnon":1912,"Ġsmall":1913,"nor":1914,"Ġlight":1915,"Ġchange":1916,"!!!!":1917,"actic":1918,"Ġequ":1919,"AD":1920,"ulation":1921,"Ġconc":1922,"nst":1923,"oice":1924,"ĠĠĠĠĠĠĠĠĠĠĠĠ":1925,"LI":1926,"ĠAt":1927,"Ġhead":1928,"raw":1929,"Ġgetting":1930,"Ġenc":1931,"uthor":1932,"hp":1933,"oron":1934,"view":1935,"ada":1936,"Ġprocess":1937,">|>":1938,"ĠLe":1939,"Ġleft":1940,"ches":1941,"Ġcopy":1942,"ward":1943,"ital":1944,"arn":1945,"Ġmeans":1946,"earch":1947,"eywords":1948,"hip":1949,"exas":1950,"ĠWhen":1951,"And":1952,"unic":1953,"nKeywords":1954,"Ġopinions":1955,"epartment":1956,"den":1957,"li":1958,"Ġaway":1959,"85":1960,"riend":1961,"umb":1962,"uf":1963,"ane":1964,"ĠInter":1965,"haps":1966,"most":1967,"oe":1968,"ti":1969,"ccess":1970,"Ġcurrent":1971,"ĠScience":1972,"ajor":1973,"reg":1974,"empt":1975,"Ġ21":1976,"stitute":1977,"ited":1978,"Ġpack":1979,"lege":1980,"Ġmonth":1981,"ball":1982,"alth":1983,"Ġmen":1984,"aint":1985,"orld":1986,"Ġmatter":1987,"arg":1988,"Ġdou":1989,"ready":1990,"=*":1991,"nwith":1992,"ĠBe":1993,"Ġcond":1994,"Ġsound":1995,"ases":1996,"oney":1997,"ived":1998,".)":1999,"iving":2000,"ĠCal":2001,"Ġwonder":2002,"Ġappear":2003,"Ġapplic":2004,"BS":2005,"IV":2006,"Ġbus":2007,"ired":2008,"po":2009,"Ġstuff":2010,"ager":2011,"AP":2012,"Ġpat":2013,"ĠDOS":2014,"ĠComm":2015,"ior":2016,"ĠWhy":2017,"Ġmakes":2018,"Ġfa":2019,"oronto":2020,"If":2021,"Ġdev":2022,"IM":2023,"ird":2024,"ources":2025,"Ġnext":2026,"Ġsaying":2027,"IG":2028,"Ġhist":2029,"ĠSc":2030,"indow":2031,"tty":2032,"Ġcontrol":2033,"ĠTHE":2034,"ided":2035,"ĠMan":2036,"Ġseveral":2037,"29":2038,"ĠEx":2039,"Ġdevelop":2040,"Ġanswer":2041,"nThanks":2042,"37":2043,"amer":2044,"Ġimport":2045,"opp":2046,"ĠBos":2047,"rypt":2048,"hem":2049,"Ġcost":2050,"ĠWh":2051,"Ġgiven":2052,"Ġlarge":2053,"eff":2054,"ison":2055,"oups":2056,"ĠST":2057,"ones":2058,"rian":2059,"ĠNOT":2060,"ross":2061,"vent":2062,"Ġdeath":2063,"ogr":2064,"OP":2065,"Ġpit":2066,"ots":2067,"~~~~~~~~~~~~~~~~":2068,"DE":2069,"nus":2070,"inter":2071,"ĠPr":2072,"%*%*":2073,"Ġed":2074,"Ġcame":2075,"Ġrunning":2076,"Ġdesc":2077,"Ġonce":2078,"nk":2079,"aper":2080,"34":2081,"38":2082,"ask":2083,"64":2084,"MT":2085,"ĠMc":2086,"ĠJew":2087,"Ġgeneral":2088,"lis":2089,"Ġsoc":2090,"irc":2091,"Ġnecess":2092,"Ġexp":2093,"Ġopp":2094,"osp":2095,"Ġspace":2096,"uro":2097,"npro":2098,"iam":2099,"hington":2100,"Ġduring":2101,"ĠSe":2102,"ĠPer":2103,"ump":2104,"mp":2105,"ĠLab":2106,"ended":2107,"Ġagree":2108,"Ġsell":2109,"Ġalready":2110,"ĠArab":2111,"GA":2112,"arr":2113,"ĠJPEG":2114,"Ġbuild":2115,"icrosoft":2116,"Ġbased":2117,"Ġdem":2118,"97":2119,"ĠEngine":2120,"bur":2121,"Ġturn":2122,"omen":2123,"Ġgames":2124,"ency":2125,"Ġ22":2126,"04":2127,"Ġ26":2128,"reader":2129,"nasa":2130,"PU":2131,"ĠPres":2132,"ours":2133,"\\\\\\\\\\\\\\\\":2134,"cb":2135,"Ġcannot":2136,"Ġspeed":2137,"36":2138,"Ġinterested":2139,"ĠAn":2140,"nyou":2141,"Ġguess":2142,"ION":2143,"nex":2144,"ised":2145,"Ġtop":2146,"LE":2147,"---":2148,"ĠServ":2149,"Ġelect":2150,"ĠĠĠĠĠĠĠĠĠĠĠĠĠĠĠĠĠĠĠ":2151,"oresh":2152,"ires":2153,"nFrom":2154,"Newsreader":2155,"Ġcou":2156,"Ġchang":2157,"OW":2158,"enet":2159,"Ġocc":2160,"elf":2161,"Ġago":2162,"Ġlocal":2163,"Ġoriginal":2164,"ained":2165,"ideo":2166,"claim":2167,"Ġmachine":2168,"oid":2169,"ording":2170,"US":2171,"ral":2172,"Ġtold":2173,"Ġdist":2174,"ands":2175,"new":2176,"oot":2177,"uw":2178,"Ġrest":2179,"Ġremember":2180,"////":2181,"ĠTechnology":2182,"bt":2183,"Ġaut":2184,"Ġhome":2185,"ilar":2186,"ĠNot":2187,"Ġ23":2188,"Ġcorrect":2189,"Ġrespons":2190,"May":2191,"ush":2192,"ĠUN":2193,"ĠResearch":2194,"05":2195,"sue":2196,"Ġlib":2197,"ĠDepartment":2198,"umm":2199,"lin":2200,"nv":2201,"urd":2202,"Ġaccess":2203,"Ġinfo":2204,"Ġpop":2205,"Ġgod":2206,"Ġstate":2207,"ĠNe":2208,"that":2209,"right":2210,"Ġtimes":2211,"Ġopen":2212,"87":2213,"ling":2214,"ĠSer":2215,"Ġrad":2216,"Ġdep":2217,"Ġimages":2218,"onom":2219,"Ġsy":2220,"Ġtoday":2221,"acy":2222,"Ġoper":2223,"Ġmajor":2224,"ference":2225,"iver":2226,"pec":2227,"arm":2228,"arry":2229,"Ġoften":2230,"Ġdisk":2231,"Ġcomputer":2232,"Ġve":2233,"eral":2234,"erve":2235,"Ġpe":2236,"ĠInstitute":2237,"iety":2238,"Ġstandard":2239,"nch":2240,"Ġtext":2241,"Ġfre":2242,"Ġdays":2243,"Ġgl":2244,"ĠGe":2245,"ĠEd":2246,"Ġworks":2247,"Ġwhole":2248,"=-=-=-=-=-=-=-=-":2249,"ipper":2250,"sd":2251,"ĠTo":2252,"Ġsubject":2253,"Ġpast":2254,"Ġinvol":2255,"#>":2256,"Ġhope":2257,"Ġnight":2258,"Ġconn":2259,"Ġexpect":2260,"Ġquestions":2261,"Ġcover":2262,"Ġparticular":2263,"Ġsort":2264,"Ġmark":2265,"Ġlove":2266,"Ġsimply":2267,"::::::::":2268,"ĠCollege":2269,"cmu":2270,"reci":2271,"Ġallow":2272,"Ġprice":2273,"Ġformat":2274,"89":2275,"Ġdesign":2276,"OL":2277,"line":2278,"Ġpay":2279,"Ġrece":2280,"ĠCenter":2281,"Ġhear":2282,"ience":2283,"Ġfriend":2284,"outh":2285,"irgin":2286,"though":2287,"Ġdrug":2288,"55":2289,"vax":2290,"Ġwindows":2291,"Ġcode":2292,"Ġdisplay":2293,"nYou":2294,"AY":2295,"cent":2296,"Ġusa":2297,"ERS":2298,"Ġprograms":2299,"Ġphone":2300,"Ġinstall":2301,"uh":2302,"Ġauthor":2303,"Ġhold":2304,"unch":2305,"Ġ27":2306,"nV":2307,"ĠĠĠĠĠĠĠĠĠĠĠĠĠĠĠĠĠĠ":2308,"ortun":2309,"rank":2310,"Ġsitu":2311,"olution":2312,"84":2313,"full":2314,"go":2315,"atus":2316,"Ġbre":2317,"Ġport":2318,"eck":2319,"Ġuntil":2320,"ĠĠĠĠĠĠĠĠĠĠĠĠĠĠĠĠĠĠĠĠĠĠĠĠĠĠĠ":2321,"01":2322,"Ġissue":2323,"Ġdoct":2324,"Ġpretty":2325,"Ġfollow":2326,"IR":2327,"It":2328,"Ġbase":2329,"ĠRE":2330,"ivid":2331,"erman":2332,"Ġwent":2333,"ATF":2334,"urope":2335,"UR":2336,"ĠIBM":2337,"Ġuser":2338,"Ġvar":2339,"Ġhit":2340,"Ġathe":2341,"Ġreligion":2342,"ĠSystems":2343,"Ġpress":2344,"ado":2345,"ĠBible":2346,"Ġ*\\":2347,"mb":2348,"Ġsource":2349,"ĠHowever":2350,"ination":2351,"osh":2352,"Ġ_/":2353,"^^^^^^^^^^^^^^^^":2354,"cy":2355,"Ġmass":2356,"Ġmove":2357,"acs":2358,"ored":2359,"iana":2360,"Ġbelief":2361,"Ġcontin":2362,"Ġwords":2363,"Ġcomplete":2364,"ibility":2365,"ĠKoresh":2366,"Ġcheck":2367,"94":2368,"sol":2369,"aining":2370,"IX":2371,"gers":2372,"Ġbox":2373,"Ġmention":2374,"Ġthemselves":2375,"\".\\":2376,"eg":2377,"Ġsing":2378,"ĠCr":2379,"tS":2380,"nhave":2381,"iod":2382,"tA":2383,"ĠCar":2384,"board":2385,"que":2386,"aken":2387,"Ġtype":2388,"sun":2389,"Ġappro":2390,"nnot":2391,"ĠJews":2392,"ĠSCSI":2393,"ned":2394,"Ġ40":2395,"ney":2396,"lam":2397,"UCP":2398,"la":2399,"Ġtried":2400,"ĠEngineering":2401,"AQ":2402,"Ġmoney":2403,"ĠDoes":2404,"Ġstarted":2405,"Ġspecific":2406,"----------------------------------------------------------------------------":2407,"Ġfield":2408,"....\\":2409,"arily":2410,"Ġlog":2411,"Ġemail":2412,"eal":2413,"urp":2414,"acks":2415,"Ġrepl":2416,"illion":2417,"estern":2418,"arc":2419,"ĠSome":2420,"Ġappreci":2421,"isk":2422,"ural":2423,"Ġcolor":2424,"Ġimportant":2425,"41":2426,"Ġwin":2427,"=*=*":2428,"___":2429,"ilt":2430,"II":2431,"eh":2432,"ĠNor":2433,"Ġdoc":2434,",`":2435,"39":2436,"iter":2437,"alo":2438,"ĠCanada":2439,"Windows":2440,"ecause":2441,"ifor":2442,"Ġalmost":2443,"obert":2444,"state":2445,"aces":2446,"ury":2447,"Ġoffic":2448,"SP":2449,"Ġnor":2450,"ana":2451,"itions":2452,"ected":2453,"uments":2454,"oci":2455,"31":2456,"rel":2457,"Ġside":2458,"Ġcause":2459,"Ġbatter":2460,"nAnd":2461,"ĠArmenian":2462,"face":2463,"orado":2464,"ĠShe":2465,"ung":2466,"ium":2467,"Ġimp":2468,"nCh":2469,"ĠAmerican":2470,"EW":2471,"Ġ`":2472,"Ġ100":2473,"Ġcomes":2474,"ĠOF":2475,"ĠJohn":2476,"ĠComp":2477,"omas":2478,"Ġoffer":2479,"Ġsold":2480,"rivate":2481,"ĠPaul":2482,"iron":2483,"ago":2484,"ifornia":2485,"100":2486,"UT":2487,"Ġ?":2488,"Ġ50":2489,"gor":2490,"ivil":2491,"ensive":2492,"+\\":2493,"nare":2494,"\\'\\":2495,"ries":2496,"epend":2497,"Ġcommon":2498,"irginia":2499,"This":2500,"ncon":2501,"ĠJewish":2502,"John":2503,"uct":2504,"ino":2505,"Ġposting":2506,"OC":2507,"ault":2508,"Ġmot":2509,"ĠAN":2510,"Ġcertainly":2511,"nhe":2512,"sy":2513,"ability":2514,"MA":2515,"ham":2516,"par":2517,"Ġdead":2518,"%%":2519,"ye":2520,"|\\":2521,"ona":2522,"ĠOne":2523,"ĠApril":2524,"Ġmaking":2525,"arth":2526,"Ġ32":2527,"ĠDept":2528,"ole":2529,"ser":2530,"Ġz":2531,"ĠNow":2532,"ional":2533,"Ġserv":2534,"enn":2535,"Ġlive":2536,"ĠNet":2537,"Ġproper":2538,"Ġprint":2539,"Ġterm":2540,"ĠPresident":2541,"IP":2542,"cso":2543,"Ġcap":2544,"ems":2545,"Ġreligious":2546,"48":2547,"lev":2548,"Ġarea":2549,"aves":2550,"raft":2551,"Ġnear":2552,"Ġpresent":2553,"LY":2554,"ols":2555,"Ġlevel":2556,"yp":2557,"Ġphys":2558,"Ġanal":2559,"Ġlim":2560,"ĠSoftware":2561,"INN":2562,"Ġworking":2563,"Ġattempt":2564,"Ġmonths":2565,"ĠCD":2566,"ĠGMT":2567,"Ġeverything":2568,">:":2569,"with":2570,"well":2571,"ĠMed":2572,"Ġexcept":2573,"Ġdifference":2574,"Ġspeak":2575,"Ġasked":2576,",`,`":2577,"eb":2578,"rary":2579,"Ġwindow":2580,"Ġbody":2581,"Ġfan":2582,"Ġfont":2583,"nter":2584,"Ġ28":2585,"ude":2586,"forman":2587,"itting":2588,"Ġfaith":2589,"+@":2590,"42":2591,"nun":2592,"ream":2593,"Ġfail":2594,"Ġlow":2595,"Ġposition":2596,"96":2597,"erc":2598,"Ġbro":2599,"Ġexact":2600,"SC":2601,"Ġcirc":2602,"about":2603,"ured":2604,"Ġsimilar":2605,"Ġcouple":2606,"/\\":2607,"ls":2608,"tle":2609,"Ġfin":2610,"ĠIm":2611,"ĠDon":2612,"iness":2613,"Ġinstead":2614,"########":2615,"ividual":2616,"which":2617,"Ġ93":2618,"Ġcult":2619,"Ġpractic":2620,"ĠTurk":2621,"formance":2622,"UN":2623,"orry":2624,"Ġftp":2625,"ĠInd":2626,"Ġna":2627,"Ġred":2628,"Ġengine":2629,"You":2630,"pen":2631,"Ġign":2632,"Ġschool":2633,"Ġbur":2634,"Ġfig":2635,"46":2636,"Ġsent":2637,"Ġmaybe":2638,"Ġstrong":2639,"more":2640,"sa":2641,"urity":2642,"ibm":2643,"ĠSpace":2644,"rig":2645,"Ġcaus":2646,"Ġrese":2647,"ĠBATF":2648,"Ġvis":2649,"CH":2650,"gs":2651,"ring":2652,"where":2653,"Ġlater":2654,"ĠAre":2655,"ads":2656,"atever":2657,"Ġproduct":2658,"Ġshort":2659,"Ġwouldn":2660,"ĠĠĠĠĠĠĠĠĠĠĠĠĠĠĠĠĠĠĠĠĠĠĠĠĠĠ":2661,"Ġserious":2662,"Ġsingle":2663,"ĠĠĠĠĠĠĠĠĠĠĠĠĠĠĠĠĠĠĠĠĠ":2664,"ĠOS":2665,"Ġrights":2666,"Ġincre":2667,"ockey":2668,"Ġclass":2669,"Ġbecome":2670,"Ġperiod":2671,"ched":2672,"Ġhaven":2673,"fully":2674,"Ġweek":2675,"Ġknown":2676,"Ġkilled":2677,"ĠInternet":2678,"ĠCalifornia":2679,"77":2680,"OO":2681,"Ġtechn":2682,"ister":2683,"ece":2684,"utch":2685,"ĠAust":2686,"Mark":2687,"like":2688,"oman":2689,"Ġfall":2690,"Ġmult":2691,"ĠĠĠĠĠĠĠĠĠĠĠĠĠĠĠĠĠĠĠĠ":2692,"Ġmonitor":2693,"><><><><":2694,"lu":2695,"onse":2696,"ene":2697,"alf":2698,"ĠPal":2699,"Ġwithin":2700,"Ġgoes":2701,"Ġmemory":2702,"nse":2703,"Ġ**":2704,"Ġitself":2705,"uper":2706,"ĠChristians":2707,"but":2708,"Ġfam":2709,"ĠIN":2710,"ĠEurope":2711,"Ġwrite":2712,"Ġstatement":2713,"Ġfront":2714,"Ġviol":2715,"Edu":2716,"LL":2717,"rad":2718,"you":2719,"Ġfour":2720,"Ġnice":2721,"ĠThanks":2722,"Ġstop":2723,"uffalo":2724,"Ġver":2725,"nThere":2726,"nwas":2727,"pecially":2728,"can":2729,"ged":2730,"Ġmov":2731,"Ġdam":2732,"stan":2733,"ĠNY":2734,"ĠJust":2735,"ounds":2736,"nWhat":2737,"Ġregard":2738,"Ġsituation":2739,"ds":2740,"har":2741,"serv":2742,"ving":2743,"ze":2744,"Ġsense":2745,"itical":2746,"Ġyes":2747,"roy":2748,"oston":2749,"ĠYork":2750,"Ġhowever":2751,"claimer":2752,"Ġsk":2753,"ani":2754,"aco":2755,"ĠMA":2756,"ĠGo":2757,"aving":2758,"Ġopinion":2759,"Ġhappened":2760,"ummary":2761,"EX":2762,"ories":2763,"istr":2764,"Ġhistory":2765,"Ġdescrib":2766,"idge":2767,"ilit":2768,"ĠPR":2769,"elie":2770,"aven":2771,"inton":2772,"iction":2773,"bu":2774,"gh":2775,"Ġmiss":2776,"ĠRuss":2777,"Ġjob":2778,"Ġamong":2779,"CC":2780,"Col":2781,"fect":2782,"pub":2783,"itch":2784,"Ġvia":2785,"Ġvideo":2786,"ĠAlso":2787,"Ġdetail":2788,"03":2789,"fess":2790,"Ġap":2791,"ĠMar":2792,"ĠĠĠĠĠĠĠĠĠĠĠĠĠĠĠĠĠĠĠĠĠĠĠ":2793,"teve":2794,"ĠArmenians":2795,"Ġsaw":2796,"Ġfine":2797,"Ġpers":2798,"icago":2799,"ĠĠĠĠĠĠĠĠĠĠĠĠĠĠĠĠĠĠĠĠĠĠ":2800,"rive":2801,"Ġjud":2802,"49":2803,"Michael":2804,"Ġself":2805,"Ġissu":2806,"oses":2807,"Ġvol":2808,"Ġadvance":2809,"umbia":2810,"mith":2811,"side":2812,"Ġ@":2813,"Ġhig":2814,"utgers":2815,"sey":2816,"ried":2817,"ĠHis":2818,"Ġwanted":2819,"leted":2820,"nat":2821,"tD":2822,"ĠSch":2823,"ĠWin":2824,"TP":2825,"rant":2826,"ĠTIN":2827,"urther":2828,"ploy":2829,"Ġclose":2830,"Ġguy":2831,"76":2832,"CS":2833,"fic":2834,"Ġmain":2835,"utes":2836,"Ġusers":2837,"Ġshall":2838,"Ġwritten":2839,"Ġlikely":2840,"Ġserver":2841,"how":2842,"Ġbooks":2843,"Ġtot":2844,"Ġrid":2845,"Ġcompany":2846,"ĠCorpor":2847,"ann":2848,"================================================================":2849,"Ġentire":2850,"08":2851,"oint":2852,"Ġ>>":2853,"atory":2854,"Ġupon":2855,"Ġincluding":2856,"Ġcountry":2857,"RA":2858,"ract":2859,"Ġ)":2860,"Ġchar":2861,"Ġgraphics":2862,"Ġeveryone":2863,"lish":2864,"erm":2865,"orge":2866,"UUCP":2867,"cis":2868,"Ġsus":2869,"Ġpub":2870,"ients":2871,"Ġtaken":2872,"Ġfair":2873,"ĠPlease":2874,"Ġtalking":2875,"ethod":2876,"?)":2877,"aust":2878,"ray":2879,"ald":2880,"nAr":2881,"Ġtook":2882,"eve":2883,"Ġ>\\":2884,"head":2885,"nAs":2886,"itted":2887,"Ġscreen":2888,"Ġindic":2889,"tB":2890,"ouble":2891,"Ġprom":2892,"aced":2893,"irt":2894,"aged":2895,"ĠThese":2896,"Ġpackage":2897,"MB":2898,"Ġsale":2899,"Ġland":2900,"Ġones":2901,"add":2902,"Ġmyself":2903,"nbut":2904,"Ġspecial":2905,"IA":2906,"ina":2907,"Ġwatch":2908,"nthis":2909,"keley":2910,"ift":2911,"Ġconv":2912,"Ġvs":2913,"Ġdiscussion":2914,"59":2915,"Ġtw":2916,"Ġwait":2917,"Ġcent":2918,"Ġball":2919,"Ġlearn":2920,"Ġprevious":2921,"Ġpeace":2922,">(":2923,"oz":2924,"Ġair":2925,"ending":2926,"Ġpolice":2927,"Ġdoubt":2928,"PS":2929,"nam":2930,"Ġtem":2931,"omew":2932,"Ġmag":2933,"ental":2934,"ryption":2935,"Ġhardware":2936,"gorith":2937,"cer":2938,"Ġmother":2939,"ĠGerman":2940,"43":2941,"=\\":2942,"DL":2943,"oly":2944,"ators":2945,"Ġmine":2946,"irit":2947,"nAl":2948,"Ġtrad":2949,"Ġreading":2950,"Ġinclude":2951,"/\\\\/\\\\/\\\\/\\\\":2952,"Ġeasy":2953,"ĠApple":2954,"83":2955,"sg":2956,"Ġwomen":2957,"arks":2958,"Ġdel":2959,"Ġdue":2960,"Ġnorm":2961,"istic":2962,"lor":2963,"uture":2964,"ules":2965,"row":2966,"tT":2967,"Ġcho":2968,"Ġgas":2969,"ively":2970,"Ġargument":2971,"ĠCorporation":2972,"ming":2973,"Ġtreat":2974,"ĠMary":2975,"ĠWas":2976,"Ġorg":2977,"ĠOh":2978,"Ġindividual":2979,"#\\":2980,"47":2981,"aff":2982,"know":2983,"oop":2984,"tThe":2985,"isclaimer":2986,"econd":2987,"ĠWaco":2988,"Ġtyp":2989,"%^":2990,"EE":2991,"nes":2992,"ston":2993,"olic":2994,"Ġdeg":2995,"Ġpersonal":2996,"aut":2997,"unix":2998,"andrew":2999,"come":3000,"resent":3001,"ichard":3002,"unications":3003,"Ġvarious":3004,"just":3005,"tP":3006,"uted":3007,"Ġleg":3008,"dig":3009,"Ġut":3010,"Ġdi":3011,"acc":3012,"ucs":3013,"Ġperhaps":3014,"stratus":3015,"Ġearth":3016,"Ġstudy":3017,"fr":3018,"rutgers":3019,"tC":3020,"Ġbike":3021,"ĠFAQ":3022,"ĠDr":3023,"ples":3024,"Ġ:-)\\":3025,"Ġpurp":3026,"ĠBill":3027,"nSo":3028,"Ġdest":3029,"ĠWell":3030,"Ġsimple":3031,"ledge":3032,"99":3033,"ined":3034,"unity":3035,"avy":3036,"ips":3037,"Ġneeds":3038,"veland":3039,"Ġattack":3040,"Ġmeaning":3041,"67":3042,"ENT":3043,"nce":3044,"td":3045,"uel":3046,"Ġ!":3047,"ĠDes":3048,"Ġyourself":3049,"Ġwants":3050,"Ġcommand":3051,"ss":3052,"lex":3053,"Ġcompl":3054,"Ġseries":3055,"MH":3056,"oon":3057,"ule":3058,"ĠSan":3059,"ĠAfter":3060,"ĠMuslims":3061,"57":3062,"ĠMr":3063,"ĠMot":3064,"nAny":3065,"Ġboard":3066,"PL":3067,"VM":3068,"back":3069,"Ġir":3070,"ĠTexas":3071,"Ġwilling":3072,"Ġgets":3073,"Ġsupposed":3074,"augh":3075,"_\\":3076,"ĠMat":3077,"une":3078,"group":3079,"ugg":3080,"Ġassum":3081,"Ġinteresting":3082,"ĠChristianity":3083,"pressed":3084,"ĠServices":3085,"hil":3086,"Ġsize":3087,"eds":3088,"Ġcivil":3089,"ĠWill":3090,"angu":3091,"Ġobvious":3092,"Ġresponse":3093,"ficult":3094,"NET":3095,"RU":3096,"rd":3097,"time":3098,"Ġvers":3099,"Ġtaking":3100,"ĠCont":3101,"verage":3102,"ĠUs":3103,"Ġconvert":3104,"nsh":3105,"action":3106,"Ġperformance":3107,"ced":3108,"mil":3109,"Ġcut":3110,"urt":3111,"Ġarch":3112,"Ġ35":3113,"Ġneeded":3114,"Ġmembers":3115,"Ġerror":3116,"Ġdocument":3117,"DS":3118,"Ġcit":3119,"Ġmet":3120,"ĠBoston":3121,"Ġ29":3122,"nwould":3123,"Ġlonger":3124,"ean":3125,"got":3126,"tM":3127,"vm":3128,"win":3129,"ĠMor":3130,"ĠWestern":3131,"Ġworth":3132,"clus":3133,"ograp":3134,"<<":3135,"king":3136,"erry":3137,"ĠWar":3138,"ĠGIF":3139,"\\\\\\":3140,"Ġplayers":3141,"!\"":3142,"AA":3143,"CE":3144,"asons":3145,"iga":3146,"ements":3147,"ĠNational":3148,"Ġquality":3149,"Ġmanual":3150,"nHow":3151,"Ġnetwork":3152,"ĠTurkish":3153,"63":3154,"CR":3155,"No":3156,"bor":3157,"des":3158,"ram":3159,"Ġanybody":3160,"Ġdriver":3161,"ysis":3162,"DX":3163,"What":3164,"atech":3165,"Ġlab":3166,"ĠAzer":3167,"ague":3168,"opher":3169,"ĠUnit":3170,"Ġamount":3171,"Ġblack":3172,"Ġsystems":3173,"nan":3174,"ta":3175,"Ġ%":3176,"Ġest":3177,"Ġload":3178,"urder":3179,"Ġuses":3180,"Ġsex":3181,"nMy":3182,"oseph":3183,"Ġexperience":3184,"Ġexactly":3185,"82":3186,"HL":3187,"Ġ{":3188,"idd":3189,"urs":3190,"Ġchurch":3191,"Ġinterp":3192,"Ġissues":3193,"\")":3194,"wise":3195,"Ġfast":3196,"ĠIS":3197,"Ġlives":3198,"ĠSw":3199,"Ġpred":3200,"Ġmodel":3201,"ronic":3202,"lib":3203,"Ġfans":3204,"ales":3205,"anta":3206,"eneral":3207,"Ġaccount":3208,"Ġmethod":3209,"Ġenv":3210,"wards":3211,"Ġmis":3212,"aries":3213,"Ġhor":3214,"Ġla":3215,"ĠLet":3216,"ĠClinton":3217,"ironment":3218,"54":3219,"Al":3220,"Sun":3221,"fi":3222,"ffer":3223,"mon":3224,"oms":3225,"Ġpick":3226,"Ġdraw":3227,"Ġthird":3228,"ĠIll":3229,"used":3230,"ĠBy":3231,"nfrom":3232,"nBut":3233,"735":3234,"Ar":3235,"CA":3236,"dec":3237,"fe":3238,"nother":3239,"Ġface":3240,"Ġhours":3241,"ĠBBS":3242,"Ġunless":3243,"Ġ80":3244,"stitution":3245,"LA":3246,"We":3247,"do":3248,"wh":3249,"Ġpaper":3250,"Ġden":3251,"acter":3252,"ids":3253,"ĠMin":3254,"term":3255,"Ġstory":3256,"Ġ486":3257,"Ġaddition":3258,"EP":3259,"ele":3260,"Ġbi":3261,"omatic":3262,"Ġforce":3263,"urance":3264,"Ġaren":3265,"Ġgroups":3266,"anger":3267,"Ġ,":3268,"hel":3269,"ĠCent":3270,"umd":3271,"thew":3272,"------------------------------------------------------------------------":3273,"ery":3274,"reet":3275,"Ġann":3276,"aser":3277,"emon":3278,"ivision":3279,"nFor":3280,"pi":3281,"ller":3282,"Ġlines":3283,"estin":3284,"quest":3285,"ivity":3286,"Ġrecently":3287,"Ġconsidered":3288,"++++++++++++++++":3289,"53":3290,"EM":3291,"nany":3292,"Ġwhatever":3293,"------------------------------------------------":3294,"Ġground":3295,"Ġ?\\":3296,"Ġusually":3297,"Ġart":3298,"Ġapplication":3299,"Ġinvolved":3300,"oke":3301,"sl":3302,"Ġcal":3303,"ĠFOR":3304,"cell":3305,"ĠWith":3306,"Ġweap":3307,"Ġanyway":3308,"Ġcompress":3309,"74":3310,"MW":3311,"TW":3312,"reed":3313,"Ġsaf":3314,"Ġmiles":3315,"ĠMon":3316,"Ġhell":3317,"ĠNO":3318,"Ġwasn":3319,"Ġleave":3320,"oviet":3321,"iot":3322,"napp":3323,"Ġfil":3324,"Ġprivate":3325,"utions":3326,"Ġappreciated":3327,"200":3328,"tm":3329,"ops":3330,"nPlease":3331,"Ġrequest":3332,"Ġbehind":3333,"Ġappears":3334,"Ġpict":3335,"icro":3336,"ĠSupp":3337,"ĠDen":3338,"Ġshare":3339,"Ġdeleted":3340,"nthey":3341,"ohio":3342,"Ġespecially":3343,"burgh":3344,"Ġhigher":3345,"bi":3346,"cont":3347,"nle":3348,"over":3349,"Ġid":3350,"Ġtakes":3351,"rem":3352,"unet":3353,"ĠThen":3354,"ffic":3355,"Ġprefer":3356,"def":3357,"52":3358,"?\"":3359,"duc":3360,"vard":3361,"Ġtoget":3362,"Ġgen":3363,"ida":3364,"ayton":3365,"ĠMicrosoft":3366,"Ġ33":3367,"Ġcontact":3368,"ĠĠĠĠĠĠĠĠĠĠĠĠĠĠĠĠĠĠĠĠĠĠĠĠĠ":3369,"Ġrespond":3370,"ography":3371,"Ġtogether":3372,"ASA":3373,"atures":3374,"ĠMark":3375,"Ġhealth":3376,"Ġcoming":3377,"Ġaction":3378,"07":3379,"61":3380,":-":3381,"FF":3382,"mot":3383,"Ġenter":3384,"Ġmar":3385,"ĠCle":3386,"olks":3387,"Ġ31":3388,"EST":3389,"attle":3390,"car":3391,"ein":3392,"fo":3393,"gu":3394,"nim":3395,"tes":3396,"oud":3397,"Ġfore":3398,"Ġgives":3399,"plement":3400,"nWell":3401,"aterial":3402,"aur":3403,"gen":3404,"gress":3405,"Ġec":3406,"Ġanti":3407,"ĠTH":3408,"ĠMY":3409,"ĠWho":3410,"Ġstep":3411,"Ġdoor":3412,"Ġalgorith":3413,"ĠXV":3414,"Ġprovide":3415,"anguage":3416,"mission":3417,"Ġways":3418,"itive":3419,"Ġfuture":3420,"Ġmurder":3421,"ĠToronto":3422,"ĠAccess":3423,"ceed":3424,"Ġcouldn":3425,"ĠClipper":3426,"Ġhomosexuality":3427,"GR":3428,"nag":3429,"Ġu":3430,"Ġnature":3431,"amin":3432,"ĠGree":3433,"Ġknows":3434,"ĠUnix":3435,"they":3436,"merc":3437,"duce":3438,"Ġmode":3439,"Ġposted":3440,"Ġearly":3441,"56":3442,"AK":3443,"Is":3444,"dt":3445,"ising":3446,"ĠHP":3447,"ĠNT":3448,"itts":3449,"Ġplayer":3450,"Com":3451,"OV":3452,"Ġtur":3453,"Ġben":3454,"Ġhate":3455,"ilities":3456,"ĠRed":3457,"ogn":3458,"Ġimag":3459,"Ġpray":3460,"!!!\\":3461,"CP":3462,"field":3463,"aring":3464,"Ġgave":3465,"ĠOf":3466,"ĠOpen":3467,"ights":3468,"Ġsoon":3469,"Ġquick":3470,"Ġ1992":3471,"ificant":3472,"Ġcheap":3473,"Ġpopulation":3474,"ae":3475,"rup":3476,"anford":3477,"Ġfund":3478,"alle":3479,"Ġdom":3480,"ota":3481,"Ġlost":3482,"iff":3483,"estig":3484,"Ġproject":3485,"Ġgoal":3486,"ipment":3487,"****************************************************************":3488,"lished":3489,"mercial":3490,"Ġfix":3491,"ĠSat":3492,"Ġheart":3493,"indiana":3494,"ibly":3495,"ĠKing":3496,"ological":3497,"ĠComputing":3498,"Ġrequire":3499,"Ġconnect":3500,"gun":3501,"real":3502,"Ġrev":3503,"nIs":3504,"ĠStud":3505,"Ġprevent":3506,"!)":3507,">\"":3508,"TS":3509,"Ġaf":3510,"Ġinn":3511,"imate":3512,">>>>":3513,"aine":3514,"Ġoutside":3515,"TH":3516,"ncom":3517,"Ġtape":3518,"reme":3519,"Ġpun":3520,"ette":3521,"ĠSince":3522,"idget":3523,"Ġquot":3524,"Ġprim":3525,"apple":3526,"Ġobserv":3527,"Ġclaims":3528,"Ġmoral":3529,"ĠLabor":3530,"inois":3531,"digex":3532,"81":3533,"Ġ;":3534,"Ġsomew":3535,"ĠCam":3536,"ĠNews":3537,"Ġmeas":3538,"Ġassume":3539,"ruct":3540,"Sc":3541,"yl":3542,"Ġnote":3543,"Ġ386":3544,"Ġwarrant":3545,"medi":3546,"columbia":3547,"Ġreturn":3548,"solute":3549,"ĠIllinois":3550,"->":3551,"lying":3552,"ĠCOM":3553,"Ġdeb":3554,"Ġlegal":3555,"Ġtruth":3556,"ĠIslam":3557,"Ġbring":3558,"Ġideas":3559,"Ġscient":3560,"ilitary":3561,"CD":3562,"How":3563,"ners":3564,"Ġsave":3565,"nSummary":3566,"nOrig":3567,"Ġexter":3568,"upid":3569,"Ġchoice":3570,"nwhich":3571,"Ġ--\\":3572,"struct":3573,"Ġdifficult":3574,"Ġnumbers":3575,"reenet":3576,"Ġclean":3577,"Ġpolic":3578,"Ġapplications":3579,"ĠUnited":3580,"),\\":3581,"Cl":3582,"Mike":3583,"mag":3584,"ounc":3585,"Ġcases":3586,"Ġmillion":3587,"Ġhalf":3588,"oles":3589,"ĠHar":3590,"nSt":3591,"Ġclutch":3592,"Ġevent":3593,"ification":3594,"ĠATF":3595,"miss":3596,"Ġinit":3597,"ĠCPU":3598,"ĠBD":3599,"ocide":3600,"Ġalong":3601,"avior":3602,"nThat":3603,"Ġbasis":3604,"Ġvalue":3605,"pd":3606,"Ġaff":3607,"ened":3608,"Ġbill":3609,"ica":3610,"uttle":3611,"Ġcompound":3612,"Ġkeys":3613,"washington":3614,"Ġviews":3615,"ortunately":3616,"ittsburgh":3617,"sch":3618,"oul":3619,"stant":3620,"Ġrecomm":3621,"Ġorbit":3622,"ncan":3623,"grad":3624,"aij":3625,"51":3626,"OD":3627,"nall":3628,"ellig":3629,"Ġoutput":3630,"groups":3631,"nWe":3632,"Ġdrivers":3633,"Ġruns":3634,"Ġdirectly":3635,"Ġnecessary":3636,"73":3637,"cor":3638,"dom":3639,"Ġfaster":3640,"ĠIDE":3641,"aching":3642,"ams":3643,"ĠPost":3644,"nder":3645,"Ġemploy":3646,"500":3647,">#":3648,"set":3649,"vms":3650,"Ġ...\\":3651,"Ġwater":3652,"Ġpri":3653,"ĠHST":3654,"ends":3655,"ĠChurch":3656,"Ġmodem":3657,"Ġdetect":3658,"ĠGermany":3659,"68":3660,"69":3661,"GP":3662,"met":3663,"val":3664,"Ġdie":3665,"Ġnational":3666,"ĠMR":3667,"ĠLord":3668,"Ġshot":3669,"Ġalt":3670,"Ġchance":3671,"nby":3672,"Ġpercent":3673,"Ġperfect":3674,"Ġdrives":3675,"Ġcars":3676,"%*%*%*%*":3677,"ĠWashington":3678,"Ġcitiz":3679,"nz":3680,"Ġbought":3681,"Ġfight":3682,"Ġmount":3683,"ĠSubject":3684,"igital":3685,"elt":3686,"ĠLaw":3687,"this":3688,"Ġ-\\":3689,"iple":3690,"nDavid":3691,"Ġrespect":3692,"Ġpoints":3693,"clude":3694,"Ġlaws":3695,"Ġguns":3696,"Jim":3697,"MU":3698,"Virginia":3699,"Ġident":3700,"ĠCH":3701,"Ġwhose":3702,"Ġsuccess":3703,"Ġ60":3704,"Ġnecessarily":3705,"baij":3706,"inator":3707,"ederal":3708,"ĠPublic":3709,"Ġselect":3710,"Ġknowledge":3711,"ucp":3712,"Ġresults":3713,"Ġbaseball":3714,"Net":3715,"ergy":3716,"athe":3717,"Ġbegin":3718,"ĠEarth":3719,"Ġuseful":3720,"stronom":3721,"Ġcarry":3722,"ĠGraphics":3723,"Ġmedical":3724,"Ġdefinition":3725,"Ġbusiness":3726,"Ġsociety":3727,"dd":3728,"hic":3729,"ĠSab":3730,"Ġstick":3731,"ander":3732,"graphics":3733,"ĠĠĠĠĠĠĠĠĠĠĠĠĠĠĠĠĠĠĠĠĠĠĠĠĠĠĠĠĠĠĠ":3734,"Ġesc":3735,"Ġfunction":3736,"Sh":3737,"ville":3738,"Ġtra":3739,"onest":3740,"Ġsources":3741,"iced":3742,"Ġuni":3743,"ncont":3744,"Ġincluded":3745,"ĠGroup":3746,"Ġdirectory":3747,"istration":3748,"%^%^":3749,"Th":3750,"ga":3751,"ki":3752,"world":3753,"yes":3754,"Ġsite":3755,"anks":3756,"ites":3757,"iting":3758,"ĠYOU":3759,"Ġthinking":3760,"???\\":3761,"Ġextra":3762,"Ġmarket":3763,"rb":3764,"Ġaverage":3765,"ances":3766,"eno":3767,"Ġfurther":3768,"acle":3769,"ĠWhere":3770,"ĠON":3771,"408":3772,"Ġsecurity":3773,"OB":3774,"Paul":3775,"nic":3776,"ouis":3777,"ential":3778,"ĠFTP":3779,"ĠWorld":3780,"force":3781,"Ġimplement":3782,"intosh":3783,"echan":3784,"Ġbelow":3785,"omething":3786,"Ġrecord":3787,"ĠAss":3788,"Ġwondering":3789,"ĠUNIX":3790,"EWS":3791,"(*":3792,"72":3793,"AB":3794,"El":3795,"load":3796,"tw":3797,"rest":3798,"ĠIR":3799,"ĠUK":3800,"................":3801,"62":3802,"gatech":3803,"sf":3804,"Ġhockey":3805,"ĠSim":3806,"ĠTV":3807,"ĠEven":3808,"nwill":3809,"peg":3810,"Ġbuilt":3811,"Ġterms":3812,"Ġconcern":3813,"Ġmentioned":3814,"Ġservice":3815,"Ġtotal":3816,"09":3817,"NS":3818,"PP":3819,"cast":3820,"|>\\":3821,"inally":3822,"Ġthous":3823,"std":3824,"ĠElect":3825,"Ġalthough":3826,"acker":3827,"duction":3828,"Ġparts":3829,"Ġexplain":3830,"urdue":3831,".:":3832,"aud":3833,"eks":3834,"tN":3835,"vin":3836,"Ġstri":3837,"ession":3838,"Ġbuilding":3839,"Ġradio":3840,"cw":3841,"ease":3842,"ying":3843,"erd":3844,"Ġsky":3845,"Ġpain":3846,"Ġreply":3847,"ĠMichael":3848,"ola":3849,"Ġra":3850,"ctually":3851,"nson":3852,"ossible":3853,"Ġflopp":3854,"inals":3855,"altech":3856,"Ġcondition":3857,"ehov":3858,"Bill":3859,"tR":3860,"anies":3861,"ĠCons":3862,"iding":3863,"istry":3864,"cover":3865,"Ġphot":3866,"Ġplanet":3867,"Ġcompletely":3868,"Ġwish":3869,"anet":3870,"itors":3871,"itude":3872,"Ġlooks":3873,"Ġlooked":3874,"Ġguys":3875,"Ġaccur":3876,"Ġassoci":3877,"ĠIsraeli":3878,"arently":3879,"Ġchanged":3880,"uwait":3881,"ehovah":3882,"IST":3883,"nres":3884,"npr":3885,"some":3886,"Ġfolks":3887,"Ġmaterial":3888,"\\',":3889,"Ġhouse":3890,"ĠOtt":3891,"avor":3892,"aker":3893,"raight":3894,"oving":3895,"formed":3896,"Ġencryption":3897,"iddle":3898,"access":3899,"rol":3900,"istent":3901,"organ":3902,"ipping":3903,"Ġpurch":3904,"Ġlanguage":3905,"eles":3906,"Ġ200":3907,"Ġsexual":3908,"Ġdisks":3909,"ĠStates":3910,"Ġasking":3911,"Ġmachines":3912,"Ġpitcher":3913,"sgi":3914,"PR":3915,"hu":3916,"nabout":3917,"rors":3918,"Ġhost":3919,"ĠFr":3920,"osing":3921,"Ġabsolute":3922,"!!\\":3923,"Ġadvice":3924,"800":3925,"For":3926,"si":3927,"uucp":3928,"Ġtax":3929,"Ġwife":3930,"Ġsil":3931,"Ġcrypt":3932,"Ġpage":3933,"Ġparent":3934,"oph":3935,"aste":3936,"Ġhimself":3937,"ĠProgram":3938,"ropri":3939,"illegal":3940,"+-":3941,"78":3942,"ME":3943,"mac":3944,"yle":3945,"ĠIra":3946,"acing":3947,"ĠRob":3948,"Ġdog":3949,"nline":3950,"Ġactions":3951,"Ġsurv":3952,"ĠBosni":3953,"ĠWhite":3954,"Ġbreak":3955,"========================================================================":3956,"Ġnormal":3957,"UE":3958,"yer":3959,"Ġsens":3960,"Ġpen":3961,"Ġang":3962,"Ġbeg":3963,"hern":3964,"******":3965,"Ġrate":3966,"Ġcomments":3967,"Ġexists":3968,"nDoes":3969,"berg":3970,"ystems":3971,"ristian":3972,"Ġdecided":3973,"ORD":3974,"Ġsignificant":3975,"ufact":3976,"Ġofficial":3977,"las":3978,"ued":3979,"uly":3980,"Ġ____":3981,"ĠESP":3982,"Ġvill":3983,"nNo":3984,"ously":3985,"obe":3986,"Ġaccording":3987,"Ġincludes":3988,"Ġsurpr":3989,"Ġnewsgroup":3990,"Ġclearly":3991,"??\\":3992,"iable":3993,"sys":3994,"rees":3995,"Ġoil":3996,"arles":3997,"leep":3998,"Ġreasons":3999,"see":4000,"Ġstupid":4001,"ĠOther":4002,"Ġhappens":4003,"Ġconfig":4004,"===\\":4005,"Ġeasily":4006,"ĠWhile":4007,"ĠNorth":4008,"md":4009,"rv":4010,"ĠBer":4011,"ĠDC":4012,"ĠDES":4013,"Ġproof":4014,"ngo":4015,"Ġsuspect":4016,"Ġinterpret":4017,"nOriginator":4018,"],":4019,"_\\'":4020,"atible":4021,"oment":4022,"Ġmist":4023,"Ġliving":4024,"ĠBell":4025,"optil":4026,"Ġarms":4027,"nsome":4028,"erely":4029,"Ġimpro":4030,"perature":4031,"psu":4032,"Ġinsurance":4033,"Ġreference":4034,"optilink":4035,"71":4036,"79":4037,"Steve":4038,"XX":4039,"bin":4040,"ken":4041,"light":4042,"ished":4043,"Ġmission":4044,"Ġtool":4045,"ico":4046,"ached":4047,"ĠTO":4048,"uni":4049,"nwhat":4050,"Ġimpl":4051,"ĠYes":4052,"Ġsometimes":4053,"Ġpolitical":4054,"Ġmedia":4055,"Ġbattery":4056,"Ġresearch":4057,"ĠESPN":4058,"hib":4059,"Ġbits":4060,"Ġmir":4061,"Ġhyp":4062,"ĠCS":4063,"amma":4064,"Ġstated":4065,"ĠGu":4066,"ĠJer":4067,"Ġaltern":4068,"ears":4069,"Ġ---":4070,"encies":4071,"bridge":4072,"Ġcreate":4073,"Ġenvironment":4074,"Robert":4075,"none":4076,"tH":4077,"Ġsat":4078,"asing":4079,"Ġ34":4080,"ĠVAX":4081,"ĠUniv":4082,"nthem":4083,"nthere":4084,"Ġcondem":4085,"harvard":4086,"aniel":4087,"600":4088,"dam":4089,"hand":4090,"mor":4091,"Ġ(\"":4092,"utexas":4093,"ĠChe":4094,"ĠCON":4095,"amed":4096,"ĠPA":4097,"ĠPittsburgh":4098,"ription":4099,"Ġstay":4100,"Ġdecision":4101,"Ġreported":4102,"||||":4103,"\\\\\\\\\\\\\\\\\\\\\\\\\\\\\\\\":4104,"Ġresponsible":4105,"Ġfigure":4106,"rupt":4107,"But":4108,"EV":4109,"Jehovah":4110,"Mail":4111,"iers":4112,"nne":4113,"Ġtech":4114,"omb":4115,"alse":4116,"Ġmouse":4117,"Ġlack":4118,"ĠSmith":4119,"ĠAg":4120,"umber":4121,"osition":4122,"Ġweeks":4123,"ocal":4124,"Ġ||":4125,"Ġworked":4126,"Ġstarting":4127,"Ġeffort":4128,"ĠCorp":4129,".\\'.\\'":4130,"ĠPalestin":4131,"orks":4132,"ades":4133,"under":4134,"ables":4135,"opy":4136,"ĠNASA":4137,"Ġregular":4138,"Ġinvestig":4139,"Ġcreated":4140,"Ġdemon":4141,"////////":4142,"Ġbeliefs":4143,"Ġfonts":4144,"ĠMYERS":4145,"300":4146,"CW":4147,"hz":4148,"oring":4149,"aron":4150,"usc":4151,"ĠCAN":4152,"educ":4153,"Ġrout":4154,"ndo":4155,"Ġconcept":4156,"ĠKuwait":4157,"Ġrelations":4158,"Ġobt":4159,"Ġbasic":4160,"Qu":4161,"nif":4162,"tW":4163,"}\\":4164,"itic":4165,"vey":4166,"Ġloss":4167,"verse":4168,"ĠMike":4169,"Ġste":4170,"andom":4171,"ello":4172,"ncl":4173,"Ġneither":4174,"ension":4175,"Ġrecogn":4176,"Ġslow":4177,"Ġcurrently":4178,"?)\\":4179,"OG":4180,"Reply":4181,"cd":4182,"caltech":4183,"za":4184,"ini":4185,"Ġcards":4186,"aled":4187,"ĠPower":4188,"ĠPIT":4189,"Ġcomment":4190,"128":4191,"peed":4192,"Ġroom":4193,"ĠThomas":4194,"pression":4195,"::::::::::::::::":4196,"XT":4197,"uge":4198,"rey":4199,"Ġwalk":4200,"ening":4201,"icine":4202,"Ġinde":4203,"ĠCo":4204,"ĠDec":4205,"ante":4206,"tical":4207,"ground":4208,"Ġprinter":4209,"ninter":4210,"ATION":4211,"Ġcommunity":4212,"range":4213,"Ġacross":4214,"Ġvalues":4215,"ĠMaybe":4216,"Ġanalysis":4217,"vik":4218,"inary":4219,"Ġopt":4220,"Ġthus":4221,"Ġhum":4222,"Ġnone":4223,"uts":4224,"ĠMod":4225,"izing":4226,"ĠEast":4227,"ephen":4228,"Ġrequired":4229,"..\\":4230,"ares":4231,"rim":4232,"wr":4233,"ĠSP":4234,"ĠAng":4235,"ĠFAX":4236,"ĠHam":4237,"ĠLib":4238,"Ġseason":4239,"ief":4240,"ĠArmenia":4241,"Ġinside":4242,"ĠAmerica":4243,"Ġpolicy":4244,"From":4245,"HT":4246,"SD":4247,"ges":4248,"ĠBrit":4249,"odies":4250,"iller":4251,"ulf":4252,"nNews":4253,"Ġneigh":4254,"Ġtrouble":4255,"ronics":4256,"Ġturned":4257,"ependent":4258,"GB":4259,"cal":4260,"oom":4261,"Ġ__":4262,"inger":4263,"Ġpi":4264,"Ġknew":4265,"avis":4266,"nwe":4267,"Ġagents":4268,"Ġpoor":4269,"Ġdesigned":4270,"ĠAzerbaij":4271,"ĠGreek":4272,"06":4273,"As":4274,"There":4275,"UM":4276,"VMS":4277,"Ġrepe":4278,"Ġforget":4279,"sequ":4280,"unk":4281,"ĠFran":4282,"ĠRad":4283,"ulate":4284,"atell":4285,"ores":4286,"Ġsepar":4287,"Ġcompanies":4288,"Ġenergy":4289,"ooking":4290,"Ġcontrib":4291,"ĠĠĠĠĠĠĠĠĠĠĠĠĠĠĠĠĠĠĠĠĠĠĠĠĠĠĠĠ":4292,"Ġserve":4293,"orgia":4294,"Ġrepresent":4295,"PC":4296,"bell":4297,"raph":4298,"Ġbul":4299,"Ġdanger":4300,"ĠArg":4301,"ili":4302,"ĠHel":4303,"Ġheat":4304,"ĠEl":4305,"ĠYour":4306,"npeople":4307,"Ġapply":4308,"Ġrelated":4309,"nHi":4310,"Ġreasonable":4311,"Ġminor":4312,"ĠDoD":4313,"cbnews":4314,"Ġdrugs":4315,"Ġchoose":4316,"Ġalgorithm":4317,"BC":4318,"Freenet":4319,"buffalo":4320,"lied":4321,"rine":4322,"inst":4323,"Ġwire":4324,"Ġsch":4325,"order":4326,"Ġdied":4327,"pped":4328,"ĠGeneral":4329,"uma":4330,"umn":4331,"ĠLa":4332,"aved":4333,"nTh":4334,"udel":4335,"Ġcollect":4336,"=*=*=*=*":4337,"58":4338,"Ed":4339,"math":4340,"nout":4341,"sm":4342,"Ġtend":4343,"ache":4344,"ĠBru":4345,"andvik":4346,"Ġrange":4347,"Ġsuffer":4348,"duke":4349,"Ġhandle":4350,"Ġletter":4351,"Ġsounds":4352,"ĠCommunications":4353,"ograph":4354,"Ġallowed":4355,"Ġcharacter":4356,"EK":4357,"SR":4358,"nel":4359,"Ġess":4360,"Ġsuper":4361,"aly":4362,"Ġpot":4363,"Ġmilitary":4364,"Ġhot":4365,"nwho":4366,"Ġimmedi":4367,"Ġserial":4368,"Ġphil":4369,"Ġavoid":4370,"ĠTurkey":4371,"Ġdevice":4372,"nknow":4373,"Ġdetails":4374,"uunet":4375,"Ġhom":4376,"Ġnat":4377,"Ġlic":4378,"Ġshows":4379,"Ġalone":4380,"Ġdisag":4381,"Ġscript":4382,"Ġrock":4383,"Ġlots":4384,"hysics":4385,"Ġswitch":4386,"Ġprotect":4387,"~~~~~~~~~~~~~~~~~~~~~~~~~~~~~~~~":4388,"Ġfrequ":4389,"Ġpurpose":4390,"(\"":4391,"So":4392,"VR":4393,"uo":4394,"ara":4395,"ĠSter":4396,"ĠAL":4397,"ĠAb":4398,"unt":4399,"nthan":4400,"Ġrule":4401,"Ġplaces":4402,"Ġdisease":4403,"nYes":4404,"Ġfamily":4405,"ĠRussian":4406,"aughter":4407,"Dave":4408,"east":4409,"zip":4410,"Ġther":4411,"Ġwall":4412,"Ġdiv":4413,"Ġrele":4414,"ĠRay":4415,"iffer":4416,"niversity":4417,"Ġtherefore":4418,"nWhen":4419,"Ġbrought":4420,"Ġboards":4421,"Ġreflect":4422,"ĠLaboratory":4423,"fl":4424,"lier":4425,"nock":4426,"sal":4427,"Ġ^":4428,"atest":4429,"Ġcat":4430,"Ġpix":4431,"\\'.":4432,"Ġluck":4433,"using":4434,"ĠPat":4435,"Ġconver":4436,"Ġprove":4437,"apter":4438,"ĠEv":4439,"Ġsearch":4440,"nTo":4441,"ĠInformation":4442,"onym":4443,"ĠAND":4444,"ropriate":4445,"Ġindeed":4446,"DD":4447,"who":4448,"Ġsection":4449,"Ġcoll":4450,"Ġmaint":4451,"Ġdro":4452,"ntr":4453,"uration":4454,"irm":4455,"iring":4456,"istory":4457,"ĠGreen":4458,"alled":4459,"elling":4460,"!!!":4461,"Ġleaders":4462,"cellent":4463,"Ġweapons":4464,"ĠSupport":4465,"386":4466,"KS":4467,"Ġillegal":4468,"Ġpages":4469,"ariz":4470,"ĠSoviet":4471,"ĠMe":4472,"ĠMost":4473,"ĠPol":4474,"ĠWH":4475,"ĠEr":4476,"ffice":4477,"berkeley":4478,"oved":4479,"nCan":4480,"nCom":4481,"Ġhands":4482,"undred":4483,"magnus":4484,"BIT":4485,"lig":4486,"atives":4487,"ises":4488,"ounce":4489,"arb":4490,"ĠAc":4491,"ĠMail":4492,"ĠBMW":4493,"ĠRem":4494,"ĠHouse":4495,"Ġexc":4496,"Ġexpressed":4497,"Ġmeet":4498,"Ġcontains":4499,"Ġrequires":4500,"________________________________________________________________":4501,"anced":4502,"Ġreceived":4503,")/":4504,"GE":4505,"Hz":4506,"aks":4507,"mosp":4508,"Ġ)\\":4509,"atthew":4510,"ĠSy":4511,"ĠMorm":4512,"ĠBox":4513,"ticles":4514,"nThey":4515,"nlight":4516,"Ġobjects":4517,"Ġfreed":4518,"kt":4519,"ncomp":4520,"she":4521,"sci":4522,"ĠSec":4523,"Ġformer":4524,"terday":4525,"eway":4526,"Ġsupply":4527,"Ġparty":4528,"Ġshell":4529,"Ġgenocide":4530,"map":4531,"tF":4532,"tu":4533,"Ġill":4534,"Ġstraight":4535,"aging":4536,"Ġrisk":4537,"ques":4538,"Ġ|>":4539,"Ġcontext":4540,"athos":4541,"ĠTurks":4542,"Ġtransl":4543,"Ġcaused":4544,"ĠOpenWindows":4545,"SE":4546,"mont":4547,"uke":4548,"ype":4549,"Ġtheory":4550,"Ġfather":4551,"arter":4552,"Ġanim":4553,"Ġdiet":4554,"icon":4555,"Ġgone":4556,"celer":4557,"ournal":4558,"Ġspirit":4559,"Ġquote":4560,"msu":4561,"ILL":4562,"ancy":4563,"Ġcosts":4564,"Ġjudg":4565,"Ġtemperature":4566,"Ġtreatment":4567,"erdar":4568,");\\":4569,">--":4570,"host":4571,"uz":4572,"Ġpull":4573,"Ġant":4574,"Ġlate":4575,"ĠSH":4576,"usr":4577,"ĠMD":4578,"ĠDet":4579,"Ġstates":4580,"uls":4581,"Ġvict":4582,"Ġcharge":4583,"ranch":4584,"Ġcrim":4585,"Ġkilling":4586,"Ġreports":4587,"Ġ:-)":4588,"Ġbehavior":4589,"ĠGeorgia":4590,",`,`,`,`":4591,"fessor":4592,"ĠArgic":4593,"PI":4594,"Pat":4595,"da":4596,"from":4597,"mitted":4598,"post":4599,"tl":4600,"will":4601,"inet":4602,"Ġcreat":4603,"alent":4604,"arget":4605,"vex":4606,"Ġgay":4607,"ĠHere":4608,"illy":4609,"elcome":4610,"apers":4611,"essage":4612,"Ġexec":4613,"Ġ1991":4614,"Ġmanufact":4615,"ĠĠĠĠĠĠĠĠĠĠĠĠĠĠĠĠĠĠĠĠĠĠĠĠĠĠĠĠĠ":4616,"Ġassert":4617,"Ġstatements":4618,"OUL":4619,"aught":4620,"unication":4621,"ĠNetwork":4622,"Ġcitizens":4623,",\\'":4624,"Brian":4625,"]:":4626,"based":4627,"dr":4628,"nop":4629,"pm":4630,"Ġcable":4631,"Ġbab":4632,"ĠIT":4633,"andy":4634,"ĠLee":4635,"anted":4636,"Ġ38":4637,"nNot":4638,"ccording":4639,"Ġquant":4640,"Ġblood":4641,"ONE":4642,"Ġrecent":4643,"Ġowners":4644,"Ġdefined":4645,"Ġautomatic":4646,"=-=-=-=-=-=-=-=-=-=-=-=-=-=-=-=-":4647,"Ġinstalled":4648,"rbana":4649,"Con":4650,"NN":4651,"PT":4652,"Software":4653,"UL":4654,"belie":4655,"eah":4656,"npl":4657,"Ġsix":4658,"Ġrelease":4659,"ĠCath":4660,"Ġyoung":4661,"imum":4662,"ĠRAM":4663,"ĠHer":4664,"Ġnotice":4665,"ĠOnline":4666,"Ġability":4667,"ucks":4668,"nAll":4669,"Ġremote":4670,"Ġposts":4671,"Ġhappy":4672,"Ġterror":4673,"Ġadvant":4674,"ength":4675,"cleveland":4676,"Ġincrease":4677,"Ġfloppy":4678,"onymous":4679,">[":4680,"Ke":4681,"vt":4682,"Ġeduc":4683,"Ġcy":4684,"arian":4685,"Ġinput":4686,"ĠSam":4687,"ĠFre":4688,"ĠFax":4689,"ĠPress":4690,"urrent":4691,"rief":4692,"ĠLouis":4693,"apan":4694,"Ġ37":4695,"ntheir":4696,"cles":4697,"Ġresources":4698,"nme":4699,"nyour":4700,"Ġkept":4701,"Ġminutes":4702,"Ġcontroller":4703,"Ġphysical":4704,"):\\":4705,"98":4706,"dis":4707,"nman":4708,"inate":4709,"atics":4710,"Ġsum":4711,"Ġbat":4712,"Ġthreat":4713,"oting":4714,"Ġgiving":4715,"ĠSchool":4716,"ĠPH":4717,"Ġrac":4718,"Ġmeant":4719,"____________":4720,"Ġ1990":4721,"neg":4722,"obb":4723,"Ġsuppose":4724,"hank":4725,"Ġcalls":4726,"ĠColorado":4727,"cwru":4728,"UB":4729,"^\\":4730,"don":4731,"fort":4732,"what":4733,"enry":4734,"Ġge":4735,"Ġliter":4736,"ils":4737,"Ġ64":4738,"ĠĠĠĠĠĠĠĠĠĠĠĠĠĠĠĠĠĠĠĠĠĠĠĠĠĠĠĠĠĠĠĠĠĠ":4739,"nhas":4740,"crow":4741,"Ġbenef":4742,"arizona":4743,"My":4744,"aver":4745,"file":4746,"have":4747,"mc":4748,"nup":4749,"wer":4750,"Ġwide":4751,"enge":4752,"leg":4753,"icks":4754,"Ġlower":4755,"ĠWest":4756,"ĠWork":4757,"Ġrules":4758,"Ġplus":4759,"Ġenforce":4760,"Ġ$(":4761,"ohim":4762,"Ġadded":4763,"Ġvalid":4764,"_/_/":4765,"ĠArabs":4766,"Ġvehic":4767,"Ġcontinue":4768,"ĠCramer":4769,"Ġtypes":4770,"Ġdemonstr":4771,"\",\\":4772,"GI":4773,"uit":4774,"Ġmoment":4775,"eton":4776,"ĠMass":4777,"ĠFirst":4778,"ĠDivision":4779,"Ġnoticed":4780,"ersion":4781,"ested":4782,"ĠLA":4783,"Ġcommercial":4784,"Ġcancer":4785,"inking":4786,"nwere":4787,"nfortunately":4788,"Ġcopies":4789,"Ġmorning":4790,"Ġatheists":4791,"Ġpractice":4792,"Ġdestroy":4793,"LB":4794,"OK":4795,"ROM":4796,"bony":4797,"corn":4798,"tor":4799,"uy":4800,"Ġ----":4801,"Ġtit":4802,"orcy":4803,"isions":4804,"itamin":4805,"Ġmus":4806,"ĠCase":4807,"ĠMel":4808,"igan":4809,"sell":4810,"ĠBur":4811,"ĠRobert":4812,"ĠNaz":4813,"Ġexport":4814,"ocr":4815,"nDo":4816,"Ġ800":4817,"Ġ70":4818,"puter":4819,"Ġeth":4820,"Ġsites":4821,"Ġexistence":4822,"Ġequipment":4823,"Ġpatients":4824,"iverse":4825,"Ġfairly":4826,"Ġorganization":4827,"Ġestab":4828,"TR":4829,"pan":4830,"esides":4831,"Ġfive":4832,"Ġdistrib":4833,"ĠSouth":4834,"ĠAC":4835,"Ġheld":4836,"ĠOK":4837,"ĠEvery":4838,"oger":4839,"Ġadmit":4840,"ĠStr":4841,"ribe":4842,"Ġevents":4843,"nlike":4844,"ologies":4845,"Ġthrow":4846,"Ġfacts":4847,"Ġformats":4848,"Ġcolors":4849,"--------------------------------------------------------------------":4850,"Ġdouble":4851,"$$":4852,"bul":4853,"bnr":4854,"ya":4855,"yond":4856,"rett":4857,"itness":4858,"Ġfill":4859,"Ġfax":4860,"arger":4861,"Ġthread":4862,"othes":4863,"ims":4864,"ĠLC":4865,"Ġshoot":4866,"nNow":4867,"grade":4868,"Ġmanager":4869,"Ġbecom":4870,"ESS":4871,"phone":4872,"Ġcrime":4873,"spec":4874,"inceton":4875,"ĠMacintosh":4876,"Ġeffects":4877,"ampa":4878,"ĠMorris":4879,"nar":4880,"sec":4881,"tG":4882,"atab":4883,"itz":4884,"itics":4885,"Ġbug":4886,"Ġburn":4887,"Ġfood":4888,"ĠHol":4889,"nOn":4890,"artin":4891,"iber":4892,"Ġ90":4893,"encer":4894,"evin":4895,"Ġcountries":4896,"Ġhistor":4897,"Ġdeveloped":4898,"levant":4899,"Ġbroad":4900,"Ġcircum":4901,"################":4902,"ĠAustral":4903,"BR":4904,"Re":4905,"zy":4906,"Ġtro":4907,"Ġsam":4908,"ese":4909,"acec":4910,"Ġlay":4911,"ĠGreat":4912,"ĠGood":4913,"aped":4914,"Ġspend":4915,"Ġ44":4916,"Ġresist":4917,"Ġplaying":4918,"ĠIntern":4919,"Stanford":4920,"------------------------------------------------------------":4921,"************************************************************************":4922,"Ġparents":4923,"IAN":4924,"Tom":4925,"ien":4926,"toronto":4927,"Ġfavor":4928,"Ġfalse":4929,"ĠALL":4930,"ĠMore":4931,"olar":4932,"ndis":4933,"...]\\":4934,"Ġinterface":4935,"Ġroad":4936,"ĠPhil":4937,"Ġunderstanding":4938,"ĠQuest":4939,"uxa":4940,"!!!!!!!!":4941,"Ġreceive":4942,"sych":4943,"Ġproducts":4944,"Ġfreedom":4945,"400":4946,"AV":4947,"Peter":4948,"db":4949,"mo":4950,"rc":4951,"Ġaw":4952,"Ġoption":4953,"alks":4954,"Ġmechan":4955,"uto":4956,"ĠCard":4957,"Ġbeyond":4958,"ĠMont":4959,"ĠBI":4960,"ĠRoad":4961,"ura":4962,"istics":4963,"Ġconclus":4964,"Ġproduc":4965,"ĠJames":4966,"hena":4967,"Ġplayed":4968,"Ġdecide":4969,"Ġfully":4970,"Ġchanges":4971,"Ġdoctor":4972,"acecraft":4973,"Jon":4974,"SH":4975,"SL":4976,"law":4977,"national":4978,"pet":4979,"purdue":4980,"tam":4981,"vi":4982,"~=":4983,"inks":4984,"Ġpaid":4985,"Ġmerely":4986,"Ġtowards":4987,"ĠTim":4988,"olume":4989,"hers":4990,"ĠDid":4991,"ĠHD":4992,"Ġheaven":4993,"ustom":4994,"inder":4995,"Ġweight":4996,"Ġjump":4997,"astro":4998,"nper":4999,"uchicago":5000,"wood":5001,"Ġsetting":5002,"Ġrealize":5003,"Ġcourt":5004,"Ġintended":5005,"Ġsolar":5006,"Ġdescribed":5007,"ĠIraq":5008,"ĠBritish":5009,"ANT":5010,"VV":5011,"beck":5012,"lies":5013,"mid":5014,"navy":5015,"Ġwidget":5016,"ouri":5017,"==\\":5018,"ĠFord":5019,"ĠBob":5020,"ĠHIV":5021,"ĠUrbana":5022,"ĠJim":5023,"Ġblue":5024,"Ġplayoff":5025,"Ġchips":5026,"Ġscience":5027,"Ġeconom":5028,"Ġrelationship":5029,"BITNET":5030,")?":5031,"Jeff":5032,"part":5033,"ato":5034,"Ġsqu":5035,"ario":5036,"ĠAthe":5037,"ĠMany":5038,".....":5039,"ĠPart":5040,"ĠWould":5041,"ulated":5042,"Ġabs":5043,"Ġ36":5044,"Ġwriting":5045,"Ġ42":5046,"iah":5047,"Ġ500":5048,"Ġseemed":5049,"Ġrecall":5050,"%%%%":5051,"Ġlimited":5052,"Ġsomewhere":5053,"On":5054,"ius":5055,"ka":5056,"tthe":5057,"zoo":5058,"Ġtou":5059,"itable":5060,"usion":5061,"ĠADL":5062,"ĠFl":5063,"Ġwhite":5064,"irth":5065,"Ġvirt":5066,"Ġshown":5067,"Ġjo":5068,"Ġactual":5069,"Ġgreatly":5070,"Ġearlier":5071,"Ġpitch":5072,"Ġsocial":5073,"Ġpicture":5074,"Elohim":5075,"All":5076,"HS":5077,"ND":5078,"_-":5079,"hood":5080,"ateway":5081,"ora":5082,"Ġfat":5083,"Ġpin":5084,"Ġhundred":5085,"ety":5086,"etter":5087,"ĠCro":5088,"Ġareas":5089,"Ġworse":5090,"ivities":5091,"Ġtrust":5092,"Ġtrade":5093,"Ġbelong":5094,"nHe":5095,"Ġdefend":5096,"Ġprophe":5097,"Ġbuying":5098,"nternet":5099,"ĠGovernment":5100,"ĠOhio":5101,"Ġpunish":5102,"$(":5103,"GS":5104,"Ken":5105,"lab":5106,"Ġcity":5107,"ĠTel":5108,"Ġeyes":5109,"ĠMIT":5110,"Ġstation":5111,"ĠGl":5112,"ctions":5113,"Ġconference":5114,"ĠJoe":5115,"Ġallows":5116,"ĠKe":5117,"nmore":5118,"Ġseeing":5119,"Ġcommit":5120,"Ġdefine":5121,"Ġsurface":5122,"ĠAmericans":5123,"Ġsolution":5124,"Ġarguments":5125,"Ġobjective":5126,"Ġshowed":5127,"Ġdevices":5128,"Ġdevelopment":5129,"Ġoccur":5130,"Ġlibrary":5131,"Ġtradition":5132,"Ġobviously":5133,"elligence":5134,"150":5135,"Eric":5136,"aft":5137,"pin":5138,"tar":5139,"vx":5140,"rete":5141,"Ġwind":5142,"lem":5143,"ĠCO":5144,"ĠAtt":5145,"rog":5146,"agraph":5147,"ĠHall":5148,"Ġran":5149,"ĠReg":5150,"Ġcompar":5151,"chester":5152,"azine":5153,"Ġslight":5154,"atively":5155,"Ġfriends":5156,"nAlso":5157,"ĠMotif":5158,"Ġdisagree":5159,"!)\\":5160,"AU":5161,"BB":5162,"Not":5163,"RR":5164,"mod":5165,"rough":5166,"Ġtank":5167,"ĠBro":5168,"ĠPet":5169,"ĠPeter":5170,"avel":5171,"ĠOrganization":5172,"Ġvari":5173,"nso":5174,"Ġotherwise":5175,"aska":5176,"Ġapproach":5177,"ĠAzerbaijan":5178,"Ġphilos":5179,"ĠSternlight":5180,"ĠAustralia":5181,"Any":5182,"NEWS":5183,"fc":5184,"ght":5185,"Ġ]":5186,"Ġ]\\":5187,"Ġtable":5188,"Ġwat":5189,"Ġcross":5190,"Ġnames":5191,"ecn":5192,"Ġlo":5193,"Ġele":5194,"Ġrandom":5195,"ĠJoh":5196,"Ġ300":5197,"Ġmeg":5198,"nMark":5199,"apped":5200,"lict":5201,"Ġactive":5202,"ĠAndrew":5203,"Ġprotection":5204,"Ġmassac":5205,"ĠAustin":5206,"stronomy":5207,"\"?":5208,"Man":5209,"dy":5210,"nqu":5211,"Ġtick":5212,"Ġfac":5213,"Ġfoot":5214,"Ġmat":5215,"icated":5216,"Ġharm":5217,"ĠSoc":5218,"ĠMet":5219,"odes":5220,"allenge":5221,"oche":5222,"astic":5223,"Ġdiscover":5224,"ĠChicago":5225,"Ġbecame":5226,"ALE":5227,"ĠDev":5228,"Ġinstance":5229,"Ġclaimed":5230,"Ġextreme":5231,"Ġprovided":5232,"Ġeffective":5233,"ĠTrans":5234,"Ġregarding":5235,"nArticle":5236,"Ġrecommend":5237,"cornell":5238,"?\"\\":5239,"AI":5240,"RC":5241,"_|":5242,"lav":5243,"nen":5244,"Ġ___":5245,"Ġaware":5246,"Ġcred":5247,"Ġbal":5248,"Ġborn":5249,"Ġmac":5250,"etween":5251,"Ġlock":5252,"enty":5253,"entially":5254,"ĠData":5255,"ĠHart":5256,"ĠGen":5257,"ĠLED":5258,"Ġexcellent":5259,"ourse":5260,"Ġcharg":5261,"Ġ45":5262,"Ġsche":5263,"nlght":5264,"ictor":5265,"Ġblock":5266,"lands":5267,"Ġgenerally":5268,"njust":5269,"ĠSerbs":5270,"Ġdoctrine":5271,"Ġpublished":5272,"austin":5273,"Ġdiag":5274,"Ġsafe":5275,"~=~=":5276,"HAN":5277,"iants":5278,"low":5279,"inn":5280,"Ġfit":5281,"Ġdial":5282,"Ġreject":5283,"ima":5284,"ĠMicro":5285,"ĠBecause":5286,"nde":5287,"umich":5288,"Ġevil":5289,"itely":5290,"Ġscan":5291,"Ġoffice":5292,"script":5293,"velopment":5294,"Ġreferences":5295,"nUniversity":5296,"Andrew":5297,"ĠBosnia":5298,"Ġsoldiers":5299,"Ġconcerned":5300,"ĠHelp":5301,"Ge":5302,"He":5303,"MM":5304,"ging":5305,"hile":5306,"jhu":5307,"nard":5308,"oor":5309,"pa":5310,"sk":5311,"tJ":5312,"vis":5313,"Ġspl":5314,"Ġbunch":5315,"leton":5316,"Ġder":5317,"ĠTe":5318,"roll":5319,"amb":5320,"ilson":5321,"emic":5322,"Ġstruct":5323,"------------------------":5324,"ĠNC":5325,"ĠOffice":5326,"ender":5327,"ĠVGA":5328,"ongress":5329,"Ġ04":5330,"ults":5331,"apping":5332,"Ġsecret":5333,"nJust":5334,"Ġsuggestions":5335,"Ġdealer":5336,"------------------------------------------------------------------------------\\":5337,"ĠWilliam":5338,"Ġabsolutely":5339,">|":5340,"RI":5341,"Tim":5342,"jpl":5343,"nad":5344,"nED":5345,"pir":5346,"isf":5347,"Ġcell":5348,"Ġok":5349,"Ġreview":5350,"ĠAnt":5351,"Ġeye":5352,"amm":5353,"iled":5354,"ĠHEL":5355,"Ġord":5356,"Ġcomb":5357,"ĠOT":5358,"ĠOur":5359,"endor":5360,"ibl":5361,"nget":5362,"onsider":5363,"onds":5364,"IND":5365,"athan":5366,"Ġaccident":5367,"Ġfeatures":5368,"Ġcomplex":5369,"Ġyesterday":5370,"/\\\\/\\\\/\\\\/\\\\/\\\\/\\\\/\\\\/\\\\":5371,"Ġdegree":5372,"RS":5373,"Well":5374,"demon":5375,"hold":5376,"ko":5377,"mi":5378,"mark":5379,"Ġsoul":5380,"Ġfly":5381,"ali":5382,"ilty":5383,"ĠReno":5384,"ĠHaw":5385,"ichigan":5386,"ĠVNEWS":5387,"Ġappropriate":5388,"Ġresolution":5389,"icsson":5390,"ĠĠĠĠĠĠĠĠĠĠĠĠĠĠĠĠĠĠĠĠĠĠĠĠĠĠĠĠĠĠĠĠĠ":5391,"Ġparagraph":5392,"ministration":5393,"Ġ256":5394,"Ġcomputers":5395,"ospital":5396,"Ġresponsibility":5397,"Ġmajority":5398,"Ġmeasure":5399,"MP":5400,"Tr":5401,"Will":5402,"bed":5403,"gn":5404,"mouth":5405,"och":5406,"tL":5407,"west":5408,"Ġcold":5409,"Ġfear":5410,"Ġfool":5411,"ĠTest":5412,"Ġrestr":5413,"ĠAnn":5414,"ĠMag":5415,"odd":5416,"eless":5417,"nOne":5418,"Ġarticles":5419,"ĠKr":5420,"ĠInf":5421,"Ġprec":5422,"nmy":5423,"nhad":5424,"???":5425,"Ġsupports":5426,"mination":5427,"Ġcounter":5428,"convex":5429,"ĠService":5430,"Ġbegan":5431,"250":5432,"BN":5433,"EF":5434,"_,":5435,"nem":5436,"tf":5437,"Ġsun":5438,"engr":5439,"Ġfinal":5440,"idth":5441,"ilver":5442,"ĠBuffalo":5443,"ĠRel":5444,"ĠNote":5445,"raid":5446,"prism":5447,"nwhen":5448,"ĠSteve":5449,"Ġchem":5450,"ĠSpencer":5451,"ĠMedical":5452,"Ġtechnology":5453,"cisco":5454,"ampaign":5455,"!\"\\":5456,"Am":5457,"cedu":5458,"round":5459,"Ġband":5460,"Ġpath":5461,"Ġtools":5462,"ĠIran":5463,"Ġinte":5464,"asc":5465,"aybe":5466,"Ġforward":5467,"ĠWord":5468,"ĠList":5469,"Ġsomebody":5470,"Ġspread":5471,"Ġ41":5472,"Ġnoise":5473,"angers":5474,"Ġcalling":5475,"Ġeffic":5476,"Ġsignal":5477,"Ġaccepted":5478,"Ġoperation":5479,"Ġappreciate":5480,"Ġlimit":5481,"Ġwatching":5482,"CWRU":5483,"NY":5484,"RY":5485,"gl":5486,"gary":5487,"nob":5488,"rain":5489,"would":5490,"Ġsick":5491,"Ġbapt":5492,"Ġbodies":5493,"Ġdig":5494,"ĠMax":5495,"ĠBo":5496,"ĠPark":5497,"ĠDel":5498,"ria":5499,"ĠGre":5500,"ĠNJ":5501,"ĠNSA":5502,"uled":5503,"ĠJoseph":5504,"Ġunf":5505,"udio":5506,"Ġ48":5507,"Ġcompared":5508,"Ġcompatible":5509,"Ġclosed":5510,"ondon":5511,"format":5512,"Ġ:)\\":5513,"Ġdefense":5514,"ĠZion":5515,"IDS":5516,"ĠOnce":5517,"ĠPerhaps":5518,"ĠGeorge":5519,"Ġatheism":5520,"^^^^^^^^^^^^^^^^^^^^^^^^^^^^^^^^":5521,"Ġfinally":5522,"ĠImage":5523,"(\\":5524,"SS":5525,"aith":5526,"book":5527,"pol":5528,"Ġage":5529,"reement":5530,"Ġson":5531,"Ġsleep":5532,"alem":5533,"ĠPGP":5534,"Ġride":5535,"Ġ2000":5536,"Ġuniverse":5537,"ellow":5538,"uci":5539,"Ġprices":5540,"Ġinternal":5541,"ĠĠĠĠĠĠĠĠĠĠĠĠĠĠĠĠĠĠĠĠĠĠĠĠĠĠĠĠĠĠĠĠĠĠĠĠĠĠĠĠĠĠĠĠĠĠĠĠĠĠĠĠĠĠĠĠĠĠĠĠĠĠĠĠĠĠĠĠĠĠĠĠ":5542,"Ġposter":5543,"nJohn":5544,"Ġsupported":5545,"ĠAdd":5546,"Ġstudies":5547,"Ġhomosexuals":5548,"ĠBlue":5549,"Ġversions":5550,"Ġpredict":5551,"%\\":5552,"Dan":5553,"Richard":5554,"VA":5555,"_*":5556,"lan":5557,"nx":5558,"include":5559,"rection":5560,"Ġsatell":5561,"\\'\\'":5562,"ĠTom":5563,"Ġbeat":5564,"ama":5565,"Ġforces":5566,"ĠPeople":5567,"ĠGal":5568,"avi":5569,"ĠVen":5570,"ucsd":5571,"nDisclaimer":5572,"blem":5573,"OME":5574,"ersonal":5575,"ATE":5576,"Ġcurious":5577,"Ġmorality":5578,"><><><><><><><><":5579,"Ġcompression":5580,"allel":5581,"Ġprior":5582,")-":5583,"?!":5584,"equ":5585,"fig":5586,"js":5587,"Ġsac":5588,"Ġdark":5589,"Ġlarger":5590,"ĠSee":5591,"ady":5592,"ĠPen":5593,"ĠHas":5594,"anda":5595,"ĠGay":5596,"upenn":5597,"ocks":5598,"Ġcompet":5599,"npre":5600,"Ġinternational":5601,"Ġbelieved":5602,"nPro":5603,"alker":5604,"Ġxterm":5605,"Ġintro":5606,"ĠReserve":5607,"IFF":5608,"Chris":5609,"Ġmailing":5610,"Ġtopic":5611,"stanbul":5612,"ĠAssoci":5613,"Ġthousands":5614,"ifferent":5615,"ochester":5616,"=>":5617,"_)":5618,"aily":5619,"high":5620,"kins":5621,"name":5622,"pite":5623,"rw":5624,"Ġ.\\":5625,"Ġwis":5626,"ĠTele":5627,"Ġreach":5628,"ĠAB":5629,"rock":5630,"ament":5631,"ĠWhich":5632,"ube":5633,"ndoes":5634,"Ġconvers":5635,"thod":5636,"ellon":5637,"Ġupd":5638,"nDon":5639,"ĠYet":5640,"Ġ66":5641,"cluding":5642,"ipped":5643,"Ġmessages":5644,"Ġtransfer":5645,"Ġescrow":5646,"ĠScript":5647,"Ġ``":5648,"ĠCambridge":5649,"Ġimmediately":5650,"negie":5651,"ĠInternational":5652,"AG":5653,"PH":5654,"TER":5655,"dse":5656,"even":5657,"pc":5658,"Ġcand":5659,"Ġcenter":5660,"ĠTem":5661,"uses":5662,"roit":5663,"idents":5664,"ĠBack":5665,"ĠRush":5666,"chie":5667,"ĠDrive":5668,"riage":5669,"Ġstre":5670,"opt":5671,"Ġarm":5672,"resp":5673,"ĠVirginia":5674,"Ġtrack":5675,"Ġgraph":5676,"Ġattitude":5677,"Ġregister":5678,"color":5679,"Ġprocessing":5680,"ufl":5681,"ĠManager":5682,"Ġdeaths":5683,"Ġgods":5684,"Ġlogic":5685,"Ġarchive":5686,"ĠDenver":5687,"Ġtechni":5688,"()":5689,"-+":5690,"DT":5691,"GL":5692,"QU":5693,"rical":5694,"uing":5695,"vention":5696,"Ġten":5697,"onet":5698,"athena":5699,"orters":5700,"Ġgreen":5701,"ĠCap":5702,"ĠAct":5703,"ĠMichigan":5704,"ĠMellon":5705,"ĠFrank":5706,"ĠWed":5707,"irl":5708,"ĠNE":5709,"osen":5710,"Ġweak":5711,"ĠRep":5712,"Ġshipping":5713,"forms":5714,"ncould":5715,"Ġprin":5716,"tee":5717,"Ġguest":5718,"ĠQue":5719,"Ġreality":5720,"ĠCanad":5721,"Ġsubsc":5722,"Ġparticip":5723,"Ġatheist":5724,"Ġfailed":5725,"ĠSwed":5726,"Ġexternal":5727,"thodox":5728,"#:":5729,"va":5730,"Ġtre":5731,"eration":5732,"orney":5733,"Ġcart":5734,"icit":5735,"Ġhop":5736,"asion":5737,"ĠSecond":5738,"utk":5739,"unc":5740,"rome":5741,"ĠDEC":5742,"ĠWAS":5743,"rip":5744,"Ġstopp":5745,"ĠHim":5746,"Ġray":5747,"ĠGant":5748,"ĠNHL":5749,"Ġatmosp":5750,"Ġkids":5751,"onda":5752,"Ġshouldn":5753,"Ġfeet":5754,"Ġpossibly":5755,"Ġcreation":5756,"ĠAmiga":5757,"Ġexpensive":5758,"Ġescape":5759,"DA":5760,"TM":5761,"hal":5762,"iast":5763,"py":5764,"van":5765,"year":5766,"eren":5767,"lear":5768,"Ġdistribution":5769,"ĠCould":5770,"imately":5771,"ĠMust":5772,"ĠMicros":5773,"iler":5774,"ĠDigital":5775,"abs":5776,"nSteve":5777,"osite":5778,"ĠOver":5779,"ocent":5780,"INE":5781,"ikes":5782,"ĠProfessor":5783,"ĠAnyone":5784,"Ġtechnical":5785,"Ġdangerous":5786,"Ġwiret":5787,"Ġadvantage":5788,"Ġenforcement":5789,"ĠBIOS":5790,"/*":5791,"ISA":5792,"OF":5793,"USA":5794,"band":5795,"eace":5796,"mal":5797,"tO":5798,"windows":5799,"Ġ~":5800,"init":5801,"Ġwoman":5802,"Ġbott":5803,"Ġtown":5804,"Ġanonymous":5805,"Ġled":5806,"Ġonto":5807,"ading":5808,"ĠMath":5809,"ĠMarch":5810,"ĠOk":5811,"ainst":5812,"Ġclos":5813,"mann":5814,"anging":5815,"ĠThus":5816,"nEx":5817,"Ġstandards":5818,"Ġdeter":5819,"ĠPhone":5820,"point":5821,"ĠNeed":5822,"UF":5823,"UP":5824,"lcs":5825,"sen":5826,"wisc":5827,"Ġur":5828,"alty":5829,"ĠSur":5830,"ĠTart":5831,"ĠMos":5832,"ĠDie":5833,"ndon":5834,"ĠGO":5835,"ĠGateway":5836,"ĠLy":5837,"ĠLtd":5838,"ĠKen":5839,"...)\\":5840,"Ġpoly":5841,"Ġscrew":5842,"nWhy":5843,"Ġcool":5844,"Ġframe":5845,"Ġprovides":5846,"Ġanswers":5847,"ĠPhot":5848,"Ġexperim":5849,"ĠĠĠĠĠĠĠĠĠĠĠĠĠĠĠĠĠĠĠĠĠĠĠĠĠĠĠĠĠĠĠĠĠĠĠĠĠĠĠĠĠĠ":5850,"ĠDavidians":5851,"ĠCarnegie":5852,"Ġmoving":5853,"Ġorgan":5854,"Ġlaunch":5855,"Ġimagine":5856,"Ġscientific":5857,"./":5858,"FC":5859,"Frank":5860,"Greg":5861,"PA":5862,"SV":5863,"Yes":5864,"big":5865,"gate":5866,"hard":5867,"ober":5868,"sr":5869,"***":5870,"ĠCall":5871,"ayne":5872,"adel":5873,"igion":5874,"ĠUl":5875,"Ġconversion":5876,"Ġconduct":5877,"nie":5878,"Ġsport":5879,"nbelie":5880,"nless":5881,"ports":5882,"Ġetern":5883,"omosexuality":5884,"ĠEnglish":5885,"Ġkeyboard":5886,"gypt":5887,"Ġviolence":5888,"Colorado":5889,"Ġconvinc":5890,"Ġdegrees":5891,"Ġnatural":5892,"ĠCatholic":5893,"Can":5894,"MO":5895,"dro":5896,"eing":5897,"green":5898,"mu":5899,"rick":5900,"uate":5901,"xx":5902,"only":5903,"iser":5904,"Ġcapt":5905,"Ġcamer":5906,"arson":5907,"Ġdate":5908,"icing":5909,"ĠSIM":5910,"amental":5911,"ĠRec":5912,"ĠRichard":5913,"ĠPre":5914,"ĠPar":5915,"ĠDX":5916,"ĠHistory":5917,"esting":5918,"ĠLike":5919,"Ġprob":5920,"Ġshots":5921,"nsc":5922,"Ġspacecraft":5923,"cient":5924,"Ġ//":5925,"Ġgreater":5926,"Ġselling":5927,"athew":5928,"Ġbeginning":5929,"_\\'_\\'":5930,"Ġreleased":5931,"(&":5932,"(.":5933,",,":5934,"Bob":5935,"bc":5936,"cf":5937,"cks":5938,"ha":5939,"lo":5940,"pitt":5941,"there":5942,"Ġdream":5943,"Ġinstr":5944,"ĠCity":5945,"ĠAM":5946,"ĠDO":5947,"agement":5948,"nSome":5949,"ĠOb":5950,"nMichael":5951,"Ġleague":5952,"eller":5953,"ĠVersion":5954,"active":5955,"Ġapparently":5956,"Ġready":5957,"Ġacceler":5958,"mitre":5959,"Ġencrypt":5960,"ĠSTEP":5961,"Ġhearing":5962,"Ġbroken":5963,"Ġcauses":5964,"stances":5965,"Ġsurviv":5966,"ĠBosnian":5967,"Ġobtain":5968,"Ġpiece":5969,"GM":5970,"UU":5971,"ias":5972,"mar":5973,"wam":5974,"xc":5975,"arab":5976,"arms":5977,"utr":5978,"ĠCongress":5979,"image":5980,"Ġwhom":5981,"ĠHard":5982,"Ġrare":5983,"ulations":5984,"Ġvitamin":5985,"Ġshuttle":5986,"ocus":5987,"rying":5988,"nsupp":5989,"Ġ03":5990,"...\"":5991,"Ġ51":5992,"Ġ65":5993,"ciples":5994,"Ġperform":5995,"psy":5996,"ATH":5997,"-------------------------------------------------------------------------------\\":5998,"OOK":5999,"ĠAngeles":6000,"Ġtitle":6001,"BD":6002,"aq":6003,"mpt":6004,"natt":6005,"wm":6006,"Ġwaste":6007,"esc":6008,"Ġpan":6009,"Ġlose":6010,"ĠMerc":6011,"Ġstock":6012,"oulder":6013,"Ġrational":6014,"ĠGet":6015,"ĠOR":6016,"nsp":6017,"Ġunto":6018,"raham":6019,"Ġknowing":6020,"Ġplat":6021,"ensions":6022,"INS":6023,"igned":6024,"nCl":6025,"Ġacts":6026,"nHere":6027,"Ġpointed":6028,"Ġhelps":6029,"Ġremove":6030,"Ġpossibility":6031,"Ġputting":6032,"ASE":6033,"Ġseconds":6034,"ĠAtl":6035,"Ġopportun":6036,"ĠSerb":6037,"server":6038,"Ġseriously":6039,"Ġdamage":6040,"Ġpurposes":6041,"MHz":6042,"Ġimprove":6043,"Ġseparate":6044,"):":6045,"*,":6046,"*.":6047,"Don":6048,"SX":6049,"TC":6050,"die":6051,"ration":6052,"uu":6053,"uction":6054,"uok":6055,"war":6056,"yan":6057,"Ġtarget":6058,"Ġbrief":6059,"Ġhy":6060,"Ġbear":6061,"amps":6062,"ĠDis":6063,"Ġking":6064,"Ġvote":6065,"endment":6066,"Ġneg":6067,"Ġhasn":6068,"acts":6069,"Ġ02":6070,"Ġadvert":6071,"Ġagencies":6072,"Ġpoll":6073,"They":6074,"ĠDevelopment":6075,"Ġkeeping":6076,"Ġerrors":6077,"Ġpressure":6078,"lorida":6079,"feld":6080,"ĠBruins":6081,">-":6082,"God":6083,"HA":6084,"MC":6085,"Serdar":6086,"Why":6087,"bb":6088,"iation":6089,"ja":6090,"long":6091,"lock":6092,"erg":6093,"Ġsorry":6094,"Ġfederal":6095,"Ġmiddle":6096,"Ġforgot":6097,"ĠBoth":6098,"ĠBrian":6099,"ĠRon":6100,"ĠDave":6101,"ĠDIS":6102,"Ġstrange":6103,"abit":6104,"ndet":6105,"Ġkid":6106,"Ġarmed":6107,"ĠJeff":6108,"Ġ39":6109,"aseball":6110,"Ġclock":6111,"ĠĠĠĠĠĠĠĠĠĠĠĠĠĠĠĠĠĠĠĠĠĠĠĠĠĠĠĠĠĠ":6112,"Ġprep":6113,"ĠYoung":6114,"Ġbrother":6115,"Ġtele":6116,"azing":6117,"Ġolder":6118,"Ġauthority":6119,"Ġculture":6120,"Ġvisual":6121,"Ġafraid":6122,"Ġinitial":6123,"Ġtroops":6124,".;":6125,"<\\":6126,"EY":6127,"IU":6128,"NA":6129,"Pro":6130,"misc":6131,"pg":6132,"vest":6133,"wa":6134,"zuma":6135,"Ġtheism":6136,"Ġmax":6137,"ĠMiller":6138,"change":6139,"ĠWings":6140,"emy":6141,"Ġstar":6142,"ĠGR":6143,"Ġproceed":6144,"Ġprocedu":6145,"Ġanywhere":6146,"nwork":6147,"Ġmanip":6148,"ERY":6149,"ildren":6150,"aha":6151,"Ġparan":6152,"nGod":6153,"Ġstudent":6154,"ifying":6155,"Ġencour":6156,"Ġmultiple":6157,"ictionary":6158,"Ġvolume":6159,"Ġcentury":6160,"known":6161,"ĠMotor":6162,"ĠCleveland":6163,"Ġalternative":6164,"moral":6165,"atabase":6166,"\"\"":6167,"\"?\\":6168,"TV":6169,"auc":6170,"Ġtap":6171,"Ġahead":6172,"isl":6173,"Ġpure":6174,"Ġpriv":6175,"Ġmember":6176,"ĠISA":6177,"\\'.\\":6178,"ĠTer":6179,"usenet":6180,"ĠAIDS":6181,"ĠBig":6182,"ections":6183,"ĠHell":6184,"ĠHigh":6185,"ĠLos":6186,"Ġchann":6187,"rake":6188,"actions":6189,"icked":6190,"chem":6191,"Ġmostly":6192,"eyer":6193,"ĠDef":6194,"Ġinfection":6195,"Ġindependent":6196,"ĠSciences":6197,"Ġpassed":6198,"viously":6199,"Ġexplan":6200,"chers":6201,"Ġconcer":6202,"OPOUL":6203,"Ġcoverage":6204,"Ġparticularly":6205,"Ġmotherboard":6206,"ĠSatan":6207,"Ġhumans":6208,"Ġpotential":6209,"HANOPOUL":6210,"ĠMicrosystems":6211,"ĠSTEPHANOPOUL":6212,"ĠSTEPHANOPOULOS":6213,"($":6214,"))":6215,"012":6216,"IE":6217,"Mac":6218,"Microsoft":6219,"Ste":6220,"box":6221,"iant":6222,"jet":6223,"joy":6224,"mers":6225,"pat":6226,"uins":6227,"iner":6228,"Ġmid":6229,"Ġmill":6230,"Ġdrop":6231,"igns":6232,"ĠFin":6233,"Ġround":6234,"Ġshowing":6235,"thernet":6236,"Ġupgrade":6237,"Ġqual":6238,"Ġthanks":6239,"ĠInst":6240,"Ġactivity":6241,"Ġactivities":6242,"ship":6243,"ĠProp":6244,"Ġincident":6245,"ĠAdv":6246,"Ġeasier":6247,"Ġexperi":6248,"ĠBlack":6249,"ĠPlay":6250,"Ġpatient":6251,"Ġeditor":6252,"ĠAnother":6253,"Ġimpossible":6254,"nunder":6255,"Ġquoted":6256,"(@":6257,"Does":6258,"Gary":6259,"HH":6260,"IO":6261,"That":6262,"WI":6263,"kit":6264,"next":6265,"ncomm":6266,"rice":6267,"tel":6268,"wpd":6269,"Ġult":6270,"inf":6271,"Ġwitness":6272,"Ġbar":6273,"Ġfelt":6274,"Ġlie":6275,"ĠTech":6276,"seas":6277,"ĠBOS":6278,"ĠPort":6279,"rill":6280,":\\\\":6281,"Ġproduce":6282,"Ġusual":6283,"ĠOut":6284,"versal":6285,"raig":6286,"Ġ43":6287,"Ġplug":6288,"ipe":6289,"Ġ1988":6290,"Ġclin":6291,"Ġagency":6292,"nev":6293,".....\\":6294,"Ġpersonally":6295,"Ġcolour":6296,"nno":6297,"Ġconsidering":6298,"ĠBraves":6299,"zero":6300,"Ġlevels":6301,"Ġignor":6302,"Ġburst":6303,"ĠEuropean":6304,"Ġverses":6305,"iblical":6306,">*":6307,"BP":6308,"UI":6309,"eared":6310,"works":6311,"insey":6312,"Ġmut":6313,"Ġhat":6314,"Ġinstruct":6315,"Ġlived":6316,"ĠTwo":6317,"Ġrear":6318,"Ġstore":6319,"Ġrot":6320,">>>\\":6321,"ĠLORD":6322,"Ġknock":6323,"achine":6324,"Ġassist":6325,"Ġbrain":6326,"berta":6327,"Ġargue":6328,"Ġviewer":6329,"Ġsmaller":6330,"Ġequal":6331,"ĠProt":6332,"Ġmissing":6333,"arkson":6334,"nshould":6335,"Ġdocumentation":6336,"Ġpictures":6337,"%^%^%^%^":6338,"ĠOttoman":6339,"Ġhypothes":6340,"tamu":6341,"ĠVenus":6342,"ĠDiego":6343,");":6344,"<>":6345,"BA":6346,"Eng":6347,"GG":6348,"James":6349,"fric":6350,"gw":6351,"nac":6352,"rs":6353,"your":6354,"Ġ..":6355,"onder":6356,"Ġwelcome":6357,"aro":6358,"Ġdim":6359,"Ġforced":6360,"unning":6361,"ĠRochester":6362,"Ġaspect":6363,"ĠOnt":6364,"Ġvoice":6365,"ĠJud":6366,"ĠJune":6367,"artmouth":6368,"graph":6369,"ĠStan":6370,"Ġ55":6371,"Ġeverybody":6372,"Ġfactor":6373,"ĠSpirit":6374,"Ġdrag":6375,"ĠOrig":6376,"Ġstudents":6377,"Ġteams":6378,"Ġfeeling":6379,"ĠScott":6380,"9760":6381,"Ġapprox":6382,"Ġofficers":6383,"Ġnearly":6384,"ĠUsenet":6385,"Ġshareware":6386,"Ġoptions":6387,"iliar":6388,"#|>":6389,"CL":6390,"NR":6391,"OH":6392,"Sp":6393,"Some":6394,"UD":6395,"cam":6396,"gar":6397,"good":6398,"rid":6399,"Ġtom":6400,"info":6401,"Ġsem":6402,"orrect":6403,"Ġbud":6404,"Ġboy":6405,"icide":6406,"Ġnation":6407,"etc":6408,"Ġlink":6409,"Ġlength":6410,"olver":6411,"pping":6412,"Ġram":6413,"Ġheav":6414,"ĠLev":6415,"ĠOH":6416,"ĠJapan":6417,"Ġ05":6418,"Ġadjust":6419,"rible":6420,"ounter":6421,"Ġsera":6422,"Ġflame":6423,"Ġprogramming":6424,"Ġroads":6425,"Ġteac":6426,"ĠProject":6427,"riter":6428,"Ġdirection":6429,"ĠBlues":6430,"Ġengines":6431,"Ġconnection":6432,"(\\'":6433,"RT":6434,"VGA":6435,"ban":6436,"cord":6437,"has":6438,"haw":6439,"nuse":6440,"Ġ:\\":6441,"inated":6442,"Ġbag":6443,"Ġpus":6444,"lee":6445,"Ġthy":6446,"Ġhitting":6447,"Ġhonest":6448,"Ġlatest":6449,"ĠSon":6450,"owers":6451,"ĠCy":6452,"aden":6453,"chi":6454,"Ġshif":6455,"Ġ46":6456,"nbecause":6457,"Ġcontrad":6458,"uga":6459,"ensity":6460,"Ġscr":6461,"lications":6462,"Ġcommitted":6463,"Ġassault":6464,"Ġfeed":6465,"Ġrole":6466,"Ġteaching":6467,"Ġsett":6468,"nbeen":6469,"Ġdepend":6470,"Ġcircuit":6471,"Ġriding":6472,"rvine":6473,"Ġsatisf":6474,"ĠMormon":6475,"110":6476,"BL":6477,"FM":6478,"FO":6479,"HZ":6480,"NC":6481,"loo":6482,"raries":6483,"Ġsitting":6484,"itimate":6485,"esis":6486,"Ġcustom":6487,"Ġdow":6488,"ĠIrvine":6489,"Ġ\\\\\\":6490,"uther":6491,"ĠAug":6492,"ĠAccording":6493,"rochester":6494,"ĠMB":6495,"ĠFather":6496,"ĠDun":6497,"ĠDirect":6498,"emory":6499,"pple":6500,"ĠLondon":6501,"nMike":6502,"ĠKh":6503,"Ġdriving":6504,"Ġguilty":6505,"Ġattention":6506,"okstate":6507,"ĠOnly":6508,"State":6509,"ĠIII":6510,"Ġsuggested":6511,"Ġspecifically":6512,"related":6513,"Ġmotorcy":6514,"ĠANY":6515,"Ġprinting":6516,"Ġpresented":6517,"Ġentirely":6518,"Ġloaded":6519,"Ġadditional":6520,"ktop":6521,".*":6522,"FR":6523,"Tur":6524,"dm":6525,"ras":6526,"Ġtear":6527,"ining":6528,"Ġfuel":6529,"Ġhour":6530,"otes":6531,"Ġlies":6532,"Ġlists":6533,"ĠSen":6534,"aylor":6535,"ĠBonds":6536,"outs":6537,"irsch":6538,"ĠNich":6539,"Ġconstant":6540,"ĠEgypt":6541,"Ġabuse":6542,"resh":6543,"ĠJan":6544,"Ġbutton":6545,"Ġworry":6546,"Ġunit":6547,"ncsu":6548,"Ġcompon":6549,"Ġclient":6550,"Ġresol":6551,"Ġscore":6552,"dev":6553,"Ġconsist":6554,"ART":6555,"Ġsetup":6556,"Ġbasically":6557,"Ġregion":6558,"Ġterrit":6559,"Ġtelling":6560,"ĠSunday":6561,"Ġsolid":6562,"LIP":6563,"Ġproperty":6564,"Ġphysic":6565,"desy":6566,"while":6567,"%*%*%*%*%*%*%*%*":6568,"============================================================================":6569,"William":6570,"utrition":6571,"@@":6572,"PEN":6573,"dri":6574,"dcs":6575,"eo":6576,"ih":6577,"rated":6578,"Ġachie":6579,"onian":6580,"Ġwood":6581,"ouver":6582,"enix":6583,"Ġcs":6584,"station":6585,"Ġinj":6586,"ĠSox":6587,"ĠCup":6588,"ĠRoy":6589,"olf":6590,"olt":6591,"abor":6592,"ĠUn":6593,"ackard":6594,"nNew":6595,"exts":6596,"Ġtrick":6597,"ometimes":6598,"Ġflames":6599,"Ġxv":6600,"iscuss":6601,"Ġkinds":6602,"iamond":6603,"Ġoccup":6604,"Ġdamn":6605,"Ġdrawing":6606,"Ġquickly":6607,"Ġdebate":6608,"Ġvillage":6609,"Ġmistake":6610,"Ġpixel":6611,"Ġatmosphere":6612,")?\\":6613,",-":6614,"GH":6615,"Pr":6616,"VT":6617,"sig":6618,"tem":6619,"Ġ==":6620,"Ġtel":6621,"ericsson":6622,"ether":6623,"Ġgar":6624,"ĠSal":6625,"ussell":6626,"Ġreve":6627,"Ġeat":6628,"ĠBranch":6629,"ĠRAN":6630,"ĠPsal":6631,")\\\\":6632,"ĠDET":6633,"eman":6634,"Ġstored":6635,"Ġprofess":6636,"nOh":6637,"ĠOld":6638,"alls":6639,"asty":6640,"akh":6641,"awa":6642,"111":6643,"plete":6644,"ologist":6645,"Ġmodels":6646,"Ġinflu":6647,"Ġ+\\":6648,"Ġspeaking":6649,"Ġlisten":6650,"Ġhighly":6651,"Ġlights":6652,"Ġopposed":6653,"Ġdistance":6654,"Ġcorrectly":6655,"Ġresponses":6656,"Ġfollowers":6657,"Ġproperly":6658,"Ġignore":6659,"Ġmulti":6660,"Ġtotally":6661,"Ġsusp":6662,"Ġhoriz":6663,"Ġprimary":6664,"Ġemployer":6665,"ĠFrancisco":6666,"Ġhistorical":6667,"Ġslightly":6668,"Ġdiscovered":6669,"Do":6670,"Disclaimer":6671,"Ex":6672,"IB":6673,"bd":6674,"bach":6675,"cunix":6676,"doc":6677,"nind":6678,"}!":6679,"Ġ****":6680,"Ġsup":6681,"Ġsides":6682,"Ġsaved":6683,"esh":6684,"esley":6685,"Ġcdt":6686,"ĠINT":6687,"oted":6688,"Ġli":6689,"ĠSale":6690,"Ġreaction":6691,"ĠChem":6692,"roc":6693,"ĠFlorida":6694,"ĠRose":6695,"ĠDavis":6696,"ĠHi":6697,"pper":6698,"Ġraid":6699,"ĠGiants":6700,"ulous":6701,"ardner":6702,"prise":6703,"Ġcontract":6704,"pert":6705,"nHello":6706,"Ġattrib":6707,"aterloo":6708,"space":6709,"Ġdiscussed":6710,"Ġpositive":6711,"Ġfault":6712,"Ġdoctors":6713,"Ġburning":6714,"Ġindividuals":6715,"Ġsafety":6716,"fficient":6717,"Ġinnocent":6718,"Ġ;-":6719,"Ġmanufactur":6720,"Ġbatting":6721,"Ġintegr":6722,"iastate":6723,"#@":6724,"(/":6725,"900":6726,"AE":6727,"AF":6728,"PM":6729,"_.":6730,"core":6731,"pre":6732,"tc":6733,"hest":6734,"Ġpaint":6735,"Ġmale":6736,"lett":6737,"ĠSALE":6738,"owell":6739,"adra":6740,"ĠBu":6741,"ĠBUR":6742,"ĠPan":6743,"urches":6744,"agle":6745,"ĠGaz":6746,"ewish":6747,"Ġorient":6748,"ĠNumber":6749,"\\\\/":6750,"ĠJanet":6751,"ĠRev":6752,"hings":6753,"101":6754,"Ġ75":6755,"ĠArch":6756,"nThese":6757,"nload":6758,"Ġsupporters":6759,"Ġowner":6760,"Ġbright":6761,"Ġ=\\":6762,"Ġindust":6763,"Ġspeech":6764,"airs":6765,"afs":6766,"Ġtells":6767,"Ġlisted":6768,"Stephen":6769,"ancouver":6770,"ĠĠĠĠĠĠĠĠĠĠĠĠĠĠĠĠĠĠĠĠĠĠĠĠĠĠĠĠĠĠĠĠĠĠĠĠĠĠĠĠĠĠĠĠĠ":6771,"Ġexisting":6772,"ĠCommunication":6773,"Ġchanging":6774,"Ġdistin":6775,"Ġpopular":6776,"Ġinvolve":6777,"Ġfollowed":6778,"MHO":6779,"nHowever":6780,"++++++++++++++++++++++++++++++++":6781,"Scott":6782,"Ġeventually":6783,"Ġpurchase":6784,"ĠPalestinian":6785,"ĠOntario":6786,"%,":6787,"+>":6788,"CO":6789,"Doug":6790,"down":6791,"nec":6792,"ua":6793,"hether":6794,"reply":6795,"Ġweren":6796,"Ġsales":6797,"Ġsession":6798,"Ġbomb":6799,"Ġmer":6800,"ĠMess":6801,"unction":6802,"ĠBen":6803,"ĠPas":6804,"ĠDi":6805,"oday":6806,"ellect":6807,"elson":6808,"ĠGar":6809,"ocaust":6810,"acket":6811,"Ġapplied":6812,"csd":6813,"echo":6814,"Ġ/\\":6815,"nyx":6816,"Ġcommands":6817,"Ġparallel":6818,"nalso":6819,"merican":6820,"Christ":6821,"Ġthoughts":6822,"Ġproposed":6823,"Ġsending":6824,"uhr":6825,"carleton":6826,"ĠXView":6827,"Ġturns":6828,"ĠRadio":6829,"ulsion":6830,"Ġvehicle":6831,"olverine":6832,"\"!":6833,"KE":6834,"OZ":6835,"TE":6836,"hm":6837,"nell":6838,"nint":6839,"oit":6840,"power":6841,"word":6842,"wright":6843,"alog":6844,"Ġpsych":6845,"Ġmal":6846,"Ġmisc":6847,"stood":6848,"Ġlaser":6849,"ĠTR":6850,"ented":6851,"ĠAfric":6852,"uns":6853,"ĠFe":6854,"ntime":6855,"ntze":6856,"ects":6857,"Ġrates":6858,"oslav":6859,"ĠExt":6860,"antis":6861,"Ġshut":6862,"Ġunlike":6863,"udes":6864,"ncr":6865,"Ġenjoy":6866,"Ġgrace":6867,"Ġbackup":6868,"Ġremain":6869,"ARD":6870,"Ġfollows":6871,"Ġsurround":6872,"letter":6873,"Ġmissed":6874,"nesota":6875,"Script":6876,"Ġmountain":6877,"ĠPalestinians":6878,"Ġrecognize":6879,"Ġmusic":6880,"midway":6881,"Ġtouch":6882,"Ġstopped":6883,"+=":6884,"PD":6885,"UST":6886,"VS":6887,"log":6888,"mind":6889,"nab":6890,"rate":6891,"Ġzero":6892,"orth":6893,"itob":6894,"Ġhurt":6895,"Ġhuge":6896,"othy":6897,"acement":6898,"ĠSE":6899,"usalem":6900,"rose":6901,"ĠMal":6902,"outhern":6903,"Ġstreet":6904,"Ġrat":6905,"Ġrace":6906,"----------------------------":6907,"ĠUse":6908,"Ġprogress":6909,"Ġarrest":6910,"Ġdeep":6911,"Ġworst":6912,"Ġ47":6913,"Ġplain":6914,"Ġ1989":6915,"Ġ/\\\\":6916,"tek":6917,"ĠĠĠĠĠĠĠĠĠĠĠĠĠĠĠĠĠĠĠĠĠĠĠĠĠĠĠĠĠĠĠĠĠĠĠ":6918,"nBill":6919,"Ġreaders":6920,"ocket":6921,"ĠHeb":6922,"ĠHealth":6923,"Ġdecl":6924,"END":6925,"Ġwheel":6926,"ĠTrue":6927,"nthink":6928,"Ġmenu":6929,"Ġelectric":6930,"Ġauto":6931,"Ġjudge":6932,"Ġutility":6933,"ĠMatthew":6934,"uggest":6935,"Ġmarriage":6936,"Ġaccuracy":6937,"ĠCONV":6938,"Ġpunishment":6939,"Ġdiagn":6940,"itoba":6941,"(#":6942,".]\\":6943,"SW":6944,"bis":6945,"cv":6946,"nact":6947,"rum":6948,"Ġnamed":6949,"ĠSi":6950,"ĠColl":6951,"imal":6952,"ĠMAC":6953,"ubvms":6954,"ĠHa":6955,"ewlett":6956,"astern":6957,"akers":6958,"nwr":6959,"Ġclipper":6960,"ugoslav":6961,"them":6962,"120":6963,"iously":6964,"Ġdefault":6965,"ahl":6966,"Ġmodern":6967,"AND":6968,"pective":6969,"Ġcrack":6970,"Ġstarts":6971,"Ġnumer":6972,"supp":6973,"Ġphr":6974,"Ġgeneration":6975,"ĠThose":6976,"Ġtransmission":6977,"colorado":6978,"Ġordered":6979,"Ġplanning":6980,"Ġdefinitely":6981,"Ġconnected":6982,"Ġmovement":6983,"Ġschools":6984,"Ġannounce":6985,"Ġforeign":6986,"ĠIslamic":6987,"ĠConsult":6988,"Ġconfiguration":6989,"Ġneighbor":6990,"Ġbullet":6991,"Ġlicense":6992,"ĠSociety":6993,"Bl":6994,"Istanbul":6995,"Joseph":6996,"MD":6997,"Phil":6998,"SY":6999,"View":7000,"ao":7001,"night":7002,"rhe":7003,"sure":7004,"uation":7005,"yale":7006,"rep":7007,"really":7008,"request":7009,"omans":7010,"Ġphen":7011,"Ġmhz":7012,"Ġtoward":7013,"otal":7014,"Ġgain":7015,"ĠTIFF":7016,"ĠAlex":7017,"ĠPage":7018,"uries":7019,"istor":7020,"ĠUnfortunately":7021,"Ġprof":7022,"ĠEmail":7023,"udd":7024,"Ġsomehow":7025,"Ġnegot":7026,"Ġ*/\\":7027,"Ġ06":7028,"ipher":7029,"nbetween":7030,"Ġ68":7031,"102":7032,"nChe":7033,"ninto":7034,"Ġblame":7035,"Ġflat":7036,"pha":7037,"Ġsecure":7038,"Ġgotten":7039,"Ġminute":7040,"ĠConstitution":7041,"Ġtests":7042,".\\'\\":7043,"newton":7044,"Ġridic":7045,"ĠAgain":7046,"Ġinvestigation":7047,"Keith":7048,"ĠHELP":7049,"Ġexplanation":7050,"#$":7051,"AH":7052,"Pl":7053,"Rob":7054,"UV":7055,"UX":7056,"WD":7057,"YZ":7058,"elect":7059,"fid":7060,"gest":7061,"mos":7062,"nZ":7063,"wat":7064,"|>>":7065,"Ġbattle":7066,"Ġfrank":7067,"Ġple":7068,"icial":7069,"ett":7070,"Ġlatter":7071,"ĠTCP":7072,"utoronto":7073,"Ġbeaut":7074,"ĠFree":7075,"ĠWalker":7076,"andal":7077,"Ġrape":7078,"ĠLook":7079,"ocol":7080,"Ġspent":7081,"Ġnobody":7082,"ĠStreet":7083,"ĠInstr":7084,"achus":7085,"aware":7086,"cious":7087,"Ġcarried":7088,"256":7089,"Ġfinding":7090,"Ġcurs":7091,"ĠShuttle":7092,"nover":7093,"Ġpackages":7094,"IME":7095,"hematics":7096,"Ġdemand":7097,"Ġlibert":7098,"ĠCompany":7099,"Ġterminal":7100,"ĠMedicine":7101,"Ġwaiting":7102,"Ġlearned":7103,"ĠStudy":7104,"Ġfighting":7105,"Ġvillages":7106,"panix":7107,"ĠSweden":7108,"ĠMustang":7109,"!\\'":7110,"\"\\'":7111,":/":7112,"At":7113,"LC":7114,"TION":7115,"ba":7116,"because":7117,"kin":7118,"mcc":7119,"nass":7120,"rational":7121,"zen":7122,"isual":7123,"ouston":7124,"Ġbother":7125,"ingu":7126,"-----\\":7127,"ĠIL":7128,"Ġhall":7129,"ĠSGI":7130,"oding":7131,"ctr":7132,"orthern":7133,"ĠStand":7134,"Ġagreement":7135,"Ġ61":7136,"Ġgrow":7137,"nCont":7138,"Ġreliable":7139,"ĠĠĠĠĠĠĠĠĠĠĠĠĠĠĠĠĠĠĠĠĠĠĠĠĠĠĠĠĠĠĠĠĠĠĠĠĠ":7140,"Ġremains":7141,"Ġpowerful":7142,"Ġstrate":7143,"brown":7144,"Ġacceptable":7145,"Ġdepends":7146,"Ġchecked":7147,"Ġbatteries":7148,"nChrist":7149,"stanford":7150,"Ġafford":7151,"Ġsomewhat":7152,"audi":7153,"dseg":7154,"uoknor":7155,"ĠMotorola":7156,"Ġhypothesis":7157,"*)":7158,"112":7159,"BO":7160,"De":7161,"Inf":7162,"TA":7163,"tV":7164,"when":7165,"Ġice":7166,"inity":7167,"rehe":7168,"Ġsn":7169,"orf":7170,"Ġol":7171,"Ġmo":7172,"arp":7173,"ication":7174,"asi":7175,"asy":7176,"ĠSuper":7177,"ĠMex":7178,"ĠBar":7179,"ĠBab":7180,"ĠBull":7181,"rix":7182,"ĠHit":7183,"illed":7184,"ndec":7185,"ĠNove":7186,"Ġconsequ":7187,"Ġ->":7188,"ĠJose":7189,"ĠJack":7190,"ĠJones":7191,"iance":7192,"ĠKinsey":7193,"rawn":7194,"ughes":7195,"onsin":7196,"Ġconsistent":7197,"Ġremind":7198,"phas":7199,"ĠProduct":7200,"isconsin":7201,"Ġstats":7202,"Ġfired":7203,"Christian":7204,"Ġleads":7205,"ĠQuick":7206,"mpire":7207,"Ġsympt":7208,"Ġfigures":7209,"ĠRussia":7210,"ĠDesign":7211,"Ġobservations":7212,"Ġperfectly":7213,"*******\\":7214,"ĠDetroit":7215,"respond":7216,"Ġeternal":7217,".?":7218,"214":7219,"486":7220,">\\'":7221,"@$":7222,"DR":7223,"Now":7224,"NOT":7225,"User":7226,"WS":7227,"_\\\\":7228,"bec":7229,"every":7230,"sale":7231,"ws":7232,"Ġ??":7233,"hell":7234,"itche":7235,"alaska":7236,"Ġpur":7237,"----\\":7238,"lement":7239,"Ġthinks":7240,"stat":7241,"ĠCAL":7242,"aying":7243,"ĠMiss":7244,"igel":7245,"semb":7246,"ĠBas":7247,"ĠBel":7248,"ĠBook":7249,"olen":7250,"ubble":7251,"ĠHonda":7252,"ĠHirsch":7253,"ĠHewlett":7254,"coming":7255,"compl":7256,"ĠGold":7257,"ĠLE":7258,"Ġcomfort":7259,"ĠEqu":7260,"aints":7261,"resents":7262,"Ġcontain":7263,"Ġguar":7264,"Ġfeature":7265,"ITH":7266,"ĠAlthough":7267,"Ġphones":7268,"Ġinstit":7269,"ĠSpec":7270,"Ġ\\\\/":7271,"okes":7272,"Ġcops":7273,"Ġdeterm":7274,"gery":7275,"Ġcarefully":7276,"Ġpropos":7277,"IGS":7278,"nused":7279,"Ġsituations":7280,"Ġcapable":7281,"reedom":7282,"Ġfundamental":7283,"Ġdomain":7284,"Ġneighb":7285,"Ġbecomes":7286,"Ġscheme":7287,"George":7288,"Ġopportunity":7289,"\";":7290,".-":7291,".[":7292,"@&":7293,"JS":7294,"Key":7295,"Us":7296,"bal":7297,"bus":7298,"eed":7299,"eous":7300,"gi":7301,"look":7302,"rus":7303,"something":7304,"uous":7305,"wyer":7306,"Ġump":7307,"Ġtanks":7308,"iny":7309,"Ġsan":7310,"Ġsal":7311,"Ġbull":7312,"Ġancient":7313,"Ġgear":7314,"ĠSu":7315,"owa":7316,"Ġeight":7317,"ĠMount":7318,"ĠMars":7319,"iling":7320,"ĠRight":7321,"ĠRangers":7322,"ector":7323,"Ġdos":7324,"estine":7325,"apy":7326,"ĠOl":7327,"ths":7328,"than":7329,"Ġexerc":7330,"Ġsuicide":7331,"nsomething":7332,"pling":7333,"Ġplaced":7334,"Ġcompare":7335,"Ġtruly":7336,"Ġimm":7337,"Ġprinc":7338,"npar":7339,"nback":7340,"Ġbackground":7341,"ception":7342,"ruce":7343,"rites":7344,"standing":7345,"ACE":7346,"trans":7347,"Ġauthorities":7348,"Ġholding":7349,"ĠAttorney":7350,"ĠBURNS":7351,"ĠCONVEX":7352,"((":7353,"212":7354,">,\\":7355,"CI":7356,"FI":7357,"Just":7358,"].":7359,"called":7360,"jud":7361,"kes":7362,"pu":7363,"rand":7364,"tand":7365,"vs":7366,"were":7367,"Ġmap":7368,"Ġmix":7369,"Ġmatch":7370,"Ġmoon":7371,"Ġdivision":7372,"Ġdaily":7373,"star":7374,"Ġinfer":7375,"Ġ()":7376,"eting":7377,"etts":7378,"ĠSl":7379,"uter":7380,"ĠFeb":7381,"ĠRS":7382,"ĠROM":7383,"ĠWIN":7384,"ĠWILL":7385,"ĠWisconsin":7386,"ĠHuman":7387,"ĠHoly":7388,"izz":7389,"uming":7390,"ĠLin":7391,"think":7392,"ĠVan":7393,"Ġmanner":7394,"nevery":7395,"neth":7396,"Ġ85":7397,"peaking":7398,"enced":7399,"icted":7400,"Ġhardly":7401,"ruction":7402,"ĠTherefore":7403,"bitnet":7404,"Ġstatus":7405,"bytes":7406,"Ġboot":7407,"Ġpasses":7408,"Ġlocation":7409,"Ġleading":7410,"Ġswit":7411,"blue":7412,"Ġfunctions":7413,"APH":7414,"ĠSeattle":7415,"Ġexpected":7416,"Ġreplies":7417,"III":7418,"Ġprimarily":7419,"Clayton":7420,"Ġtraffic":7421,"Ġthousand":7422,"Ġaccurate":7423,"ĠBosnians":7424,"Ġcondemn":7425,"ĠJohnson":7426,"ĠGreece":7427,"Ġsatellite":7428,"achusetts":7429,"DC":7430,"Free":7431,"Matthew":7432,"One":7433,"WM":7434,"_+":7435,"cott":7436,"max":7437,"microsoft":7438,"people":7439,"eri":7440,"oracle":7441,"Ġcatch":7442,"Ġcache":7443,"Ġbirth":7444,"userve":7445,"ĠAnal":7446,"ĠAstronomy":7447,"ĠFer":7448,"ĠFile":7449,"ĠPens":7450,"kee":7451,"keep":7452,"ifies":7453,"ĠDoug":7454,"Ġsteve":7455,"odak":7456,"ĠHave":7457,"Ġrich":7458,"Ġanymore":7459,"aked":7460,"nph":7461,"oves":7462,"olland":7463,"Ġoffers":7464,"Ġrelatively":7465,"================================================":7466,"Ġslaughter":7467,"Ġ241":7468,"ICE":7469,"Ġexamples":7470,"ĠEngland":7471,"Ġsuggestion":7472,"ĠPlus":7473,"Ġprotected":7474,"Ġconditions":7475,"IGHT":7476,"Ġlibraries":7477,"Ġradar":7478,"ĠREAL":7479,"Ġanalog":7480,"ointed":7481,"Ġcalc":7482,"ĠSabres":7483,"Thomas":7484,"Ġraised":7485,"Ġcrypto":7486,"Ġrepeated":7487,"Ġjudgement":7488,"Ġbenefit":7489,"ĠCanadian":7490,"Ġconvinced":7491,"-*":7492,"HI":7493,"KA":7494,"Mb":7495,"NJ":7496,"TU":7497,"YY":7498,"ZZ":7499,"bar":7500,"iency":7501,"mir":7502,"mall":7503,"nhis":7504,"nold":7505,"ties":7506,"techn":7507,"vv":7508,"Ġtort":7509,"Ġsad":7510,"itis":7511,"Ġgamma":7512,"ĠCat":7513,"ĠAR":7514,"imore":7515,"ĠME":7516,"Ġ180":7517,"nthen":7518,"ĠBoulder":7519,"Ġstuck":7520,"ĠHal":7521,"ĠHill":7522,"ĠLast":7523,"ĠEli":7524,"Ġshit":7525,"ortion":7526,"ĠVideo":7527,"Ġplans":7528,"Ġclients":7529,"npat":7530,"Ġgrand":7531,"nhow":7532,"Ġdespite":7533,"Ġcrow":7534,"ORS":7535,"Ġthroughout":7536,"Ġsurvey":7537,"Ġintent":7538,"Ġemot":7539,"Ġconflict":7540,"altimore":7541,"nonly":7542,"ĠQuadra":7543,"Ġconcent":7544,"Ġdescription":7545,"Ġcovered":7546,"Ġreduc":7547,"Ġlegisl":7548,"Ġfilter":7549,"missions":7550,"Ġstrike":7551,".\\'.\\'.\\'.\\'":7552,"ĠRemember":7553,"Ġcriminals":7554,"Ġautomatically":7555,"ĠNazis":7556,"Ġbroadcast":7557,"Ġplayoffs":7558,"ictoria":7559,"ĠWilliams":7560,"Ġdetermin":7561,"ĠRANCH":7562,"(%":7563,"/-":7564,"BH":7565,"FT":7566,"HO":7567,"JF":7568,"NU":7569,"VI":7570,"does":7571,"ez":7572,"fs":7573,"rast":7574,"wers":7575,"wust":7576,"zger":7577,"Ġtor":7578,"Ġwave":7579,"Ġcir":7580,"also":7581,"Ġpal":7582,"Ġpapers":7583,"lete":7584,"leland":7585,"ione":7586,"Ġham":7587,"ĠAut":7588,"ilomet":7589,"ilton":7590,"ĠPoly":7591,"iful":7592,"izer":7593,"nSh":7594,"ĠGil":7595,"osis":7596,"Ġconce":7597,"ĠLim":7598,"ĠEX":7599,"ĠEll":7600,"ĠEmpire":7601,"ryan":7602,"Ġupgrad":7603,"nActually":7604,"nwhere":7605,"axy":7606,"Ġ95":7607,"130":7608,"nreg":7609,"rench":7610,"nJim":7611,"Ġcheaper":7612,"ministr":7613,"Ġclaiming":7614,"spot":7615,"Ġtrial":7616,"Ġcontroll":7617,"ĠExpress":7618,"Ġoperating":7619,"#>#":7620,"Ġreplace":7621,"Ġmoved":7622,"Ġindicate":7623,"Ġweapon":7624,"ĠBerkeley":7625,"ĠSecret":7626,"monton":7627,"Ġconclusion":7628,"Ġstructure":7629,"Ġprecise":7630,"wustl":7631,"&\\":7632,"/%":7633,"215":7634,"<&":7635,"=\"":7636,"OX":7637,"PG":7638,"TI":7639,"ios":7640,"jp":7641,"ooth":7642,"width":7643,"orage":7644,"Ġban":7645,"Ġbrake":7646,"Ġfif":7647,"Ġpp":7648,"Ġmos":7649,"stein":7650,"ĠIns":7651,"acsu":7652,"utter":7653,"ĠCarl":7654,"ĠAri":7655,"Ġep":7656,"adobe":7657,"ĠRGB":7658,"ĠPhysics":7659,"ĠDan":7660,"ĠWon":7661,"agon":7662,"ĠGame":7663,"ĠTheir":7664,"Ġconstitution":7665,"ĠEric":7666,"ĠEISA":7667,"Ġseat":7668,"Ġvir":7669,"ourt":7670,"Ġshaft":7671,"arts":7672,"ccs":7673,"nAt":7674,"Ġquiet":7675,"ĠStanford":7676,"Ġ53":7677,"Ġ56":7678,"nbl":7679,"oven":7680,"lication":7681,"ĠĠĠĠĠĠĠĠĠĠĠĠĠĠĠĠĠĠĠĠĠĠĠĠĠĠĠĠĠĠĠĠĠĠĠĠ":7682,"Ġblind":7683,"Ġdesire":7684,"Ġfloor":7685,"Ġroll":7686,"erved":7687,"Ġgenerate":7688,"Ġrepresents":7689,"ĠLeague":7690,"uffer":7691,"ĠMcC":7692,"erald":7693,"ĠIndiana":7694,"Ġ***":7695,"Ġnormally":7696,"Ġextermination":7697,"ounced":7698,"psuvm":7699,"||||||||":7700,"ĠMassachusetts":7701,"Ġcircumstances":7702,"ĠMontreal":7703,"ugoslavia":7704,"Ġphenomen":7705,"/\"":7706,":>":7707,"=$":7708,"=&":7709,"@!":7710,"@:":7711,"CF":7712,"CMU":7713,"HQ":7714,"MY":7715,"NF":7716,"del":7717,"hart":7718,"loop":7719,"mun":7720,"mond":7721,"rpi":7722,"Ġtight":7723,"Ġster":7724,"Ġswe":7725,"Ġbob":7726,"Ġpatch":7727,"Ġlit":7728,"__\\":7729,"Ġ1000":7730,"ilers":7731,"illey":7732,"ĠDiamond":7733,"terosexual":7734,"agers":7735,"agate":7736,"ĠHan":7737,"ĠHay":7738,"Ġrough":7739,"ophy":7740,"ests":7741,"ulk":7742,"ĠLog":7743,"ĠLong":7744,"Ġarr":7745,"ĠJays":7746,"ourne":7747,"neven":7748,"^^^^^^":7749,"Ġinternet":7750,"Ġfee":7751,"ORE":7752,"nGe":7753,"Ġteach":7754,"mittee":7755,"rence":7756,"Ġwarning":7757,"Ġreligions":7758,"Charles":7759,"Ġaddresses":7760,"poly":7761,"ĠExp":7762,"Ġreplaced":7763,"<<<<":7764,"ĠCentris":7765,"Ġinterpretation":7766,"Ġliterature":7767,"Ġethnic":7768,"Ġticket":7769,"ĠAtlanta":7770,"Ġclinical":7771,"ĠHebrew":7772,"Ph":7773,"QW":7774,"RD":7775,"TT":7776,"When":7777,"^~":7778,"_(":7779,"ept":7780,"egr":7781,"nvery":7782,"phys":7783,"sn":7784,"tE":7785,"xy":7786,"Ġax":7787,"orrow":7788,"Ġpark":7789,"lets":7790,"ĠIMHO":7791,"ĠSorry":7792,"rod":7793,"room":7794,"ĠFuhr":7795,"ntian":7796,"ĠBapt":7797,"urb":7798,"ĠWilson":7799,"comsa":7800,"ndifferent":7801,"Ġ\"...":7802,"ĠGT":7803,"Ġheavy":7804,"nInternet":7805,"osrhe":7806,"nOr":7807,"Ġwear":7808,"ĠRead":7809,"nMY":7810,"Ġalive":7811,"plays":7812,"ĠVol":7813,"urentian":7814,"nAre":7815,"Ġclar":7816,"never":7817,"Ġapps":7818,"Ġgrab":7819,"ĠArt":7820,"nrem":7821,"afford":7822,"ormal":7823,"ertainly":7824,"ĠScient":7825,"Ġleader":7826,"Ġtested":7827,"nthose":7828,"IVID":7829,"Ġoperations":7830,"Ġwinning":7831,"Ġdocuments":7832,"Ġpostings":7833,"Ġprinted":7834,"Ġcapital":7835,"Ġtwice":7836,"Ġassuming":7837,"ĠMinnesota":7838,":-:-":7839,"ĠPostScript":7840,"Ġsurprised":7841,"Ġantib":7842,"Ġestablish":7843,"Ġextremely":7844,"Ġchemical":7845,"Ġefficient":7846,"ĠAugust":7847,"ĠHirschbeck":7848,"220":7849,"AST":7850,"CT":7851,"FG":7852,"FL":7853,"HN":7854,"HP":7855,"Soviet":7856,"Thanks":7857,"bon":7858,"cons":7859,"gel":7860,"house":7861,"nav":7862,"ocom":7863,"ridge":7864,"speed":7865,"including":7866,"Ġborder":7867,"Ġmad":7868,"sters":7869,"Ġhang":7870,"ĠSet":7871,"ĠSanta":7872,"adley":7873,"ademic":7874,"ĠMo":7875,"unis":7876,"rier":7877,"----------------\\":7878,"Ġhen":7879,"Ġdoll":7880,"Ġconstr":7881,"Ġprohib":7882,"essions":7883,"Ġsequ":7884,"upiter":7885,"nipeg":7886,"nsystem":7887,"ncar":7888,"ails":7889,"Ġimply":7890,"Ġimpression":7891,"Ġ1920":7892,"ĠStep":7893,"ĠChip":7894,"ĠChallenge":7895,"Ġ63":7896,"away":7897,"104":7898,"nmuch":7899,"115":7900,"Ġsins":7901,"Ġmoder":7902,"Ġmodified":7903,"Ġacid":7904,"Ġsets":7905,"Ġdiscrim":7906,"Ġends":7907,"Ġcareer":7908,"ĠJustice":7909,"Ġmagazine":7910,"ĠCentre":7911,"Ġobserved":7912,"Ġrecommended":7913,"ĠIRQ":7914,"ngovernment":7915,"Ġmirror":7916,"Ġessentially":7917,"Ġburned":7918,"ĠScripture":7919,"Ġsurvivors":7920,"$\\'":7921,"4000":7922,"Ad":7923,"Date":7924,"Daniel":7925,"SO":7926,"Time":7927,"YR":7928,"cup":7929,"iac":7930,"kind":7931,"nread":7932,"such":7933,"wd":7934,"wave":7935,"Ġtalks":7936,"orpor":7937,"Ġpg":7938,"Ġtoss":7939,"Ġhook":7940,"eces":7941,"ĠSUR":7942,"ĠTX":7943,"ĠTEL":7944,"ĠAD":7945,"ĠMake":7946,"ĠBE":7947,"kel":7948,"ĠDay":7949,"Ġstone":7950,"============":7951,"Ġchurches":7952,"nsuch":7953,"Ġappeared":7954,"obby":7955,"nmake":7956,"Ġ#\\":7957,"Ġmodems":7958,"noff":7959,"301":7960,"Ġpassage":7961,"nright":7962,"IDE":7963,"IDENT":7964,"enguins":7965,"ĠATI":7966,"Ġpositions":7967,"Ġfunny":7968,"Ġvariety":7969,"ackson":7970,"nChris":7971,"Ġexception":7972,"Ġpersons":7973,"Ġassumption":7974,"Ġprayer":7975,"=*=*=*=*=*=*=*=*":7976,"Ġmaintain":7977,"Ġdistributed":7978,"_*_*":7979,"Ġconversation":7980,"Ġbottom":7981,"psych":7982,"Ġchannel":7983,"Ġdetermine":7984,"^~^~":7985,"-\\'":7986,"-+\\":7987,"415":7988,"@\\'":7989,"_?":7990,"cit":7991,"dg":7992,"first":7993,"hol":7994,"much":7995,"then":7996,"Ġtim":7997,"Ġtactic":7998,"onna":7999,"anna":8000,"orter":8001,"ita":8002,"oma":8003,"aling":8004,"Ġmc":8005,"Ġdictionary":8006,"ste":8007,"Ġhack":8008,"Ġhole":8009,"Ġlif":8010,"ĠSup":8011,"ĠSaudi":8012,"ĠTw":8013,"road":8014,"idden":8015,"ĠMen":8016,"ĠMur":8017,"ĠMult":8018,"ample":8019,"Ġ150":8020,"ĠBiblical":8021,"ĠDem":8022,"ubc":8023,"ĠHop":8024,"nSorry":8025,"Ġrum":8026,"ndef":8027,"opin":8028,"ctor":8029,"nOf":8030,"nLet":8031,"Ġshape":8032,"Ġjournal":8033,"nMS":8034,"Ġchain":8035,"Ġmyth":8036,"nThen":8037,"akland":8038,"Ġplate":8039,"Ġplastic":8040,"Ġdisput":8041,"nAfter":8042,"Ġ52":8043,"ugs":8044,"nReg":8045,"OST":8046,"ĠĠĠĠĠĠĠĠĠĠĠĠĠĠĠĠĠĠĠĠĠĠĠĠĠĠĠĠĠĠĠĠĠĠĠĠĠĠĠ":8047,"Ġourselves":8048,"Ġconsum":8049,"nGm":8050,"ĠClark":8051,"Ġadvoc":8052,"standard":8053,"ĠColumbia":8054,"658":8055,"Ġhumanity":8056,"ĠAmes":8057,"Ġequiv":8058,"ĠLeafs":8059,"nprogram":8060,"burg":8061,"Ġvisible":8062,"Ġfamiliar":8063,"ĠPRES":8064,"Ġmethods":8065,"guns":8066,"Ġquotes":8067,"ouncil":8068,"Ġassociated":8069,"elesc":8070,"ĠFrance":8071,"Ġspiritual":8072,"Ġcriminal":8073,"ĠStratus":8074,"ĠRushdie":8075,"Ġencrypted":8076,"Ġhenry":8077,"\":":8078,"(+":8079,"2000":8080,"225":8081,"@*":8082,"KB":8083,"PN":8084,"QR":8085,"UK":8086,"boy":8087,"cult":8088,"hh":8089,"iate":8090,"jo":8091,"nquest":8092,"raphics":8093,"sim":8094,"tis":8095,"ww":8096,"zz":8097,"Ġri":8098,"Ġ!\\":8099,"held":8100,"Ġbank":8101,"omin":8102,"Ġfirm":8103,"Ġdigital":8104,"Ġinh":8105,"ashed":8106,"ecs":8107,"ĠSure":8108,"ĠTin":8109,"Ġrelevant":8110,"imed":8111,"ĠMa":8112,"ĠMus":8113,"search":8114,"charge":8115,"izes":8116,"Ġring":8117,"ndid":8118,"ĠGulf":8119,"ĠNET":8120,"Ġbutt":8121,"Ġship":8122,"Ġshift":8123,"orted":8124,"Ġsufficient":8125,"place":8126,"ĠVA":8127,"ferences":8128,"Ġ59":8129,"Ġprison":8130,"ĠIts":8131,"105":8132,"106":8133,"ĠArmy":8134,"nPaul":8135,"chemy":8136,"dee":8137,"Ġattacks":8138,"Ġmonitors":8139,"boards":8140,"oked":8141,"ĠSunOS":8142,"ILE":8143,"nbefore":8144,"ĠIIsi":8145,"bling":8146,"tIf":8147,"ADME":8148,"lington":8149,"Ġglad":8150,"Ġports":8151,"Ġoffered":8152,"build":8153,"ĠMaryland":8154,"Ġcivilians":8155,"Ġmanuals":8156,"ĠJerusalem":8157,"Ġrocket":8158,"ntrans":8159,"Ġdestroyed":8160,"Ġvirtual":8161,"_-_-":8162,"Ġsplit":8163,"Ġprepared":8164,"ĠFinland":8165,"Ġdownload":8166,"#&":8167,"#/":8168,"1000":8169,"AW":8170,"DN":8171,"EH":8172,"JV":8173,"Please":8174,"UY":8175,"bat":8176,"best":8177,"born":8178,"hor":8179,"jones":8180,"larc":8181,"rich":8182,"reason":8183,"Ġwild":8184,"Ġsummary":8185,"enger":8186,"Ġpush":8187,"Ġdry":8188,"Ġdatabase":8189,"stations":8190,"Ġholes":8191,"asp":8192,"Ġloop":8193,"ĠToy":8194,"ĠTimes":8195,"ĠMic":8196,"Ġforms":8197,"ĠBi":8198,"kew":8199,"ĠDIVID":8200,"ĠWood":8201,"ewis":8202,"Ġ250":8203,"ĠUt":8204,"ateur":8205,"ĠLooking":8206,"Ġarmy":8207,"tics":8208,"Ġchosen":8209,"nTom":8210,"nsim":8211,"ĠKent":8212,"Ġcloud":8213,"Ġeval":8214,"Ġpregn":8215,"nmod":8216,"ERE":8217,"202":8218,"Ġreads":8219,"cluded":8220,"Ġadding":8221,"Ġdecent":8222,"Ġoriginally":8223,"ĠBrown":8224,"Ġ...!":8225,"regon":8226,"ĠPrice":8227,"centage":8228,"Ġirre":8229,"ĠContact":8230,"Ġfixed":8231,"ĠElectronics":8232,"\\\\\\\\\\\\\\\\\\\\\\\\\\\\\\\\\\\\\\\\\\\\\\\\\\\\\\\\\\\\\\\\":8233,"Ġminority":8234,"Ġsample":8235,"Ġeconomic":8236,"ĠDIVIDIAN":8237,"#*":8238,"#^":8239,"(-":8240,":&":8241,">=":8242,"@%":8243,"@,":8244,"@\\":8245,"DH":8246,"JG":8247,"Packard":8248,"SB":8249,"Sam":8250,"ZE":8251,"care":8252,"copy":8253,"iro":8254,"kie":8255,"lat":8256,"mage":8257,"nour":8258,"sni":8259,"vol":8260,"Ġtexts":8261,"inth":8262,"Ġsumm":8263,"itan":8264,"Ġcaught":8265,"Ġpiss":8266,"Ġinformed":8267,"Ġ\\\\\\\\":8268,"ĠSIG":8269,"ĠBus":8270,"ĠBure":8271,"ective":8272,"rial":8273,"ĠHor":8274,"Ġnoted":8275,"open":8276,"ĠNov":8277,"Ġ286":8278,"ĠLaser":8279,"\\\\\\'":8280,"alling":8281,"allas":8282,"Ġgoals":8283,"arty":8284,"avity":8285,"Ġunix":8286,"elled":8287,"Ġyours":8288,"ounded":8289,"...\"\\":8290,"Ġadapt":8291,"nthese":8292,"Ġ1986":8293,"Ġjustify":8294,"assin":8295,"blems":8296,"angel":8297,"Ġbelieves":8298,"portal":8299,"Ġdecisions":8300,"iking":8301,"Ġhelped":8302,"Ġcorrupt":8303,"ENET":8304,"archive":8305,"Ġstrugg":8306,"Ġstrnlght":8307,"ĠIsraelis":8308,"uslims":8309,"Ġmedicine":8310,"Ġdealing":8311,"mmmm":8312,"Ġconcrete":8313,"Ġinstallation":8314,"Ġbreast":8315,"Ġcontinued":8316,"Ġmotiv":8317,"Ġattempts":8318,"Ġsentence":8319,"Ġstrongly":8320,"-------------------------------------------------------------------------\\":8321,"Ġscientists":8322,"(*)":8323,"Ġroutine":8324,"ographic":8325,",`,`,`,`,`,`,`,`":8326,"Ġeducation":8327,"ĠRepublic":8328,"Ġproceeded":8329,"Ġsettings":8330,"#,":8331,"(;":8332,"(<":8333,"-$":8334,":\"":8335,"<,":8336,">/":8337,"BY":8338,"DM":8339,"DO":8340,"GY":8341,"KY":8342,"TEK":8343,"ZW":8344,"ais":8345,"ees":8346,"free":8347,"gif":8348,"oState":8349,"Ġ00":8350,"Ġicon":8351,"Ġwast":8352,"itals":8353,"Ġpatter":8354,"Ġmouth":8355,"Ġmicro":8356,"Ġhospital":8357,"Ġnations":8358,"ĠSub":8359,"ĠTor":8360,"Ġrend":8361,"ĠAv":8362,"seud":8363,"ĠFore":8364,"rik":8365,"Ġstaff":8366,"ĠHun":8367,"aby":8368,"nSince":8369,"umin":8370,"ĠLie":8371,"ĠEm":8372,"antly":8373,"Ġvision":8374,"ĠJr":8375,"ksu":8376,"ĠVoice":8377,"Ġ49":8378,"Ġ400":8379,"cco":8380,"Ġplot":8381,"pring":8382,"Ġ08":8383,"nDave":8384,"Ġdisapp":8385,"ĠChris":8386,"ordon":8387,"129":8388,"nRe":8389,"nCould":8390,"Ġserved":8391,"ixel":8392,"Ġ94":8393,"ĠĠĠĠĠĠĠĠĠĠĠĠĠĠĠĠĠĠĠĠĠĠĠĠĠĠĠĠĠĠĠĠĠĠĠĠĠĠĠĠĠĠĠĠĠĠĠĠĠ":8394,"Ġ:)":8395,"nafter":8396,"nFirst":8397,"Ġcommun":8398,"Ġ1024":8399,"Ġcramer":8400,"Ġparam":8401,"ARC":8402,"ervative":8403,"cessor":8404,"nEd":8405,"Ġextension":8406,"Ġpresident":8407,"Ġexplained":8408,"Ġtalked":8409,"Ġreferring":8410,"Ġminds":8411,"cray":8412,"Ġpitches":8413,"ependence":8414,"Ġdescribe":8415,"ColoState":8416,"Ġvolt":8417,"olicy":8418,"Ġlegitimate":8419,"Ġconverted":8420,"Ġlaun":8421,"elligent":8422,"Ġassociate":8423,"Ġtaxes":8424,"////////////////":8425,"Ġrepeat":8426,"Ġbaby":8427,"ĠQuestions":8428,"Ġcamera":8429,"Ġprivacy":8430,"Ġexperiences":8431,"Ġsymptoms":8432,"itchell":8433,"ĠPRESIDENT":8434,"Let":8435,"NG":8436,"New":8437,"Ron":8438,"XP":8439,"];":8440,"mw":8441,"Ġ....":8442,"orial":8443,"Ġcate":8444,"Ġflying":8445,"-------\\":8446,"asus":8447,"aches":8448,"ĠSin":8449,"ĠSil":8450,"ĠThank":8451,"uting":8452,"ĠCamp":8453,"Ġ193":8454,"ĠBaseball":8455,"chow":8456,"irty":8457,"isted":8458,"ĠHy":8459,"ills":8460,"ĠUT":8461,"ĠUUCP":8462,"ĠLewis":8463,"ĠJets":8464,"ochem":8465,"ĠVi":8466,"Ġspot":8467,"Ġplays":8468,"exp":8469,"except":8470,"clock":8471,"Ġ54":8472,"Ġensure":8473,"csu":8474,"their":8475,"1024":8476,"nmon":8477,"anges":8478,"Ġdriven":8479,"velation":8480,"ĠAnderson":8481,"Ġcommunications":8482,"Ġmodes":8483,"Ġremoved":8484,"ALL":8485,"nGood":8486,"Ġinsert":8487,"Ġnewsgroups":8488,"ĠAdobe":8489,"Ġsubs":8490,"Ġresulting":8491,"Ġequally":8492,"uhura":8493,"Ġ_/_/_/":8494,"___\\":8495,"Ġverse":8496,"Ġballs":8497,"ĠDesk":8498,"Ġforever":8499,"GRAPH":8500,"ĠONE":8501,"Ġraise":8502,"Ġsilence":8503,"ĠDecember":8504,"Ġconverting":8505,"____________________________________________________________________________":8506,"urrently":8507,"nDoD":8508,"Ġcredit":8509,"Ġtechniques":8510,"Steven":8511,"Ġhatred":8512,"ĠHopkins":8513,"!$":8514,"?,":8515,"IAL":8516,"JC":8517,"VE":8518,"[[":8519,"bits":8520,"eel":8521,"iated":8522,"paper":8523,"tra":8524,"uic":8525,"vnet":8526,"Ġthee":8527,"Ġmcc":8528,"Ġdict":8529,"Ġthou":8530,"ĠSY":8531,"Ġreduce":8532,"ĠMartin":8533,"unm":8534,"Ġ128":8535,"ĠBush":8536,"ĠRights":8537,"ĠDri":8538,"ĠWANT":8539,"oper":8540,"umably":8541,"ĠLost":8542,"Ġusage":8543,"ĠEthernet":8544,"ĠJF":8545,"ĠJuly":8546,"ups":8547,"Ġalle":8548,"Ġworship":8549,"ĠKurd":8550,"ĠView":8551,"ĠVancouver":8552,"actor":8553,"ucsc":8554,"nwell":8555,"Ġadministration":8556,"Ġ1919":8557,"herent":8558,"perim":8559,"nmay":8560,"anged":8561,"Ġdifferences":8562,"ORT":8563,"Ġregistration":8564,"ĠClock":8565,"Ġcorner":8566,"Ġelim":8567,"oking":8568,"entional":8569,"AME":8570,"Ġconfused":8571,"Ġcareful":8572,"Ġdiscussions":8573,"Ġreferred":8574,"Ġtesting":8575,"ĠPluto":8576,"nkara":8577,"ĠMcG":8578,"ĠSept":8579,"Ġhitter":8580,"ĠPalestine":8581,"Ġdescribes":8582,"Ġdestruction":8583,"ĠStudies":8584,"ĠOttawa":8585,"Ġdogma":8586,"Ġsignificantly":8587,"ĠJersey":8588,"Ġtranslation":8589,"Ġmassacre":8590,"Ġinstructions":8591,"Ġnumerous":8592,"ilometers":8593,"(!":8594,"*\\'":8595,",\"\\":8596,"?\\'":8597,"@<":8598,"BU":8599,"Dwyer":8600,"Henry":8601,"IES":8602,"JZ":8603,"OY":8604,"Os":8605,"coh":8606,"hak":8607,"iy":8608,"lp":8609,"nadd":8610,"pass":8611,"run":8612,"ront":8613,"wpi":8614,"Ġ;\\":8615,"inite":8616,"ero":8617,"erard":8618,"erves":8619,"Ġsen":8620,"isters":8621,"Ġcd":8622,"Ġcore":8623,"Ġmile":8624,"lew":8625,"eta":8626,"ĠSing":8627,"ĠTry":8628,"usband":8629,"Ġrender":8630,"Ġreached":8631,"Ġyeast":8632,"ĠCher":8633,"iden":8634,"idel":8635,"Ġ120":8636,"ĠBow":8637,"ĠRoger":8638,"ĠPeace":8639,"Ġstories":8640,"Ġrub":8641,"ĠGun":8642,"ewart":8643,"ĠNEC":8644,"ulating":8645,"cts":8646,"ĠLives":8647,"ĠLOOK":8648,"Ġproven":8649,"ĠOPEN":8650,"uster":8651,"Ġexpress":8652,"Ġshout":8653,"artz":8654,"Ġsud":8655,"nspec":8656,"erek":8657,"Ġspect":8658,"Ġ07":8659,"Ġadapter":8660,"clh":8661,"Ġ58":8662,"Ġcontrary":8663,"netic":8664,"obal":8665,"onduct":8666,"Ġ72":8667,"nCol":8668,"nPhil":8669,"Ġnewer":8670,"165":8671,"ITY":8672,"hole":8673,"Ġwarm":8674,"Ġletters":8675,"Ġstrict":8676,"Ġelsewhere":8677,"Ġviewing":8678,"ĠAllen":8679,"Ġsevere":8680,"Ġprocessor":8681,"Ġanswered":8682,"ĠLabs":8683,"bury":8684,"Ġoccurs":8685,"OCK":8686,"Ġfinish":8687,"gsfc":8688,"ĠNYI":8689,"Ġskin":8690,"Ġpersec":8691,"ĠWinnipeg":8692,"Ġtypical":8693,"Ġaffect":8694,"Ġdetector":8695,"+-+-":8696,"Ġpenalty":8697,"Ġsuffering":8698,"Ġexcuse":8699,"ĠHolocaust":8700,"Ġwidgets":8701,"%%%%%%%%":8702,"Ġjoin":8703,"ĠTestament":8704,"Ġwiretap":8705,"Ġpolyg":8706,"ĠMercury":8707,"Ġparanoid":8708,"Ġmutual":8709,"Ġbudget":8710,"ĠInstruments":8711,"&<":8712,")!":8713,".(":8714,"/.":8715,"230":8716,"617":8717,":%":8718,">_":8719,"@/":8720,"Carl":8721,"ESA":8722,"IK":8723,"INT":8724,"LH":8725,"UH":8726,"VIV":8727,"WA":8728,"Wh":8729,"bos":8730,"cir":8731,"course":8732,"did":8733,"davis":8734,"dahl":8735,"fnal":8736,"mr":8737,"nstr":8738,"nQu":8739,"silver":8740,"uq":8741,"ynam":8742,"zona":8743,"Ġaudio":8744,"heel":8745,"erhaps":8746,"atl":8747,"Ġsaves":8748,"Ġsilly":8749,"esse":8750,"Ġow":8751,"Ġodd":8752,"Ġfell":8753,"icr":8754,"Ġhacker":8755,"Ġinform":8756,"Ġgren":8757,"acters":8758,"ĠSolar":8759,"ĠTue":8760,"ĠTOR":8761,"ĠCouncil":8762,"ĠAZ":8763,"ĠARE":8764,"ĠMu":8765,"ĠFederal":8766,"ĠBank":8767,"ĠPrivate":8768,"ostate":8769,"Ġstyle":8770,"ĠHockey":8771,"abilities":8772,"Ġrap":8773,"estic":8774,"ĠLarson":8775,"ĠEach":8776,"ĠJet":8777,"Ġjack":8778,"nMM":8779,"occ":8780,"Ġchose":8781,"nNote":8782,"ĠVMS":8783,"Ġspoke":8784,"ogether":8785,"nDepartment":8786,"Ġappeal":8787,"itional":8788,"Ġscale":8789,"ixon":8790,"nhard":8791,"ictions":8792,"Ġpartners":8793,"ificial":8794,"ARY":8795,"venue":8796,"nKen":8797,"ĠZeal":8798,"Ġextended":8799,"ĠAdam":8800,"Ġproviding":8801,"Ġentry":8802,"ĠTechnical":8803,"ĠApplications":8804,"APR":8805,"Ġedge":8806,"ĠEduc":8807,"laurentian":8808,"Ġimpact":8809,"Ġzone":8810,"dscomsa":8811,"Ġdetectors":8812,"Ġfrequency":8813,"ĠPolice":8814,"Ġvictims":8815,"Conkie":8816,"Ġproduced":8817,"ĠCroats":8818,"Ġaspects":8819,"ĠGaza":8820,"sembly":8821,"Ġsudden":8822,"#\"":8823,"$#":8824,"$/":8825,"$\\":8826,"DK":8827,"EB":8828,"EAR":8829,"FB":8830,"LU":8831,"MR":8832,"Oh":8833,"RAM":8834,"SK":8835,"_&":8836,"cu":8837,"cat":8838,"dos":8839,"gain":8840,"nplay":8841,"rh":8842,"uan":8843,"vice":8844,"wi":8845,"Ġ^^^^^^^^":8846,"rend":8847,"Ġsink":8848,"Ġcas":8849,"Ġbound":8850,"Ġped":8851,"ican":8852,"Ġincomp":8853,"ĠSVR":8854,"ĠAh":8855,"ĠMad":8856,"unny":8857,"ĠFac":8858,"ĠBIT":8859,"ĠPink":8860,"ĠDaniel":8861,"ĠWW":8862,"irls":8863,"Ġstable":8864,"Ġstorage":8865,"ĠGA":8866,"Ġheterosexual":8867,"ĠNy":8868,"osure":8869,"ĠObs":8870,"Ġvary":8871,"nMA":8872,"Ġ|\"":8873,"nThank":8874,"Ġleaving":8875,"ĠKarab":8876,"forum":8877,"nconsider":8878,"Ġsole":8879,"Ġdisplays":8880,"nway":8881,"exus":8882,"Ġtraining":8883,"answers":8884,"hered":8885,"ovic":8886,"Ġ600":8887,"Ġ714":8888,"pson":8889,"Ġ99":8890,"hanus":8891,"ĠHeaven":8892,"nott":8893,"ifications":8894,"organization":8895,"Ġacqu":8896,"Ġbrand":8897,"Ġsimpl":8898,"nreally":8899,"Ġformed":8900,"Ġhelpful":8901,"Ġstatistics":8902,"uesday":8903,"456":8904,"377":8905,"ĠPercentage":8906,"Ġmotion":8907,"Ġcapac":8908,"Ġviolent":8909,"Ġdeliver":8910,"duced":8911,"Ġcarrying":8912,"ĠElectrical":8913,"nresp":8914,"Ġofficials":8915,"cbnewsj":8916,"Ġscripture":8917,"Ġassertion":8918,"ĠQuestion":8919,"Ġmechanism":8920,"Ġelements":8921,"~=~=~=~=":8922,"Ġsubscribe":8923,"Ġprocedure":8924,"Ġmotorcycle":8925,"Ġridiculous":8926,"ĠLivesey":8927,"ĠZealand":8928,"%\"":8929,")\"":8930,">^":8931,"DP":8932,"Le":8933,"NL":8934,"NZ":8935,"QC":8936,"QX":8937,"Roger":8938,"cing":8939,"cforum":8940,"fred":8941,"ij":8942,"lb":8943,"oas":8944,"rz":8945,"sas":8946,"tof":8947,"tto":8948,"via":8949,"Ġtaught":8950,"Ġsake":8951,"ishing":8952,"ingly":8953,"------\\":8954,"Ġthor":8955,"stuff":8956,"asd":8957,"asks":8958,"Ġ($":8959,"eters":8960,"ĠSVGA":8961,"iday":8962,"ĠMO":8963,"ĠMem":8964,"ĠBa":8965,"ĠBTW":8966,"ĠRet":8967,"ĠRyan":8968,"odore":8969,"agan":8970,"ĠHenry":8971,"abeth":8972,"ĠGM":8973,"ĠOregon":8974,"qual":8975,"Ġallowing":8976,"nser":8977,"Ġund":8978,"Ġunable":8979,"Ġunits":8980,"udson":8981,"ĠKo":8982,"ĠKey":8983,"razy":8984,"clarkson":8985,"ribed":8986,"ollo":8987,"ĠIsland":8988,"ĠĠĠĠĠĠĠĠĠĠĠĠĠĠĠĠĠĠĠĠĠĠĠĠĠĠĠĠĠĠĠĠĠĠĠĠĠĠ":8989,"nHas":8990,"Ġbless":8991,"Ġthrown":8992,"Ġdecre":8993,"Ġfactors":8994,"ruary":8995,"Ġcolon":8996,"Ġsmart":8997,"Ġsmooth":8998,"Ġintelligence":8999,"Ġhappening":9000,"Ġrepair":9001,"Ġrefuse":9002,"Ġrefuge":9003,"Ġbigger":9004,"Ġboxes":9005,"Ġphysics":9006,"Ġfailure":9007,"UNY":9008,"Ġmovie":9009,"Ġhighest":9010,"Ġdeliber":9011,"ĠControl":9012,"ramsey":9013,"Alan":9014,"Armen":9015,"Ġcompressed":9016,"Ġentered":9017,"Ġalgorithms":9018,"Ġpurchased":9019,"Ġsurprise":9020,"::::::::::::::::::::::::::::::::":9021,"ĠLaunch":9022,"ĠMormons":9023,"Ġsummer":9024,"Ġshooting":9025,"specially":9026,"Ġabsurd":9027,"Ġwatched":9028,"ĠBoard":9029,"formatik":9030,"Ġcandida":9031,"Ġhoping":9032,"nbelieve":9033,"esleyan":9034,"ĠMessiah":9035,"%.":9036,"&%":9037,"213":9038,">$":9039,">.":9040,"FD":9041,"GK":9042,"NCR":9043,"SN":9044,"bag":9045,"cns":9046,"drive":9047,"fsu":9048,"haust":9049,"make":9050,"person":9051,"tin":9052,"tThis":9053,"vation":9054,"Ġton":9055,"Ġast":9056,"rec":9057,"aton":9058,"Ġod":9059,"ingr":9060,"-----":9061,"Ġtoler":9062,"ĠID":9063,"Ġnuc":9064,"otto":9065,"Ġgri":9066,"ĠSol":9067,"ĠSony":9068,"ĠSLIP":9069,"Ġreverse":9070,"ĠMatt":9071,"Ġ130":9072,"ĠWall":9073,"Ġstream":9074,"ubs":9075,"ctron":9076,"Ġconven":9077,"\\\\$":9078,"thur":9079,"resden":9080,"Ġbytes":9081,"nsame":9082,"Ġunknown":9083,"acting":9084,"Ġimmoral":9085,"ansion":9086,"ĠYassin":9087,"Ġ1983":9088,"Ġ57":9089,"Ġ512":9090,"ĠInfo":9091,"Ġ650":9092,"Ġcontent":9093,"ngood":9094,"onts":9095,"nfirst":9096,"Ġ91":9097,"issions":9098,"ĠAndre":9099,"Ġblow":9100,"phil":9101,"Ġowned":9102,"--------------------------------------------------------------------------------\\":9103,"SIG":9104,"SION":9105,"Ġstands":9106,"---------------":9107,"ĠAdams":9108,"Ġsolutions":9109,"Ġpropag":9110,"Ġexpert":9111,"Ġdealers":9112,"ĠBoswell":9113,"Ġexpand":9114,"arrow":9115,"Ġresear":9116,"Color":9117,"Ġ{\\":9118,"Ġlivesey":9119,"aurora":9120,"Ġsteps":9121,"Ġconnector":9122,"ĠNewsletter":9123,"handheld":9124,"Ġsuperior":9125,"ĠPHIGS":9126,"Ġestablished":9127,"Only":9128,"Amiga":9129,"rwing":9130,"nCheers":9131,"Ġcursor":9132,"Ġprinciple":9133,"Ġequivalent":9134,"!#":9135,"&,":9136,")^":9137,"180":9138,"650":9139,"750":9140,";\"":9141,"<\\'":9142,"@_":9143,"BT":9144,"Ber":9145,"GIF":9146,"Kevin":9147,"RL":9148,"RV":9149,"Sab":9150,"Subject":9151,"Uni":9152,"VF":9153,"Was":9154,"]\"":9155,"bm":9156,"ben":9157,"dog":9158,"jh":9159,"oology":9160,"tron":9161,"atin":9162,"ester":9163,"aria":9164,"Ġdies":9165,"Ġdrawn":9166,"lli":9167,"ĠSand":9168,"ĠTake":9169,"Ġrent":9170,"romium":9171,"ĠBoy":9172,"ĠBern":9173,"ĠWindow":9174,"istence":9175,"Ġaside":9176,"elix":9177,"ĠGL":9178,"ĠNEWS":9179,"umper":9180,"ĠUnder":9181,"ĠOp":9182,"ĠEV":9183,"ticular":9184,"orton":9185,"Ġchronic":9186,"nsur":9187,"Ġlean":9188,"ĠVisual":9189,"ĠVictoria":9190,"print":9191,"Ġdismiss":9192,"Ġagent":9193,"Ġmanaged":9194,"Ġ610":9195,"ngu":9196,"teen":9197,"ĠCommittee":9198,"angle":9199,"Ġseek":9200,"Ġ92":9201,"154":9202,"Ġdefe":9203,"nrec":9204,"nrel":9205,"245":9206,"602":9207,"Ġslower":9208,"????":9209,"Ġ\\\\_":9210,"ĠShould":9211,"nYour":9212,"Ġtransmit":9213,"Ġmorals":9214,"colostate":9215,"Ġsubstant":9216,"Ġplanets":9217,"ĠAnyway":9218,"nthony":9219,"ĠAmendment":9220,"arnation":9221,"ĠManual":9222,"Ġdepending":9223,"solntze":9224,"Ġfields":9225,"Ġlogin":9226,"Ġvisit":9227,"Ġapart":9228,"ĠMorality":9229,"monash":9230,"Ġpicked":9231,"Ġpitchers":9232,"Ġtoolkit":9233,"ĠNazi":9234,"Ġbecoming":9235,"ĠAthens":9236,"Ġcharges":9237,"Ġprinters":9238,"Ġcloser":9239,"Ġtelephone":9240,"Ġphrase":9241,"ĠMexico":9242,"ĠHitler":9243,"ĠEquipment":9244,"Ġcrowd":9245,"ĠArizona":9246,"chowy":9247,"\"...":9248,"#[":9249,"$@":9250,")[":9251,"))\\":9252,"?[":9253,"By":9254,"Bos":9255,"Er":9256,"GX":9257,"MIT":9258,"QL":9259,"TON":9260,"]^":9261,"aide":9262,"iu":9263,"mg":9264,"nQ":9265,"uwo":9266,"hent":9267,"-->":9268,"Ġmaster":9269,"Ġmask":9270,"army":9271,"Ġdust":9272,"Ġdying":9273,"\\'\"":9274,"Ġhous":9275,"ĠSk":9276,"ĠSouthern":9277,"uty":9278,"ĠCross":9279,"ĠAp":9280,"imo":9281,"ĠMeg":9282,"ĠMoses":9283,"igger":9284,"ĠFly":9285,"......\\":9286,"ĠPersonal":9287,"olina":9288,"ifer":9289,"ĠDiv":9290,"rived":9291,"Ġstret":9292,"Ġstars":9293,"ĠHouston":9294,"ĠHughes":9295,"ĠNH":9296,"ĠLead":9297,"arding":9298,"ĠOct":9299,"Ġarrog":9300,"ĠJournal":9301,"Ġshared":9302,"Ġjake":9303,"Ġsuck":9304,"rah":9305,"Ġcomprehe":9306,"nAm":9307,"ĠYam":9308,"Ġdont":9309,"Ġjustice":9310,"Ġthank":9311,"ressian":9312,"Ġapplies":9313,"ovan":9314,"ontal":9315,"nmost":9316,"113":9317,"Ġscored":9318,"Ġoverall":9319,"Ġservers":9320,"hanx":9321,"Ġconsent":9322,"Ġbuffer":9323,"170":9324,"Ġcritic":9325,"Ġsettle":9326,"Ġregards":9327,"Ġcorrespond":9328,"Ġsupporting":9329,"ĠIntel":9330,"ĠZoology":9331,"ICK":9332,"Ġincred":9333,"Ġminimum":9334,"Ġpassing":9335,"nbeing":9336,"ĠTechnologies":9337,"ĠAppressian":9338,"Ġheads":9339,"Ġedit":9340,"Ġholds":9341,"Ġincreasing":9342,"ĠMario":9343,"Ġlabor":9344,"help":9345,"Ġrevolution":9346,"Ġsuccessful":9347,"ĠMelk":9348,"Ġloose":9349,"ĠDirector":9350,"Ġmanufacturer":9351,"Ġindustry":9352,"ĠCherry":9353,"$%":9354,"$?":9355,"+&":9356,"+<":9357,"-<":9358,"280":9359,";;":9360,"CM":9361,"GJ":9362,"Larry":9363,"Ms":9364,"NO":9365,"PY":9366,"ULL":9367,"ZX":9368,"[]":9369,"aix":9370,"bre":9371,"bie":9372,"bourne":9373,"dk":9374,"direct":9375,"iel":9376,"mons":9377,"ngr":9378,"Ġlying":9379,"Ġtill":9380,"Ġtough":9381,"Ġtapped":9382,"Ġastronom":9383,"heim":9384,"reate":9385,"Ġbed":9386,"Ġbay":9387,"ington":9388,"Ġfuck":9389,"ĠIr":9390,"Ġhide":9391,"Ġnative":9392,"Ġgal":9393,"Ġlift":9394,"ĠTre":9395,"ĠTour":9396,"Ġbeer":9397,"ĠMoh":9398,"Ġforb":9399,"ĠBit":9400,"ĠBul":9401,"ĠBeck":9402,"ĠPB":9403,"ublis":9404,"umer":9405,"ĠUp":9406,"ĠLand":9407,"ĠLind":9408,"ĠLiv":9409,"Ġexclus":9410,"Ġvast":9411,"Ġweather":9412,"nMost":9413,"Ġ<>":9414,"elly":9415,"Ġspending":9416,"Ġplenty":9417,"actly":9418,"Ġquit":9419,"ĠStat":9420,"ĠStewart":9421,"Ġmanage":9422,"ĠCharles":9423,"npoint":9424,"Ġ-->":9425,"Ġ640":9426,"Ġprem":9427,"itten":9428,"1100":9429,"nWhile":9430,"ninformation":9431,"check":9432,"Ġoblig":9433,"Ġflow":9434,"Ġcriter":9435,"Ġtelev":9436,"Ġsurgery":9437,"ENCE":9438,"eva":9439,"Ġnetworks":9440,"ookson":9441,"Ġpresence":9442,"brand":9443,"atica":9444,"ĠConference":9445,"ĠĠĠĠĠĠĠĠĠĠĠĠĠĠĠĠĠĠĠĠĠĠĠĠĠĠĠĠĠĠĠĠĠĠĠĠĠĠĠĠĠ":9446,"Ġmatters":9447,"Ġdoub":9448,"ospel":9449,"Ġelectronic":9450,"Ġlogical":9451,"Ġpractices":9452,"nArmen":9453,"Ġconvince":9454,"PLAY":9455,"Ġdeny":9456,"ĠGreeks":9457,"Ġuniversal":9458,"Ġimplementation":9459,"ngoing":9460,"Ġlicens":9461,"Ġbabies":9462,"Ġvehicles":9463,"ĠCroat":9464,"politics":9465,"Ġwisdom":9466,"Ġkingdom":9467,"Ġmanipulation":9468,"Ġconcerning":9469,"ĠAdvanced":9470,"ĠChemistry":9471,"ĠAfrica":9472,"ĠProducts":9473,"Ġdetermined":9474,"oasys":9475,"#]":9476,"#\\\\":9477,"&!":9478,"(,":9479,"(\\\\":9480,"-\"":9481,"480":9482,"BJ":9483,"CX":9484,"DB":9485,"DI":9486,"DW":9487,"Dr":9488,"GV":9489,"Go":9490,"IH":9491,"Kent":9492,"SU":9493,"greg":9494,"hcf":9495,"link":9496,"nost":9497,"oac":9498,"oks":9499,"oenix":9500,"pack":9501,"tte":9502,"uable":9503,"Ġaud":9504,"Ġwax":9505,"Ġwise":9506,"oration":9507,"itect":9508,"itzer":9509,"oulu":9510,"arus":9511,"ĠIowa":9512,"\\'\\\\":9513,"Ġhusband":9514,"Ġnutrition":9515,"ĠSho":9516,"ĠTool":9517,"ĠCLI":9518,"ĠActually":9519,"ĠMoon":9520,"romdee":9521,"ilies":9522,"ĠPers":9523,"urday":9524,"oster":9525,"osted":9526,"ifi":9527,"ĠWD":9528,"ĠWat":9529,"Ġstage":9530,"ubin":9531,"ĠGEN":9532,"ĠTheory":9533,"ĠUpd":9534,"Ġproduction":9535,"Ġuseless":9536,"ĠOs":9537,"Ġarray":9538,"Ġwearing":9539,"nMW":9540,"nMX":9541,"nMaybe":9542,"ncol":9543,"nthes":9544,"ĠStar":9545,"Ġamazing":9546,"Ġenemy":9547,"Ġevolution":9548,"assette":9549,"Ġgrad":9550,"Ġinterview":9551,"Ġinterrupt":9552,"nBTW":9553,"shall":9554,"160":9555,"ĠDee":9556,"Ġroot":9557,"ĠAsk":9558,"Ġsmoke":9559,"Ġgovernments":9560,"Ġreasoning":9561,"Ġbitmap":9562,"aii":9563,"ELL":9564,"Ġexplos":9565,"Ġrefused":9566,"Ġexisted":9567,"ĠMcConkie":9568,"nVolume":9569,"going":9570,"Ġreplacement":9571,"ĠNorway":9572,"ĠOFF":9573,"Ġfanatic":9574,"Ġdetailed":9575,"Ġindicates":9576,"ĠMonitors":9577,"nagainst":9578,"Ġwarranty":9579,"missouri":9580,"ĠCHI":9581,"Ġescaped":9582,"onestar":9583,"................................":9584,"piracy":9585,"Ġcells":9586,"aviour":9587,"adelph":9588,"ĠINTER":9589,"Ġconsequences":9590,"Ġproposal":9591,"ĠSURVIV":9592,"ĠJFIF":9593,"cohol":9594,"#_":9595,"&*":9596,"BK":9597,"GT":9598,"Hi":9599,"KK":9600,"LP":9601,"Mc":9602,"Tor":9603,"[\\":9604,"dc":9605,"data":9606,"disk":9607,"eor":9608,"fire":9609,"had":9610,"mour":9611,"mantis":9612,"physics":9613,"uary":9614,"esk":9615,"especially":9616,"Ġbillion":9617,"Ġbesides":9618,"omy":9619,"arly":9620,"Ġhar":9621,".\\\\":9622,"asu":9623,"Ġliver":9624,"ĠSher":9625,"ĠSuch":9626,"ĠCourt":9627,"Ġbeast":9628,"ayer":9629,"ĠMil":9630,"ĠMah":9631,"Ġforth":9632,"ĠWA":9633,"ira":9634,"Ġnotes":9635,"Ġrul":9636,"ndirect":9637,"ĠGamma":9638,"ĠEnc":9639,"Ġcanon":9640,"inding":9641,"Ġvag":9642,"ĠJo":9643,"Ġjh":9644,"nMQ":9645,"enda":9646,"endig":9647,"pts":9648,"nTim":9649,"ĠVoy":9650,"ĠVERY":9651,"...)":9652,"ĠYan":9653,"Ġagreed":9654,"ultane":9655,"Ġresource":9656,"perating":9657,"109":9658,"onday":9659,"Ġperformed":9660,"125":9661,"appy":9662,"Ġbeta":9663,"Ġsched":9664,"ollowing":9665,"nWill":9666,"Ġ900":9667,"nBrian":9668,"Ġparties":9669,"Ġflu":9670,"Ġrecords":9671,"cludes":9672,"Ġaccompl":9673,"ĠAlt":9674,"Ġrob":9675,"atories":9676,"ĠSharks":9677,"Ġtries":9678,"Ġrepent":9679,"ECT":9680,"Ġexperts":9681,"LIB":9682,"Ġpacket":9683,"=*=-":9684,"Ġappearance":9685,"nproblem":9686,"ĠCarter":9687,"Ġapproved":9688,"-----------------------------------------------------------------------------\\":9689,"nChristian":9690,"Ġservices":9691,"Ġincreased":9692,"aldis":9693,"Ġutilities":9694,"ĠModel":9695,"Ġtherapy":9696,"Ġpixels":9697,"ĠSecurity":9698,"Ġfavorite":9699,"AVE":9700,"Ġorders":9701,"ĠAnnual":9702,"cunixb":9703,"ĠBullock":9704,"Ġneighbors":9705,"circa":9706,"ĠSURVIVORS":9707,")$":9708,"+,":9709,".!":9710,">&":9711,"@^":9712,"Actually":9713,"FBI":9714,"HOME":9715,"La":9716,"Ne":9717,"Tony":9718,"UQ":9719,"WN":9720,"WIN":9721,"WAY":9722,"YI":9723,"ZH":9724,"^[":9725,"homosexual":9726,"ji":9727,"jsc":9728,"knock":9729,"last":9730,"mh":9731,"mt":9732,"necess":9733,"nacc":9734,"pot":9735,"sat":9736,"top":9737,"vos":9738,"Ġtired":9739,"Ġtires":9740,"inating":9741,"err":9742,"rell":9743,"Ġsom":9744,"Ġsig":9745,"anne":9746,"orig":9747,"isp":9748,"esp":9749,"Ġcast":9750,"Ġbiz":9751,"Ġoxy":9752,"ications":9753,"acific":9754,"ĠSearch":9755,"ĠSinger":9756,"ĠSandvik":9757,"ĠTen":9758,"ĠTek":9759,"***\\":9760,"utive":9761,"usl":9762,"ĠCaps":9763,"Ġeating":9764,"Ġitems":9765,"ĠFull":9766,"ĠFurther":9767,"ĠFaith":9768,"ĠPurdue":9769,"cel":9770,"urally":9771,"ĠWal":9772,"ĠWright":9773,"ĠWITH":9774,"ĠHomosexuality":9775,"Ġnotion":9776,"ĠJon":9777,"ĠJac":9778,"Ġshame":9779,"nTr":9780,"nsaid":9781,"Ġlets":9782,"nche":9783,"ĠVer":9784,"ĠVal":9785,"ĠVill":9786,"ĠVLB":9787,"ĠVolume":9788,"prot":9789,"princeton":9790,"195":9791,"Ġdisp":9792,"iley":9793,"ressed":9794,"ĠInvest":9795,"Ġ---\\":9796,"Ġ88":9797,"Ġ89":9798,"Ġ78":9799,"206":9800,"nPeter":9801,"ersonally":9802,"Ġblank":9803,"139":9804,"ahak":9805,"ifically":9806,"ALT":9807,"nreason":9808,"boeing":9809,"Ġintellect":9810,"Ġemb":9811,"ĠPhill":9812,"Ġsuggests":9813,"ĠUSENET":9814,"Ġprotocol":9815,"Ġencounter":9816,"nwithout":9817,"Ġcontinues":9818,"Ġanaly":9819,"Ġperspective":9820,"Ġcharacters":9821,"ĠUsing":9822,"Ġestim":9823,"ursday":9824,"Ġdomestic":9825,"Ġrequirements":9826,"Ġimplies":9827,"Ġcycle":9828,"Ġconclusions":9829,"ĠBrook":9830,"INDOW":9831,"Ġprinciples":9832,"ĠTartar":9833,"adena":9834,"Ġ;-)\\":9835,"fidonet":9836,"Ġvoltage":9837,"([":9838,".]":9839,"240":9840,"713":9841,":<":9842,"@;":9843,"Baker":9844,"CB":9845,"CER":9846,"GF":9847,"IBM":9848,"JH":9849,"Jo":9850,"MF":9851,"MOS":9852,"SF":9853,"WH":9854,"WW":9855,"^\\'":9856,"dl":9857,"faq":9858,"kh":9859,"lonestar":9860,"nnow":9861,"oard":9862,"rif":9863,"rts":9864,"wb":9865,"xic":9866,"Ġiron":9867,"erly":9868,"requ":9869,"esign":9870,"Ġcamp":9871,"Ġbik":9872,"Ġoh":9873,"Ġfasc":9874,"Ġfocus":9875,"Ġhur":9876,"Ġgonna":9877,"aca":9878,"Ġloud":9879,"ĠTri":9880,"ĠToday":9881,"ĠCNN":9882,"ĠMission":9883,"ĠFL":9884,"ĠBag":9885,"ĠRoman":9886,"ĠPenguins":9887,"urrection":9888,"ching":9889,"chinet":9890,"ifiable":9891,"ĠDod":9892,"ĠDuring":9893,"ĠDisk":9894,"rie":9895,"Ġsteal":9896,"isting":9897,"oded":9898,"nSource":9899,"jective":9900,"Ġkilometers":9901,"antee":9902,"Ġseven":9903,"Ġshop":9904,"nMB":9905,"nMJ":9906,"arted":9907,"ibilities":9908,"ivan":9909,"Ġlear":9910,"ĠUnivers":9911,"Ġupset":9912,"Ġcompile":9913,"nwu":9914,"ansing":9915,"ĠYugoslavia":9916,"Ġ1987":9917,"clark":9918,"Ġclue":9919,"Ġampl":9920,"msc":9921,"mson":9922,"ensus":9923,"123":9924,"please":9925,"Ġscen":9926,"Ġrighteous":9927,"strnlght":9928,"Ġsinful":9929,"nHIC":9930,"140":9931,"isease":9932,"Ġguide":9933,"ĠQUE":9934,"Ġthrowing":9935,"Ġattached":9936,"iked":9937,"Ġsurely":9938,"stitutes":9939,"minster":9940,"Ġextent":9941,"Ġconfusion":9942,"hysical":9943,"ĠConc":9944,"alties":9945,"black":9946,"IVE":9947,"ĠSeems":9948,"ĠPerry":9949,"Ġfails":9950,"Ġburden":9951,"Ġstronger":9952,"Ġcausing":9953,"768":9954,"Ġcentral":9955,"ramid":9956,"ĠAzeri":9957,"Ġamounts":9958,"Ġidle":9959,"aeger":9960,"Ġgoalie":9961,"******\\":9962,"ĠLibrary":9963,"ĠZionist":9964,"ĠAssociation":9965,"rocket":9966,"srl":9967,"Ġsports":9968,"Ġtapes":9969,"ĠStanley":9970,"ĠOriginal":9971,"iscussion":9972,"Ġinfluence":9973,"Ġdispute":9974,"elescope":9975,"ĠToyota":9976,"ĠForeign":9977,"rtsg":9978,"nHICNet":9979,"!\\\\":9980,"\"&":9981,"\"-":9982,"%!":9983,"*\"":9984,"350":9985,"416":9986,"?&":9987,"?@":9988,"An":9989,"DER":9990,"HING":9991,"Jason":9992,"Joe":9993,"MN":9994,"NX":9995,"PQ":9996,"PX":9997,"QA":9998,"RO":9999,"VP":10000,"With":10001,"Wayne":10002,"]$":10003,"][":10004,"after":10005,"dartmouth":10006,"iye":10007,"jack":10008,"jpeg":10009,"mber":10010,"rot":10011,"wide":10012,"yet":10013,"yers":10014,"Ġain":10015,"atical":10016,"Ġwest":10017,"isms":10018,"esare":10019,"omic":10020,"algary":10021,"alchemy":10022,"Ġpet":10023,"level":10024,"Ġhon":10025,"ĠTuesday":10026,"ĠFreedom":10027,"ĠBUF":10028,"ĠRober":10029,"olk":10030,"oder":10031,"ĠHE":10032,"ĠHulk":10033,"Ġris":10034,"ĠGE":10035,"ĠNun":10036,"ĠUP":10037,"Ġusenet":10038,"Ġarsen":10039,"Ġjim":10040,"ocument":10041,"nik":10042,"pty":10043,"ptions":10044,"avares":10045,"ivism":10046,"ĠKel":10047,"nAd":10048,"Ġprb":10049,"msus":10050,"114":10051,"ollow":10052,"Ġworkstation":10053,"Ġunderstood":10054,"Ġsinner":10055,"nhim":10056,"404":10057,"been":10058,"ARE":10059,"ĠClass":10060,"Ġcollege":10061,"cessing":10062,"ĠThu":10063,"ĠIntelligence":10064,"ucky":10065,"Ġletting":10066,"okoit":10067,"type":10068,"Ġsolve":10069,"compuserve":10070,"Ġbiggest":10071,"ĠPLAY":10072,"ĠBeing":10073,"Ġedition":10074,"Ġautom":10075,"Ġcapability":10076,"Ġregardless":10077,"Ġirrational":10078,">>>>>>>>":10079,"Ġpriest":10080,"Ġpercentage":10081,"ĠCheck":10082,"nneed":10083,"Ġroutines":10084,"Ġsuffered":10085,"Ġfrequently":10086,"Ġthermal":10087,"ĠEvans":10088,"Ġmeeting":10089,"Ġanimation":10090,"Ġbalance":10091,"Ġderived":10092,"Ġbaptism":10093,"ĠĠĠĠĠĠĠĠĠĠĠĠĠĠĠĠĠĠĠĠĠĠĠĠĠĠĠĠĠĠĠĠĠĠĠĠĠĠĠĠĠĠĠĠĠĠĠĠĠĠĠĠĠĠĠĠĠĠĠĠĠĠĠĠĠĠĠĠĠĠĠĠĠĠĠĠ":10094,"Ġtreated":10095,"ĠTartars":10096,"Ġdreams":10097,"Ġpurely":10098,"cordia":10099,"Ġcontradict":10100,"Ġcomponents":10101,"Ġstrategy":10102,"ĠLinux":10103,"Ġprecisely":10104,"Ġdollars":10105,"ĠBureau":10106,"Ġrendering":10107,"ĠMelkonian":10108,"ĠLivni":10109,"ĠUpdate":10110,"=*=-=*=-":10111,"%;":10112,"%@":10113,"+(":10114,"-\\\\":10115,".#":10116,"/&":10117,":\\'":10118,"FJ":10119,"KH":10120,"Nick":10121,"OA":10122,"Read":10123,"Sahak":10124,"TY":10125,"VJ":10126,"WO":10127,"ZR":10128,"ZY":10129,"]?":10130,"bas":10131,"bird":10132,"eos":10133,"gill":10134,"hub":10135,"list":10136,"nap":10137,"parent":10138,"sub":10139,"xford":10140,"Ġtask":10141,"heastern":10142,"render":10143,"Ġfellow":10144,"alestin":10145,"Ġpc":10146,"Ġment":10147,"Ġmike":10148,"stad":10149,"Ġhint":10150,"Ġ\\\\\\\\\\":10151,"Ġnom":10152,"Ġnine":10153,"acer":10154,"accept":10155,"ĠSound":10156,"ĠTx":10157,"ĠTell":10158,"ĠCook":10159,"ĠCobb":10160,"ĠAcc":10161,"ĠMiddle":10162,"ĠBall":10163,"olis":10164,"ĠDick":10165,"ternal":10166,"irs":10167,"ĠHand":10168,"computer":10169,"ndif":10170,"ĠGener":10171,"ĠNight":10172,"ums":10173,"ula":10174,"ulus":10175,"Ġarbit":10176,"Ġexchange":10177,"nMP":10178,"ocation":10179,"Ġspokes":10180,"tooth":10181,"ucdavis":10182,"ĠStill":10183,"Ġhadn":10184,"neff":10185,"Ġ62":10186,"Ġcontaining":10187,"Ġpret":10188,"Ġ84":10189,"nWith":10190,"ometer":10191,"Ġrelat":10192,"nBy":10193,"dule":10194,"nhapp":10195,"Ġcommunication":10196,"135":10197,"Ġflaw":10198,"Ġcrimes":10199,"Ġattract":10200,"Ġbrown":10201,"ĠAlberta":10202,"Ġinfections":10203,"Ġcoach":10204,"Ġcorrel":10205,"Ġhandled":10206,"Ġshel":10207,"Ġadvanced":10208,"ICAL":10209,"Ġincorrect":10210,"byte":10211,"Ġexplicit":10212,"Ġplanned":10213,"porary":10214,"ĠBefore":10215,"Ġopposite":10216,"ĠEngineer":10217,"ĠNothing":10218,"ĠNeXT":10219,"Ġglass":10220,"Ġpaying":10221,"ĠREADME":10222,"Ġ408":10223,"Ġclassified":10224,"Ġsupposedly":10225,"kingston":10226,"Ġhorrible":10227,"Also":10228,"Ġpreferred":10229,"define":10230,"default":10231,"ĠStudent":10232,"Ġangels":10233,"Ġdemonstrated":10234,"Ġorganizations":10235,"pinions":10236,"Ġcomparable":10237,"ĠTeam":10238,"/\\\\/\\\\/\\\\/\\\\/\\\\/\\\\/\\\\/\\\\/\\\\/\\\\/\\\\/\\\\/\\\\/\\\\/\\\\/\\\\":10239,"ĠDelaware":10240,"ĠGalile":10241,"ĠProtest":10242,"Ġapproximately":10243,"Ġheavily":10244,"ĠPsalms":10245,"Ġexercise":10246,"ĠFebruary":10247,"Ġantibiot":10248,"ĠNETCOM":10249,"Ġalleged":10250,"!<":10251,"![":10252,")@":10253,"-?":10254,"-[":10255,"030":10256,"6000":10257,";,":10258,"=<":10259,"?\\\\":10260,"BE":10261,"Cent":10262,"EASE":10263,"FS":10264,"KQ":10265,"KT":10266,"Men":10267,"Matt":10268,"MENT":10269,"QB":10270,"QE":10271,"QY":10272,"RH":10273,"VC":10274,"faces":10275,"hi":10276,"hus":10277,"iens":10278,"nndet":10279,"system":10280,"~\\":10281,"Ġ........":10282,"Ġtied":10283,"inson":10284,"retooth":10285,"edes":10286,"Ġbikes":10287,"Ġom":10288,"Ġpins":10289,"Ġdirt":10290,"ioned":10291,"ĠIC":10292,"ĠImp":10293,"Ġhal":10294,"Ġhung":10295,"Ġnic":10296,"ĠCIA":10297,"roads":10298,"ĠMAN":10299,"ĠFil":10300,"ilater":10301,"ĠBesides":10302,"ĠBeyer":10303,"ĠPacket":10304,"ĠPolicy":10305,"cha":10306,"heric":10307,"oda":10308,"abi":10309,"nSerdar":10310,"Ġraster":10311,"Ġdogs":10312,"Ġpros":10313,"Ġcomics":10314,"ĠEL":10315,"\\\\,":10316,"Ġkit":10317,"Ġseats":10318,"Ġexhaust":10319,"Ġvac":10320,"ĠJackson":10321,"nML":10322,"nMZ":10323,"nset":10324,"plan":10325,"ncons":10326,"ĠVAN":10327,"nwh":10328,"Ġadopt":10329,"Ġjustification":10330,"ĠXFree":10331,"127":10332,"1200":10333,"OSY":10334,"508":10335,"ighter":10336,"uky":10337,"oyal":10338,"Ġsecre":10339,"Ġxdm":10340,"Ġindex":10341,"nnews":10342,"Ġstring":10343,"ĠGrant":10344,"AMES":10345,"Ġfirearms":10346,"colm":10347,"Ġdiscussing":10348,"ĠConner":10349,"ĠIIci":10350,"tius":10351,"ĠCommand":10352,"nprov":10353,"Ġsymb":10354,"ĠEdmonton":10355,"Ġ??\\":10356,"Ġengineering":10357,"zeus":10358,"Ġjobs":10359,"Ġpreviously":10360,"------------------------------------------------------------------------\\":10361,"Ġreturned":10362,"Ġcitizen":10363,"Ġselected":10364,"Ġstupidity":10365,"calpoly":10366,"maths":10367,"Ġdivine":10368,"Ġlucky":10369,"nmany":10370,"################################":10371,"ĠHallam":10372,"ĠLEDs":10373,"Ġcharged":10374,"ĠReligion":10375,"ĠRichardson":10376,"ĠInstead":10377,"ĠPropulsion":10378,"Ġannouncement":10379,"Ġbeautiful":10380,"navailable":10381,"orporated":10382,"Ġinhabit":10383,"adelphia":10384,"ĠNuntius":10385,"!^":10386,"+]":10387,"310":10388,"700":10389,":)":10390,">|>\\":10391,"AJ":10392,"FP":10393,"FV":10394,"IW":10395,"JM":10396,"Mr":10397,"Note":10398,"TL":10399,"[...]\\":10400,"^!":10401,"^/":10402,"aa":10403,"both":10404,"bsu":10405,"date":10406,"gt":10407,"hq":10408,"kay":10409,"lah":10410,"mch":10411,"pace":10412,"pret":10413,"uer":10414,"Ġaid":10415,"atz":10416,"Ġwounds":10417,"Ġcam":10418,"Ġcables":10419,"Ġbinary":10420,"Ġmath":10421,"Ġmental":10422,"lehigh":10423,"Ġdavid":10424,"stone":10425,"\\':":10426,"==*":10427,"Ġgif":10428,"ĠSW":10429,"ĠSpeed":10430,"ĠTavares":10431,"ĠCB":10432,"ĠCore":10433,"ĠCrypt":10434,"___/":10435,"Ġegg":10436,"roller":10437,"ĠMach":10438,"ĠMason":10439,"ammed":10440,"ĠFra":10441,"ĠBay":10442,"ĠDMA":10443,"ĠDuo":10444,"andon":10445,"ĠGS":10446,"ĠGiven":10447,"ateful":10448,"ĠLine":10449,"ĠEC":10450,"Ġjoe":10451,"Ġalarm":10452,"nsince":10453,"Ġunus":10454,"aky":10455,"ĠKa":10456,"nAnother":10457,"berlin":10458,"Ġadults":10459,"nmark":10460,"Ġ/|":10461,"Ġperpet":10462,"Ġworkers":10463,"portion":10464,"issue":10465,"nBob":10466,"141":10467,"Ġdesktop":10468,"Ġflo":10469,"Ġcrash":10470,"Ġacknow":10471,"Ġharder":10472,"604":10473,"Ġtermin":10474,"Ġreasonably":10475,"Ġstanding":10476,"Ġlistening":10477,"umanitoba":10478,"prov":10479,"ĠCornell":10480,"Ġemphas":10481,"ACK":10482,"Ġkeeps":10483,"Ġframes":10484,"Ġentertain":10485,"Ġplane":10486,"nthrough":10487,"Andy":10488,"nusing":10489,"Ġdemo":10490,"Ġspeeds":10491,"Ġoccasion":10492,"Ġliberal":10493,"Ġopened":10494,"Ġopening":10495,"ĠServer":10496,"Ġportion":10497,"Ġpractical":10498,"irtual":10499,"nesday":10500,"Ġattacked":10501,"Ġassumed":10502,"Ġannoy":10503,"Ġfilm":10504,"ĠLaboratories":10505,"Ġemployees":10506,"Ġuniversity":10507,"Ġobtained":10508,"Edward":10509,"ĠBruce":10510,"Ġresistance":10511,"Jonathan":10512,"Ġhundreds":10513,"Ġcombination":10514,"ochrome":10515,"Ġdigit":10516,"Ġtechnique":10517,"Ġrarely":10518,"Ġplatforms":10519,"Ġnegative":10520,"Ġignorant":10521,"Ġswitches":10522,"ĠAnalysis":10523,"strnlghtC":10524,"!/":10525,"\")\\":10526,"#<":10527,"#?":10528,"$\"":10529,"$&":10530,"$,":10531,"&&":10532,"(>":10533,"(?":10534,")*":10535,")<":10536,"+!":10537,"217":10538,"510":10539,"550":10540,">;":10541,"@\"":10542,"FW":10543,"GN":10544,"GQ":10545,"GW":10546,"Int":10547,"Jewish":10548,"Mar":10549,"Ohanus":10550,"Soft":10551,"VY":10552,"XC":10553,"^\\\\":10554,"bing":10555,"cps":10556,"eatures":10557,"feller":10558,"gap":10559,"lot":10560,"master":10561,"near":10562,"tit":10563,"wick":10564,"zone":10565,"Ġought":10566,"isation":10567,"aler":10568,"alex":10569,"Ġanger":10570,"stud":10571,"Ġhair":10572,"Ġholy":10573,"asure":10574,"Ġnut":10575,"acpub":10576,"ĠSL":10577,"ĠSO":10578,"ĠSud":10579,"ĠCT":10580,"ĠAve":10581,"roid":10582,"ido":10583,"Ġbeings":10584,"aded":10585,"ĠFair":10586,"ĠForm":10587,"ĠFrench":10588,"ntwo":10589,"ĠRussell":10590,"kefeller":10591,"ĠHend":10592,"izabeth":10593,"abhak":10594,"Ġdoors":10595,"ulse":10596,"Ġconstruct":10597,"ĠLang":10598,"003":10599,"ĠOL":10600,"ĠOort":10601,"ĠOilers":10602,"nMH":10603,"nMU":10604,"nMany":10605,"Ġleaves":10606,"ĠKn":10607,"geon":10608,"actually":10609,"1992":10610,"nAaron":10611,"Ġ1985":10612,"Ġ1982":10613,"class":10614,"Ġenh":10615,"npart":10616,"iality":10617,"Ġapple":10618,"orders":10619,"cium":10620,"onsense":10621,"Ġ82":10622,"Ġscott":10623,"Ġoffensive":10624,"nPh":10625,"encing":10626,"144":10627,"should":10628,"Ġconsult":10629,"Ġadds":10630,"urner":10631,"Ġdifferently":10632,"************************************************":10633,"ACO":10634,"Ġpassages":10635,"Ġpassword":10636,"ĠĠĠĠĠĠĠĠĠĠĠĠĠĠĠĠĠĠĠĠĠĠĠĠĠĠĠĠĠĠĠĠĠĠĠĠĠĠĠĠĠĠĠĠĠĠĠ":10637,"Ġheader":10638,"Ġimportance":10639,"ĠArabia":10640,"IONS":10641,"Ġsynd":10642,"----------------------------------------------------------------------------\\":10643,"frame":10644,"Ġlabel":10645,"ĠCentral":10646,"nanything":10647,"Ġturning":10648,"Ġidentify":10649,"Ġselection":10650,"ĠYOUR":10651,"Ġcondemned":10652,"Ġpieces":10653,"Ġdropped":10654,"Ġwidely":10655,"Ġphilosopher":10656,"Ġrejected":10657,"Ġstreng":10658,"Ġkidney":10659,"Ġpushed":10660,"uggestions":10661,"Ġfifth":10662,"Ġphenomenon":10663,"(*)(*)":10664,"okoitai":10665,"Ġinhabitants":10666,"/,":10667,"512":10668,":=":10669,"=;":10670,"=\\\\":10671,"Add":10672,"GC":10673,"GU":10674,"IZ":10675,"JPEG":10676,"KP":10677,"NE":10678,"NP":10679,"PATH":10680,"RM":10681,"SG":10682,"THE":10683,"TCP":10684,"VW":10685,"Win":10686,"]_":10687,"cas":10688,"could":10689,"dw":10690,"fit":10691,"kodak":10692,"morgan":10693,"maybe":10694,"nu":10695,"nov":10696,"papers":10697,"sport":10698,"zc":10699,"Ġ----------------":10700,"Ġtube":10701,"orp":10702,"orse":10703,"isis":10704,"itter":10705,"Ġbucks":10706,"Ġfav":10707,"Ġflex":10708,"Ġfulf":10709,"Ġdan":10710,"Ġdump":10711,"stsci":10712,"Ġinches":10713,"Ġgt":10714,"Ġgopher":10715,"Ġlan":10716,"ĠToo":10717,"ĠCable":10718,"amdahl":10719,"unte":10720,"ĠFeds":10721,"ilink":10722,"kep":10723,"ĠWave":10724,"ĠWere":10725,"Ġasks":10726,"Ġrain":10727,"ĠGreg":10728,"ĠNM":10729,">>(":10730,"ulowell":10731,"ĠLu":10732,"Ġprobe":10733,"Ġkne":10734,"ticip":10735,"Ġvan":10736,"ĠJupiter":10737,"orts":10738,"nMC":10739,"oca":10740,"Ġchallenge":10741,"Ġmyster":10742,"nswer":10743,"Ġspring":10744,"ccu":10745,"Ġdischarge":10746,"nAn":10747,"Ġads":10748,"Ġadequ":10749,"ĠSte":10750,"neither":10751,"npower":10752,"Ġapparent":10753,"Ġ67":10754,"Ġ680":10755,"cience":10756,"ugene":10757,"Ġinteractive":10758,"Ġintercourse":10759,"ĠXT":10760,"207":10761,"wego":10762,"Ġdesert":10763,"ĠQur":10764,"Ġrecon":10765,"ANCE":10766,"Ġcrap":10767,"Ġcritical":10768,"ĠHoward":10769,"ĠDeath":10770,"ARN":10771,"223":10772,"everal":10773,"Ġbases":10774,"nJames":10775,"nJeff":10776,"Ġcorrection":10777,"Ġintelligent":10778,"908":10779,"prove":10780,"iveness":10781,"REE":10782,"Ġcomputing":10783,"njit":10784,"ĠTruth":10785,"ĠAnybody":10786,"ĠDavidian":10787,"oeing":10788,"Ġdeveloping":10789,"Ġsells":10790,"ĠAnat":10791,"oids":10792,"ĠEditor":10793,"Ġofficer":10794,"religion":10795,"ĠCompu":10796,"Ġattempting":10797,"without":10798,"Ġcultural":10799,"Ġignored":10800,"Ġweekend":10801,"Ġfourth":10802,"dsinc":10803,"Ġapolog":10804,"ĠSuppose":10805,"Ġidiot":10806,"atheism":10807,"Ġimplemented":10808,"castle":10809,"Ġsilver":10810,"ĠGuide":10811,"ĠHamilton":10812,"install":10813,"~~~~~~~~~~~~~~~~~~~~~~~~~~~~~~~~~~~~~~~~~~~~~~~~~~~~~~~~~~~~~~~~":10814,"Ġcollision":10815,"ĠWHAT":10816,"tlanta":10817,"Ġeducational":10818,"Ġbugs":10819,"ĠIraqi":10820,"Ġvariable":10821,"Ġharmful":10822,"ĠDevils":10823,"Ġbandwidth":10824,"ndoesn":10825,"ĠObviously":10826,"Ġmaximum":10827,"Ġachieve":10828,"temple":10829,"Ġhorizontal":10830,"ĠBuild":10831,"Ġumpire":10832,"ĠMurray":10833,"Ġirrelevant":10834,"ĠWANTED":10835,"!_":10836,"$+":10837,"%\\'":10838,"*&":10839,"360":10840,":]":10841,"<#":10842,">?":10843,">--\\":10844,"@?":10845,"AZ":10846,"Adam":10847,"BF":10848,"BQ":10849,"Jerry":10850,"TX":10851,"URE":10852,"[(*":10853,"]\\\\":10854,"^<":10855,"bout":10856,"bison":10857,"cut":10858,"friend":10859,"gory":10860,"iat":10861,"iology":10862,"jw":10863,"mat":10864,"must":10865,"sv":10866,"say":10867,"second":10868,"text":10869,"Ġou":10870,"Ġ##":10871,"Ġtong":10872,"Ġtree":10873,"erk":10874,"Ġsand":10875,"Ġsight":10876,"itled":10877,"Ġcer":10878,"Ġcampaign":10879,"Ġcpu":10880,"Ġbin":10881,"----;":10882,"Ġdave":10883,"icious":10884,"still":10885,"ĠIg":10886,"Ġgirls":10887,"ĠSport":10888,"ĠType":10889,"enth":10890,"ĠCre":10891,"ĠCivil":10892,"adv":10893,"ĠMHz":10894,"ĠMbytes":10895,"aming":10896,"Ġfort":10897,"ĠBad":10898,"ĠBak":10899,"ĠBaltimore":10900,"ĠRam":10901,"ĠPacific":10902,"olas":10903,"olics":10904,"Ġstood":10905,"Ġstones":10906,"aga":10907,"ĠHo":10908,"ĠHospital":10909,"else":10910,"ĠGardner":10911,"ĠName":10912,"ĠNext":10913,"nInter":10914,"ĠUser":10915,"ĠLem":10916,"ĠLight":10917,"ĠLove":10918,"apes":10919,"antic":10920,"Ġworried":10921,"ĠKim":10922,"plain":10923,"ĠVESA":10924,"Ġouts":10925,"ccup":10926,"9304":10927,"192":10928,"Ġquarter":10929,"Ġaggress":10930,"Ġ73":10931,"Ġ750":10932,"201":10933,"Ġ96":10934,"nBe":10935,"ninst":10936,"ONG":10937,"Ġconservative":10938,"Ġguilt":10939,"Ġremaining":10940,"ftp":10941,"ĠAlbert":10942,"Ġavail":10943,"scill":10944,"Ġsurve":10945,"Ġideal":10946,"Ġincidents":10947,"Ġears":10948,"atching":10949,"Ġinsult":10950,"Ġconfir":10951,"arlie":10952,"Ġretur":10953,"hips":10954,"umbus":10955,"although":10956,"Ġopposing":10957,"Ġelected":10958,"Ġelectronics":10959,"Ġdepartment":10960,"Ġsubjective":10961,"Ġmarked":10962,"Ġbreaking":10963,"IRS":10964,"ĠREP":10965,"ĠSomeone":10966,"Ġsolder":10967,"Ġcommonly":10968,"ĠNetcom":10969,"nsee":10970,"ĠPRO":10971,"itching":10972,"Ġpublis":10973,"gorithm":10974,"Ġtraded":10975,"nAnyway":10976,"--------------------------------------------------------":10977,"ĠKingston":10978,"ructure":10979,"ĠSPARC":10980,"nelse":10981,"Ġimmediate":10982,"OULD":10983,"Ġterrorists":10984,"naround":10985,"!!!!!!!!!!!!!!!!":10986,"Ġcomparison":10987,"Ġelement":10988,"nemail":10989,"ĠQuebec":10990,"pyramid":10991,"_\\'_\\'_\\'_\\'":10992,"Ġinstrument":10993,"ĠSerbian":10994,"ĠDefense":10995,"%^%^%^%^%^%^%^%^":10996,"Ġdistinction":10997,"ĠPasadena":10998,"Ġhallam":10999,"ĠMountain":11000,"ĠSecretary":11001,"Ġpissed":11002,"Ġpattern":11003,"Ġnuclear":11004,"Berkeley":11005,"rifice":11006,"ĠRoberts":11007,"!;":11008,"!=":11009,"#.":11010,"%&":11011,"*?":11012,"-%":11013,"-(":11014,"-/":11015,"=[":11016,">...":11017,"@[":11018,"@\\\\":11019,"Are":11020,"CLA":11021,"DG":11022,"DJ":11023,"JO":11024,"NOW":11025,"PZ":11026,"QS":11027,"Se":11028,"Ser":11029,"TD":11030,"TF":11031,"VX":11032,"YA":11033,"^,":11034,"city":11035,"cms":11036,"ded":11037,"eis":11038,"gener":11039,"jc":11040,"len":11041,"lines":11042,"lman":11043,"love":11044,"mic":11045,"nak":11046,"nenc":11047,"oia":11048,"pop":11049,"ted":11050,"tut":11051,"wesleyan":11052,"Ġ--------":11053,"Ġtaste":11054,"inol":11055,"inters":11056,"inja":11057,"Ġtheists":11058,"Ġwins":11059,"Ġsandvik":11060,"oub":11061,"Ġpair":11062,"Ġmic":11063,"Ġmob":11064,"armed":11065,"\\'?":11066,"Ġinet":11067,"Ġrely":11068,"__/":11069,"ĠAP":11070,"ĠAir":11071,"igs":11072,"sex":11073,"ĠFIR":11074,"nthings":11075,"ĠBL":11076,"ĠBre":11077,"ĠBor":11078,"ĠBed":11079,"ĠRick":11080,"ĠRock":11081,"ceived":11082,"charg":11083,"ĠDor":11084,"ĠDom":11085,"ĠWACO":11086,"ĠHz":11087,"illing":11088,"ĠGa":11089,"ĠGib":11090,"ĠGerard":11091,"umass":11092,"ĠUnless":11093,"Ġbyte":11094,"nMac":11095,"Ġ<<":11096,"nian":11097,"nsub":11098,"ellar":11099,"iper":11100,"nDid":11101,"nwrites":11102,"ĠStation":11103,"clutch":11104,"nput":11105,"awn":11106,"Ġprejud":11107,"Ġ83":11108,"Ġperman":11109,"122":11110,"often":11111,"Ġbelieving":11112,"nfl":11113,"nfind":11114,"aida":11115,"ometry":11116,"ninc":11117,"nHope":11118,"Ġobs":11119,"131":11120,"Ġpointing":11121,"Ġremark":11122,"nreal":11123,"aze":11124,"241":11125,"232":11126,"nJon":11127,"Ġcorpor":11128,"Ġhandling":11129,"afe":11130,"ĠThursday":11131,"Ġintention":11132,"ICO":11133,"incol":11134,"incoll":11135,"Ġempty":11136,"Ġtrip":11137,"Ġlocated":11138,"ĠOrthodox":11139,"Ġswap":11140,"ECH":11141,"mmm":11142,"illean":11143,"nthought":11144,"ĠPlan":11145,"ĠCalgary":11146,"ĠPrint":11147,"ĠGeico":11148,"urphy":11149,"Ġmotor":11150,"Ġbroke":11151,"Ġmissions":11152,"Ġissued":11153,"Ġchoices":11154,"ooper":11155,"ĠMathematics":11156,"Ġmetal":11157,"EMP":11158,"contrib":11159,"Ġturbo":11160,"ylvan":11161,"Ġconverter":11162,"believe":11163,"Ġracism":11164,"beckman":11165,"ĠGenocide":11166,"ĠInfante":11167,"Ġgraphic":11168,"Ġexperiment":11169,"adelaide":11170,"Ġforgotten":11171,"Ġignorance":11172,"ĠNichols":11173,"Ġunlikely":11174,"Ġguarantee":11175,"Ġinferior":11176,"Ġreduced":11177,"holm":11178,"ĠSupreme":11179,"ĠLiefeld":11180,"itzerland":11181,"!,":11182,")(":11183,"-|":11184,".&":11185,"/(":11186,":#":11187,":[":11188,"<_":11189,"=%":11190,"=(":11191,"=,":11192,"HR":11193,"KC":11194,"KM":11195,"NH":11196,"Of":11197,"RX":11198,"Sim":11199,"UW":11200,"WC":11201,"WPI":11202,"ZJ":11203,"](":11204,"bh":11205,"cern":11206,"dal":11207,"gas":11208,"gement":11209,"hir":11210,"ivery":11211,"mate":11212,"mik":11213,"mips":11214,"nant":11215,"nhere":11216,"rm":11217,"tz":11218,"tech":11219,"tIn":11220,"uug":11221,"vestig":11222,"wv":11223,"wing":11224,"Ġ>>>":11225,"Ġwu":11226,"Ġcry":11227,"Ġcities":11228,"Ġcares":11229,"Ġbacter":11230,"arke":11231,"arren":11232,"Ġdynam":11233,"stu":11234,"states":11235,"Ġhay":11236,"Ġinsp":11237,"otis":11238,"otry":11239,"Ġgirl":11240,"Ġlosing":11241,"ĠSS":11242,"ĠCount":11243,"ĠAIX":11244,"Ġemer":11245,"ader":11246,"ĠMOT":11247,"ĠMessage":11248,"igher":11249,"ĠFort":11250,"ĠFlight":11251,"ĠFelix":11252,"ĠPMS":11253,"olin":11254,"ĠDos":11255,"ĠWil":11256,"rior":11257,"Ġstolen":11258,"ĠHome":11259,"comput":11260,"nScott":11261,"ĠGill":11262,"ulman":11263,"ulator":11264,"ĠLake":11265,"ĠLIST":11266,"apollo":11267,"ĠEner":11268,"\\\\_":11269,"antum":11270,"ustel":11271,"resident":11272,"ĠJO":11273,"Ġsuit":11274,"ĠKir":11275,"nNet":11276,"ĠVery":11277,"Ġ09":11278,"190":11279,"Ġcompat":11280,"nAmerican":11281,"Ġclone":11282,"Ġgrowing":11283,"nmight":11284,"Ġ71":11285,"Ġscre":11286,"nlook":11287,"Ġrelative":11288,"nBl":11289,"ninf":11290,"145":11291,"Ġdefic":11292,"ITE":11293,"Ġstartup":11294,"ikh":11295,"801":11296,"Ġinfinite":11297,"Ġslot":11298,"ĠSpan":11299,"Ġextensive":11300,"probably":11301,"ĠResource":11302,"Ġpassenger":11303,"Ġvaluable":11304,"ĠMSG":11305,"Ġviewers":11306,"tIt":11307,"!!!!\\":11308,"asking":11309,"Ġdemocr":11310,"nexp":11311,"Ġdisplayed":11312,"Ġmassive":11313,"olec":11314,"IPS":11315,"Ġincreases":11316,"Ġregarded":11317,"Ġmainly":11318,"Ġcomplain":11319,"Ġcomplicated":11320,"Ġmarried":11321,"ĠSaturn":11322,"Ġinnings":11323,"ĠHarvard":11324,"Ġstrikes":11325,"Ġphotograph":11326,"ĠFriday":11327,"Ġ_____/":11328,"hibition":11329,"EVER":11330,"ĠLibert":11331,"sequent":11332,"Ġwalls":11333,"Ġcatalog":11334,"shell":11335,"Ġawful":11336,"ĠKrillean":11337,"ĠZionism":11338,"Ġupdate":11339,"Ġscrewed":11340,"Ġconcerns":11341,"Ġassistance":11342,"Ġteacher":11343,"Princeton":11344,"Ġrevealed":11345,"Ġratio":11346,"ĠCollins":11347,"ĠNovember":11348,"Ġemotional":11349,"nRegards":11350,"nquestion":11351,"Ġparameters":11352,"nrespons":11353,"Ġarbitrary":11354,"[(*]":11355,"incoln":11356,"!]":11357,"&+":11358,"*%":11359,"*(":11360,"*/":11361,"-;":11362,":(":11363,":+":11364,";&":11365,"=#":11366,"=+":11367,"@)":11368,"@+":11369,"Ing":11370,"Link":11371,"Mot":11372,"Mag":11373,"MAN":11374,"SM":11375,"Sat":11376,"Smith":11377,"VL":11378,"WB":11379,"[<":11380,"^\"":11381,"^?":11382,"cact":11383,"di":11384,"fast":11385,"game":11386,"lbl":11387,"louis":11388,"local":11389,"mother":11390,"pipe":11391,"rto":11392,"tb":11393,"tv":11394,"uio":11395,"Ġq":11396,"Ġic":11397,"Ġug":11398,"Ġtone":11399,"Ġtiny":11400,"henson":11401,"--+":11402,"ref":11403,"Ġtheories":11404,"athy":11405,"Ġwestern":11406,"oral":11407,"Ġcage":11408,"Ġcyl":11409,"Ġcrazy":11410,"Ġpuck":11411,"Ġpump":11412,"Ġtower":11413,"leading":11414,"Ġdaughter":11415,"stance":11416,"Ġhab":11417,"asm":11418,"llo":11419,"otics":11420,"acher":11421,"ĠSometimes":11422,"ĠTodd":11423,"user":11424,"Ġrect":11425,"ĠCauc":11426,"Ġbele":11427,"ĠMut":11428,"ĠFri":11429,"ĠBib":11430,"ĠRider":11431,"ĠPass":11432,"ĠDouble":11433,"ĠWanted":11434,"emale":11435,"abled":11436,"ĠNRA":11437,"_____":11438,"Ġconclude":11439,"ĠLow":11440,"ĠLuke":11441,"ĠLuther":11442,"nOK":11443,"ĠOw":11444,"ĠRelease":11445,"ieux":11446,"Ġsuc":11447,"Ġdept":11448,"Ġalter":11449,"Ġchapter":11450,"nsay":11451,"nsoftware":11452,"ĠKore":11453,"ogus":11454,"ucalgary":11455,"nwant":11456,"ĠStein":11457,"Ġagenda":11458,"Ġmanagement":11459,"npol":11460,"nplease":11461,"Ġ>|>":11462,"msdos":11463,"awrence":11464,"Ġcontem":11465,"Ġgrant":11466,"obody":11467,"Ġinterference":11468,"nmed":11469,"Ġpermission":11470,"116":11471,"Ġmaynard":11472,"Ġsupplies":11473,"Ġ98":11474,"hane":11475,"ĠHey":11476,"ysu":11477,"Ġblah":11478,"nFrank":11479,"Ġconspiracy":11480,"137":11481,"174":11482,"Ġfinds":11483,"Ġattend":11484,"meni":11485,"ĠAlan":11486,"Ġsimultane":11487,"atted":11488,"Ġinfant":11489,"Ġinfants":11490,"ĠClayton":11491,"boost":11492,"Ġputs":11493,"ormap":11494,"Ġintend":11495,"ĠResources":11496,"Ġended":11497,"Ġconfirm":11498,"Ġfrust":11499,"ELY":11500,"riving":11501,"________________________________________________":11502,"707":11503,"Ġeffectively":11504,"ĠMaynard":11505,"nstill":11506,"hematica":11507,"ĠSTL":11508,"ospitals":11509,"Ġdistingu":11510,"uwaterloo":11511,"nchron":11512,"Ġinvolves":11513,"uropean":11514,"ĠCarolina":11515,"nhelp":11516,"MAIL":11517,"ĠImake":11518,"ĠWinfield":11519,"Ġguyd":11520,"Ġtwenty":11521,"Ġlegally":11522,"nanother":11523,"Ġunique":11524,"ĠONLY":11525,"loadimage":11526,"anetary":11527,"Ġcollection":11528,"Ġhomes":11529,"ĠSamuel":11530,"mcgill":11531,"Ġvirtually":11532,"ĠAnti":11533,"hardware":11534,"Ġknocked":11535,"Ġphysician":11536,"Ġprofessional":11537,"Ġorientation":11538,"watson":11539,"ĠQuickTime":11540,"Ġvirus":11541,"ĠHayes":11542,"Ġstrictly":11543,"Ġconvenient":11544,"Ġresearchers":11545,"tronix":11546,"Ġcriteria":11547,"mchp":11548,"cactus":11549,")]":11550,"*!":11551,".+":11552,"010":11553,"193":11554,"737":11555,":$":11556,"<$":11557,">+":11558,"American":11559,"EJ":11560,"FX":11561,"IJ":11562,"Or":11563,"PAK":11564,"WX":11565,"XN":11566,"XQ":11567,"YK":11568,"YW":11569,"^&":11570,"^(":11571,"aire":11572,"fax":11573,"gv":11574,"gle":11575,"gent":11576,"hr":11577,"kj":11578,"lon":11579,"mus":11580,"mem":11581,"mathew":11582,"nmsu":11583,"pers":11584,"public":11585,"sps":11586,"tg":11587,"talk":11588,"why":11589,"york":11590,"zo":11591,"Ġtail":11592,"informatik":11593,"onica":11594,"research":11595,"Ġwalks":11596,"Ġsaving":11597,"ouds":11598,"ede":11599,"Ġfro":11600,"alter":11601,"Ġmathew":11602,"lean":11603,"leads":11604,"Ġdraft":11605,"step":11606,"ashing":11607,"Ġnose":11608,"etary":11609,"Ġles":11610,"ĠSF":11611,"ĠSir":11612,"ĠSum":11613,"Ġreduction":11614,"ĠCec":11615,"ĠAst":11616,"ĠAHL":11617,"ĠMid":11618,"ĠMain":11619,"ĠMON":11620,"ĠMonday":11621,"Ġitem":11622,"ĠFound":11623,"ntoo":11624,"ĠRun":11625,"ĠPy":11626,"ĠPenn":11627,"ĠPublis":11628,"ĠDur":11629,"ĠDare":11630,"ĠHope":11631,"ĠGhost":11632,"ĠGraham":11633,"eware":11634,"nInc":11635,"ĠOUT":11636,"ĠEve":11637,"\\\\?":11638,"ainwright":11639,"those":11640,"allow":11641,"alleng":11642,"nMI":11643,"nMatthew":11644,"Ġalot":11645,"ĠVL":11646,"Ġneut":11647,"ailed":11648,"Ġspare":11649,"Ġwhoever":11650,"ucla":11651,"Ġcompiled":11652,"ipes":11653,"Ġ1980":11654,"Ġclip":11655,"Ġenhan":11656,"Ġevol":11657,"Ġwhenever":11658,"Ġgravity":11659,"icking":11660,"ĠXm":11661,"Ġ81":11662,"hyl":11663,"ishi":11664,"nCon":11665,"205":11666,"nWhere":11667,"ixie":11668,"Ġsinners":11669,"148":11670,"Ġconscious":11671,"303":11672,"Ġpostscript":11673,"attered":11674,"Ġdece":11675,"auf":11676,"nKent":11677,"Ġcleansing":11678,"Ġtransform":11679,"OUS":11680,"Ġemissions":11681,"Ġconsideration":11682,"true":11683,"trincoll":11684,"Ġ1280":11685,"REAT":11686,"Ġswing":11687,"Ġprotest":11688,"upper":11689,"Ġcopyright":11690,"Ġwonderful":11691,"arras":11692,"uwec":11693,"nchildren":11694,"Ġglory":11695,"OLD":11696,"government":11697,"Ġlimits":11698,"Ġfigured":11699,"Ġperiods":11700,"Ġvolunte":11701,"Ġpromise":11702,"agedy":11703,"Ġutter":11704,"Ġmeaningless":11705,"Ġarchives":11706,"ĠMonitor":11707,"ĠDenning":11708,"control":11709,"ĠMarketing":11710,"ĠTHIS":11711,"alleg":11712,"Ġinnov":11713,"Ġaffected":11714,"sfu":11715,"Ġfloppies":11716,"ĠProgramming":11717,"Ġsurprising":11718,"Ġimplied":11719,"Ġregularly":11720,"ĠElizabeth":11721,"nknown":11722,"Ġcollabor":11723,"Ġterrorism":11724,"averford":11725,"Ġfilled":11726,"ourier":11727,"Ġpitching":11728,"Kenneth":11729,"Ġdialog":11730,"ĠHawks":11731,"Trans":11732,"ĠPenns":11733,"Ġintroduced":11734,"Ġcandid":11735,"Ġregistered":11736,"Ġcapture":11737,"Ġcomfortable":11738,"ĠSuite":11739,"technic":11740,"ministrator":11741,"ĠScientific":11742,"Ġdiscrimination":11743,"ĠKurds":11744,"ĠEducation":11745,"cnsvax":11746,"Ġpropaganda":11747,"ĠTektronix":11748,"ilateral":11749,"alexia":11750,"!?":11751,"\"#":11752,"\"%":11753,"#+":11754,")\\'":11755,"-!":11756,"-)":11757,"-,":11758,"._":11759,"/[":11760,"/_":11761,"::\\":11762,";<":11763,">]":11764,"Ankara":11765,"DIS":11766,"Draw":11767,"East":11768,"FN":11769,"GO":11770,"Inter":11771,"Jet":11772,"LZ":11773,"MK":11774,"MV":11775,"SJ":11776,"VB":11777,"VG":11778,"Wolverine":11779,"^;":11780,"bany":11781,"cos":11782,"cacs":11783,"either":11784,"lie":11785,"nect":11786,"rx":11787,"vy":11788,"western":11789,"xel":11790,"ym":11791,"zur":11792,"Ġ^^^^^^^^^^^^^^^^^^^^^^^^^^^^^^^^":11793,"Ġtub":11794,"Ġtour":11795,"Ġastronomy":11796,"Ġwires":11797,"Ġcf":11798,"Ġcos":11799,"Ġba":11800,"Ġbaud":11801,"Ġfish":11802,"Ġmsd":11803,"Ġmilit":11804,"Ġmjones":11805,"ĠIP":11806,"ĠIrg":11807,"\\')":11808,"Ġhp":11809,"Ġhits":11810,"Ġhabit":11811,"otally":11812,"Ġlaugh":11813,"ĠSend":11814,"ĠSilver":11815,"ĠSuther":11816,"ĠCL":11817,"ĠAuto":11818,"Ġeast":11819,"Ġbeep":11820,"Ġonline":11821,"ĠMitchell":11822,"igious":11823,"ĠFinally":11824,"nte":11825,"ĠBA":11826,"ĠBest":11827,"ĠRice":11828,"chbach":11829,"iform":11830,"ĠWelcome":11831,"istant":11832,"ĠHR":11833,"ĠHarry":11834,"nSecond":11835,"Ġraw":11836,"Ġrings":11837,"Ġrider":11838,"Ġ\"\\":11839,"ĠGary":11840,"ĠGUI":11841,"Ġheight":11842,"ĠNONE":11843,"Ġ240":11844,"Ġcongress":11845,"Ġproved":11846,"nLast":11847,"quid":11848,"ĠEinst":11849,"nMD":11850,"nMN":11851,"nMV":11852,"areware":11853,"nTur":11854,"ĠKings":11855,"ells":11856,"nco":11857,"Ġoutcome":11858,"ucsu":11859,"Ġ01":11860,"nDr":11861,"answer":11862,"ĠStephen":11863,"ĠChair":11864,"Ġgrounds":11865,"obs":11866,"oblin":11867,"hydro":11868,"Ġ76":11869,"nftp":11870,"Ġsupplement":11871,"nPower":11872,"shot":11873,"Ġrunner":11874,"Ġ#|>":11875,"Ġcrus":11876,"Ġcruc":11877,"older":11878,"ALS":11879,"ĠDead":11880,"nGu":11881,"azi":11882,"Ġgotta":11883,"183":11884,"Ġspecs":11885,"uthors":11886,"Ġ2400":11887,"nnumber":11888,"Ġpolitics":11889,"ĠColor":11890,"Ġdram":11891,"Ġextract":11892,"prop":11893,"EGA":11894,"OUT":11895,"ĠGrand":11896,"nopp":11897,"Ġpresc":11898,"ASS":11899,"Ġorigin":11900,"Ġsignals":11901,"ĠApparently":11902,"cramer":11903,"Andi":11904,"liver":11905,"#>#>":11906,"Ġmasses":11907,"949":11908,"Ġlogo":11909,"Ġnorth":11910,"Ġproperties":11911,"Ġfinished":11912,"ĠImag":11913,"Ġfamilies":11914,"natural":11915,"ĠSwitzerland":11916,"Ġaccounts":11917,"Ġrequested":11918,"Ġeczc":11919,"GRAM":11920,"Ġuunet":11921,"Ġmarketing":11922,"ĠSimple":11923,"ĠElectronic":11924,"nprot":11925,"Ġmaterials":11926,"Ġangle":11927,"ĠEastern":11928,"Ġessential":11929,"ĠALink":11930,"uzz":11931,"Ġvictim":11932,"Ġphilosophy":11933,"nenough":11934,"Ġokay":11935,"ĠLyme":11936,"Ġorganized":11937,"Ġprobes":11938,"Ġplatform":11939,"drives":11940,"ĠUnion":11941,"Ġsanct":11942,"izzou":11943,"ĠPolytechnic":11944,"Ġgrenades":11945,"ĠOctober":11946,"ĠYamaha":11947,"Ġsyndrome":11948,"ĠAnatol":11949,"ĠIrgun":11950,"Ġeczcaw":11951,"!:":11952,"#;":11953,"$!":11954,"$)":11955,",)":11956,"-=":11957,"/;":11958,"040":11959,"070":11960,"493":11961,"=]":11962,">)":11963,"Brad":11964,"Bruce":11965,"CUNY":11966,"Has":11967,"Hey":11968,"Jack":11969,"Josh":11970,"KR":11971,"QH":11972,"QN":11973,"TO":11974,"Ted":11975,"Type":11976,"UVM":11977,"YC":11978,"YT":11979,"Your":11980,"Zin":11981,"[+":11982,"[\\'":11983,"].\\":11984,"^]":11985,"bad":11986,"case":11987,"cause":11988,"cision":11989,"dra":11990,"fn":11991,"files":11992,"gsu":11993,"hl":11994,"hab":11995,"lX":11996,"lar":11997,"lation":11998,"made":11999,"nick":12000,"smith":12001,"taylor":12002,"xm":12003,"zek":12004,"onents":12005,"ered":12006,"isy":12007,"Ġcite":12008,"Ġcited":12009,"Ġcesare":12010,"Ġbible":12011,"Ġos":12012,"alid":12013,"arle":12014,"arians":12015,"araj":12016,"Ġanten":12017,"Ġdumb":12018,"ecd":12019,"Ġliked":12020,"ĠSex":12021,"ĠSOC":12022,"ĠTime":12023,"Ġye":12024,"ĠCost":12025,"ĠCru":12026,"veral":12027,"ĠAMA":12028,"Ġeh":12029,"Ġegreen":12030,"rox":12031,"iders":12032,"ĠMart":12033,"ĠMaster":12034,"ĠFar":12035,"ĠFire":12036,"ntry":12037,"ĠBIG":12038,"ĠBoeing":12039,"ĠPut":12040,"ĠPEX":12041,"riot":12042,"comfort":12043,"nSp":12044,"ĠNever":12045,"inese":12046,"htra":12047,"Ġprosec":12048,"nOR":12049,"arden":12050,"ĠEver":12051,"ĠEspecially":12052,"ĠReal":12053,"Ġjoke":12054,"nMR":12055,"ichols":12056,"Ġchrist":12057,"Ġchris":12058,"acked":12059,"Ġuniform":12060,"ĠKub":12061,"ĠKevin":12062,"oooo":12063,"Ġspelling":12064,"ogen":12065,"ucr":12066,"soever":12067,"nDoug":12068,"nAccording":12069,"nwhile":12070,"----------------------------------------":12071,"Ġtravel":12072,"anschbach":12073,"Ġ1914":12074,"Ġencl":12075,"npossible":12076,"manli":12077,"csi":12078,"Ġgranted":12079,"enses":12080,"nmean":12081,"Ġ/*":12082,"Ġ74":12083,"nRob":12084,"nCPU":12085,"204":12086,"athic":12087,"Ġscream":12088,"503":12089,"nPrice":12090,"nPerhaps":12091,"Ġ[...]\\":12092,"Ġreli":12093,"issan":12094,"nHave":12095,"Ġcarl":12096,"Ġdesk":12097,"before":12098,"ussian":12099,"Ġhelmet":12100,"Ġremoving":12101,"Ġfeels":12102,"ika":12103,"ikt":12104,"nGo":12105,"Ġ&\\":12106,"nref":12107,"nrelig":12108,"ĠProblem":12109,"nJesus":12110,"Ġspeculation":12111,"Ġdiscount":12112,"ĠSparc":12113,"ĠThought":12114,"spam":12115,"program":12116,"nYeah":12117,"Ġlawyer":12118,"Ġminimal":12119,"Ġboost":12120,"Ġtrials":12121,"ĠOracle":12122,"Ġesp":12123,"Ġsubmit":12124,"UCH":12125,"Ġentitled":12126,"Ġbooklet":12127,"ĠSCO":12128,"Ġpropri":12129,"Ġsigned":12130,"nthough":12131,"uxh":12132,"ĠAtari":12133,"Ġbusy":12134,"ĠSTAT":12135,"ircraft":12136,"Ġradiation":12137,"Ġsorts":12138,"Ġreceiving":12139,"Ġinstalling":12140,"Ġcircular":12141,"Ġcenturies":12142,"Ġmagnetic":12143,"Ġtraditions":12144,"desire":12145,"white":12146,"whatever":12147,"nanyone":12148,"aurus":12149,"geneva":12150,"Ġbringing":12151,"Ġinitially":12152,"ĠBDs":12153,"OBE":12154,"===========================================================================\\":12155,"Ġimproved":12156,"Ġefforts":12157,"opyright":12158,"Ġrecognized":12159,"ĠRemote":12160,"Ġpulled":12161,"----------------------------------------------------------------------\\":12162,"--------------------------------------------------------------\\":12163,"*******************************************************************************\\":12164,"Ġaccidental":12165,"ĠPhotography":12166,"ĠJefferson":12167,"Ġprocedures":12168,"ĠDunn":12169,"ĠJanuary":12170,"Ġcomponent":12171,"ĠPsalm":12172,"ubvmsb":12173,"ĠConsulting":12174,"ĠSpecial":12175,"Ġroughly":12176,"Phill":12177,"Ġstruggle":12178,"ĠAvailable":12179,"ĠHunter":12180,"Ġcomprehens":12181,"clarku":12182,"==*==*":12183,"Ġunusual":12184,"ylvania":12185,"louisville":12186,"Ġmsdos":12187,"ĠSutherland":12188,"%)":12189,",_":12190,".<":12191,".,\\":12192,".).":12193,"/#":12194,"/:":12195,"/<":12196,"/]":12197,"211":12198,"429":12199,":!":12200,"<[":12201,"=@":12202,"?),":12203,"FK":12204,"Gerald":12205,"Internet":12206,"Image":12207,"JE":12208,"Jay":12209,"KZ":12210,"LV":12211,"LX":12212,"MI":12213,"MX":12214,"Mad":12215,"TJ":12216,"WE":12217,"WR":12218,"^)":12219,"^*":12220,"^@":12221,"afer":12222,"fp":12223,"fonts":12224,"main":12225,"nide":12226,"nits":12227,"rr":12228,"rite":12229,"sb":12230,"sur":12231,"ssd":12232,"tK":12233,"tim":12234,"tri":12235,"vine":12236,"Ġ}\\":12237,"inner":12238,"atural":12239,"Ġsav":12240,"orst":12241,"itarian":12242,"ena":12243,"Ġcipher":12244,"Ġpir":12245,"Ġdensity":12246,"Ġduty":12247,"icity":12248,"ician":12249,"ickey":12250,"stream":12251,"ĠImm":12252,"\\'!":12253,"Ġhidden":12254,"Ġineff":12255,"Ġ()\\":12256,"ete":12257,"ecutive":12258,"Ġgld":12259,"Ġgift":12260,"Ġlapt":12261,"ĠSm":12262,"ĠTIME":12263,"entry":12264,"ĠCur":12265,"Ġeld":12266,"Ġbeating":12267,"admin":12268,"ĠMother":12269,"ĠMets":12270,"ampling":12271,"Ġ127":12272,"ntil":12273,"ntake":12274,"nthanks":12275,"romise":12276,"ĠBarry":12277,"ĠPS":12278,"ĠPDS":12279,"oler":12280,"olation":12281,"emies":12282,"odom":12283,"eland":12284,"eline":12285,"Ġrif":12286,"Ġorthodox":12287,"ĠNav":12288,"ĠNick":12289,"estroy":12290,"ĠLittle":12291,"ĠLarry":12292,"ĠLocal":12293,"Ġproclaim":12294,"Ġatoms":12295,"Ġabandon":12296,"onehole":12297,"Ġshad":12298,"ortheastern":12299,"Ġwriters":12300,"nMG":12301,"nMO":12302,"nMay":12303,"nsl":12304,"nsign":12305,"ĠKid":12306,"plus":12307,"ncdt":12308,"Ġcompiler":12309,"nDept":12310,"Ġquack":12311,"ĠStafford":12312,"Ġproud":12313,"npass":12314,"npublic":12315,"perate":12316,"theless":12317,"nmin":12318,"nmade":12319,"ĠXXX":12320,"nyear":12321,"nyears":12322,"126":12323,"ristol":12324,"Ġ97":12325,"tingly":12326,"nHey":12327,"nFree":12328,"Ġether":12329,"Ġflight":12330,"Ġflesh":12331,"177":12332,"oxy":12333,"ĠDean":12334,"ĠClin":12335,"nJPEG":12336,"tenance":12337,"Ġsurrender":12338,"ĠSpider":12339,"nnew":12340,"oken":12341,"okcforum":12342,"Ġgreatest":12343,"OUSE":12344,"ACT":12345,"ĠPCs":12346,"ĠMyrto":12347,"ĠPhD":12348,"ĠBrand":12349,"ancing":12350,"ĠLeg":12351,"argest":12352,"OPEN":12353,"Ġoppress":12354,"nprobably":12355,"Ġoccas":12356,"lined":12357,"Ġoperational":12358,"Ġglobal":12359,"URN":12360,"Ġcontinuing":12361,"nconf":12362,"MAINE":12363,"Ġnearby":12364,"Ġfalls":12365,"Ġ**\\":12366,"Ġviolated":12367,"Ġverify":12368,"Ġdescribing":12369,"Ġapost":12370,"Ġapartment":12371,"Ġclosely":12372,"Ġpeaceful":12373,"ozonehole":12374,"nAnyone":12375,"Ġcivilian":12376,"Ġmembership":12377,"Comm":12378,"Ġscientist":12379,"Ġunivers":12380,"Ġrecorded":12381,"ophical":12382,"Ġpenalties":12383,"Ġbegins":12384,"Ġroute":12385,"oomer":12386,"ĠAcademic":12387,"ĠMailing":12388,"Ġcreates":12389,"views":12390,"ĠKeith":12391,"ĠAddress":12392,"Ġparticipate":12393,"Macintosh":12394,"patitis":12395,"Ġmillions":12396,"nevidence":12397,"Ġsemi":12398,"Ġconstantly":12399,"Ġterritory":12400,"Ġdistinct":12401,"Ġliberty":12402,"Ġlegislation":12403,"Ġtossed":12404,"Ġcapacity":12405,"Ġscheduled":12406,"ĠInvestors":12407,"lahoma":12408,"Ġenhance":12409,"ccupied":12410,"Ingres":12411,"Ġbeleive":12412,"ĠPennsylvania":12413,"Ġdramatic":12414,"Zinaida":12415,"!+":12416,"\"$":12417,"\"(":12418,"#>\\":12419,"&(":12420,"&)":12421,"+[":12422,"/!":12423,"919":12424,":.":12425,"=.":12426,"BX":12427,"FH":12428,"First":12429,"HC":12430,"Isa":12431,"JK":12432,"JP":12433,"LD":12434,"LS":12435,"NM":12436,"PO":12437,"QZ":12438,"TB":12439,"UG":12440,"UZ":12441,"Who":12442,"XY":12443,"YP":12444,"_\"":12445,"_[":12446,"_]":12447,"bra":12448,"card":12449,"crypt":12450,"dem":12451,"fan":12452,"kl":12453,"lpl":12454,"latech":12455,"may":12456,"might":12457,"machine":12458,"nher":12459,"nest":12460,"sus":12461,"save":12462,"tan":12463,"two":12464,"zal":12465,"zech":12466,"Ġtag":12467,"Ġtire":12468,"iners":12469,"Ġsou":12470,"Ġsoft":12471,"Ġsigns":12472,"Ġsocket":12473,"orient":12474,"oucher":12475,"Ġcro":12476,"Ġcobb":12477,"Ġbow":12478,"Ġbone":12479,"Ġpil":12480,"Ġpillion":12481,"Ġpseud":12482,"arious":12483,"Ġhol":12484,"Ġinqu":12485,"ashes":12486,"Ġnasty":12487,"Ġnarrow":12488,"Ġloving":12489,"Ġreactions":12490,"Ġyeah":12491,"ĠAud":12492,"ĠAuthor":12493,"Ġelev":12494,"Ġforg":12495,"sei":12496,"ĠFact":12497,"ĠFPU":12498,"nthing":12499,"ilk":12500,"ĠBooks":12501,"ĠRos":12502,"ĠRog":12503,"ĠRES":12504,"ĠPs":12505,"cean":12506,"ĠDam":12507,"ĠDraw":12508,"eme":12509,"email":12510,"istance":12511,"illa":12512,"ophil":12513,"ĠNear":12514,"Ġ210":12515,"osip":12516,"ĠOxford":12517,"Ġvotes":12518,"nMan":12519,"Ġalcohol":12520,"Ġchances":12521,"nTry":12522,"nsec":12523,"aki":12524,"ĠVFR":12525,"inki":12526,"iret":12527,"practic":12528,"Ġdisaster":12529,"Ġtrave":12530,"eoples":12531,"Ġ1978":12532,"ĠItaly":12533,"oval":12534,"aws":12535,"NTON":12536,"Ġpreced":12537,"Ġpermit":12538,"nWho":12539,"nfact":12540,"portant":12541,"Ġacting":12542,"Ġ950":12543,"ĠĠĠĠĠĠĠĠĠĠĠĠĠĠĠĠĠĠĠĠĠĠĠĠĠĠĠĠĠĠĠĠĠĠĠĠĠĠĠĠĠĠĠĠĠĠĠĠĠĠĠ":12544,"ĠĠĠĠĠĠĠĠĠĠĠĠĠĠĠĠĠĠĠĠĠĠĠĠĠĠĠĠĠĠĠĠĠĠĠĠĠĠĠĠĠĠĠĠĠĠĠĠĠĠ":12545,"Ġcarbon":12546,"ATT":12547,"Ġdefines":12548,"Ġdefending":12549,"ĠQU":12550,"Ġhela":12551,"pected":12552,"ĠDeir":12553,"nGraphics":12554,"ĠProbe":12555,"Ġ=+=":12556,"Ġcoinc":12557,"Ġcolours":12558,"ĠIncorporated":12559,"289":12560,"Ġdrink":12561,"Ġextensions":12562,"ĠMacs":12563,"nesses":12564,"Ġhighway":12565,"noon":12566,"ĠOrbit":12567,"Ġmorally":12568,"ISH":12569,"Ġsolvent":12570,"ĠPLEASE":12571,"ausible":12572,"!!!!!\\":12573,"warded":12574,"arga":12575,"ĠBea":12576,"oppy":12577,"hematical":12578,"Ġediting":12579,"Ġopposition":12580,"Maybe":12581,"Ġvector":12582,"Ġnights":12583,"Ġportable":12584,"cyon":12585,"Ġcapabilities":12586,"ĠCDC":12587,"Ġviolation":12588,"Ġvertical":12589,"Ġskate":12590,"Ġattacking":12591,"ĠMinister":12592,"Ġannounced":12593,"Ġcalcium":12594,"ESTER":12595,"nagain":12596,"Israel":12597,"Ġimaging":12598,"ĠSaturday":12599,"ĠCamaro":12600,"Ġmeasures":12601,"Ġiniti":12602,"enedikt":12603,"Ġidentical":12604,"ĠSabo":12605,"Ġpainful":12606,"Force":12607,"Ġmirrors":12608,"ĠAzerbaijani":12609,"bellcore":12610,"Ġbullets":12611,"alentine":12612,"ĠEveryone":12613,"ĠLCIII":12614,"ĠMetzger":12615,"ĠMagazine":12616,"Ġwishes":12617,"Ġupdated":12618,"ĠActs":12619,"ĠUlf":12620,"ĠUltra":12621,"nattempt":12622,"Ġterritories":12623,"pletely":12624,"rockefeller":12625,"Ġsalvation":12626,"ĠLimited":12627,"Ġcontrolled":12628,"ĠArtificial":12629,"Ġtactics":12630,"ĠSIGGRAPH":12631,"ĠDriver":12632,"Ġmileage":12633,"Ġrapid":12634,"ĠNyx":12635,"ĠKarabakh":12636,"ĠFIRST":12637,"ĠSpanish":12638,"#(":12639,"$;":12640,"+*":12641,",\\\\":12642,"216":12643,"=!":12644,"?.":12645,"?>\\":12646,"Apple":12647,"Brent":12648,"Det":12649,"FY":12650,"KL":12651,"PF":12652,"Rick":12653,"Sub":12654,"TN":12655,"bel":12656,"bons":12657,"belt":12658,"eecs":12659,"hou":12660,"mks":12661,"mund":12662,"pread":12663,"rants":12664,"soc":12665,"uits":12666,"vd":12667,"wf":12668,"Ġing":12669,"Ġll":12670,"Ġtalent":12671,"onic":12672,"erals":12673,"atism":12674,"isa":12675,"isi":12676,"Ġce":12677,"Ġcook":12678,"Ġcraft":12679,"Ġcassette":12680,"Ġble":12681,"Ġbare":12682,"Ġmph":12683,"aram":12684,"Ġinject":12685,"Ġinning":12686,"Ġ(*":12687,"oto":12688,"Ġgall":12689,"acies":12690,"ĠText":12691,"ĠTaylor":12692,"vere":12693,"__|":12694,"adi":12695,"imens":12696,"ĠMand":12697,"ĠMove":12698,"ĠMember":12699,"amber":12700,"ĠRod":12701,"ĠPe":12702,"ĠPot":12703,"ĠDig":12704,"ĠDays":12705,"ĠWing":12706,"ĠWOR":12707,"emens":12708,"emember":12709,"Ġstim":12710,"Ġstores":12711,"andida":12712,"Ġrail":12713,"ĠNation":12714,">>>>>":12715,"ulates":12716,"ĠLady":12717,"0000":12718,"quality":12719,"Ġkl":12720,"Ġarrived":12721,"Ġvent":12722,"Ġwritings":12723,"nMT":12724,"ocis":12725,"Ġdelete":12726,"Ġallerg":12727,"Ġchromium":12728,"forsale":12729,"Ġplaint":12730,"soe":12731,"nDate":12732,"Ġadam":12733,"Ġtrained":12734,"Ġtragedy":12735,"Ġimpressed":12736,"ĠYeah":12737,"nperson":12738,"Ġ69":12739,"csa":12740,"csc":12741,"Ġcontained":12742,"Ġ87":12743,"Ġshoulder":12744,"Ġpool":12745,"ERA":12746,"aysh":12747,"Ġscoring":12748,"Ġscores":12749,"peak":12750,"nfile":12751,"Ġovertime":12752,"nPat":12753,"Ġrelief":12754,"Ġfled":12755,"Ġflash":12756,"ificance":12757,"Ġprogrammer":12758,"nGO":12759,"azines":12760,"Ġhelping":12761,"auer":12762,"234":12763,"Ġslave":12764,"screen":12765,"Ġpossess":12766,"ĠThink":12767,"nEric":12768,"riting":12769,"Ġ1500":12770,"ĠForce":12771,"retz":12772,"Ġnewspaper":12773,"ĠAdministration":12774,"446":12775,"Ġfright":12776,"Ġlinear":12777,"rival":12778,"ĠBrun":12779,"Ġrefers":12780,"Ġfeelings":12781,"ĠĠĠĠĠĠĠĠĠĠĠĠĠĠĠĠĠĠĠĠĠĠĠĠĠĠĠĠĠĠĠĠĠĠĠĠĠĠĠĠĠĠĠĠ":12782,"concordia":12783,"Ġretinol":12784,"ĠCommunity":12785,"Ġcontrols":12786,"ĠWhit":12787,"Ġexposed":12788,"Ġtopics":12789,"uwm":12790,"Ġsync":12791,"OLL":12792,"Ġdoctr":12793,"Ġimpose":12794,"Ġattempted":12795,"ĠIndust":12796,"Ġresemb":12797,"Ġclasses":12798,"Ġfalling":12799,"ployment":12800,"auto":12801,"Ġdocumented":12802,"Ġhorse":12803,"Ġcalm":12804,"ĠTHAT":12805,"Ġcleaning":12806,"Ġidentified":12807,"ĠOtherwise":12808,"Ġinterpretations":12809,"Ġmistakes":12810,"nthemselves":12811,"nnever":12812,"ATIONAL":12813,"ĠModern":12814,"Ġcontribute":12815,"ĠAbout":12816,"Ġleadership":12817,"shearson":12818,"Ġanimal":12819,"Ġanimals":12820,"Ġvictory":12821,"belief":12822,"ĠFrequ":12823,"ĠFreeman":12824,"Ġbenefits":12825,"ĠPhiladelphia":12826,"Ġproduces":12827,"Ġprophet":12828,"Ġfootball":12829,"Ġunfortunately":12830,"Ġsatellites":12831,"ĠMoslem":12832,"Ġcameras":12833,"Ġpushing":12834,"Ġoccupied":12835,"Christopher":12836,"ĠSiemon":12837,"everyone":12838,"nparticular":12839,"nphone":12840,"steering":12841,"reasonable":12842,"carelli":12843,"ĠBowman":12844,"ĠFacility":12845,"Ġtelevision":12846,"defaults":12847,"Central":12848,"nNetwork":12849,"ĠAnatolia":12850,"$:":12851,"%?":12852,"(_":12853,"*$":12854,"-@":12855,"-]":12856,"210":12857,"286":12858,"380":12859,"<\\\\":12860,"BZ":12861,"BTW":12862,"EA":12863,"FE":12864,"FZ":12865,"GD":12866,"Gay":12867,"Gill":12868,"HW":12869,"JD":12870,"JJ":12871,"KO":12872,"KW":12873,"MAP":12874,"Message":12875,"Ray":12876,"Sean":12877,"VQ":12878,"Window":12879,"buffer":12880,"cec":12881,"cpr":12882,"eX":12883,"eagle":12884,"hop":12885,"iest":12886,"jy":12887,"lad":12888,"lenn":12889,"maps":12890,"nge":12891,"since":12892,"tur":12893,"too":12894,"tape":12895,"tYou":12896,"vo":12897,"whel":12898,"zak":12899,"Ġvel":12900,"inch":12901,"onard":12902,"erox":12903,"Ġsys":12904,"isons":12905,"ouch":12906,"edience":12907,"Ġbil":12908,"Ġboring":12909,"Ġovers":12910,"Ġoscill":12911,"Ġfinger":12912,"alcolm":12913,"Ġmm":12914,"Ġmand":12915,"arath":12916,"icting":12917,"\\'%":12918,"\\'&":12919,"Ġinch":12920,"Ġincl":12921,"Ġinner":12922,"Ġnsm":12923,"ĠTT":12924,"ĠTop":12925,"utable":12926,"Ġreput":12927,"Ġya":12928,"ĠCoving":12929,"Ġbell":12930,"adette":12931,"ĠMarc":12932,"Ġforum":12933,"Ġ160":12934,"ĠBry":12935,"ĠRiver":12936,"ĠDog":12937,"ĠDallas":12938,"ĠWard":12939,"Ġstead":12940,"ĠHaving":12941,"*****\\":12942,"eliot":12943,"nSan":12944,"ndown":12945,"ndrive":12946,"umps":12947,"apl":12948,"ĠOpt":12949,"ĠOper":12950,"ĠET":12951,"Ġkicked":12952,"through":12953,"Ġsealed":12954,"nMemory":12955,"Ġ<?>\\":12956,"ĠKot":12957,"Ġspin":12958,"tool":12959,"nDisk":12960,"berry":12961,"exe":12962,"ĠStuff":12963,"Ġenemies":12964,"ribes":12965,"assion":12966,"nbu":12967,"nboth":12968,"Ġ86":12969,"ondem":12970,"Ġ77":12971,"atholic":12972,"ĠArts":12973,"Ġscene":12974,"others":12975,"Ġworkstations":12976,"nlittle":12977,"hana":12978,"Ġevening":12979,"ĠHead":12980,"nhomosexuality":12981,"142":12982,"153":12983,"Ġbacked":12984,"Ġconsists":12985,"132":12986,"Ġflag":12987,"Ġrecording":12988,"Ġthru":12989,"phoenix":12990,"alking":12991,"ikato":12992,"Ġbrings":12993,"Ġafternoon":12994,"nJoseph":12995,"OTE":12996,"Ġslc":12997,"185":12998,"Ġelabor":12999,"358":13000,"ĠIncl":13001,"nEven":13002,"Ġwars":13003,"Ġpolitic":13004,"ĠColumbus":13005,"ĠTurbo":13006,"meg":13007,"Ġconfront":13008,"trw":13009,"Ġexplains":13010,"ottle":13011,"Ġentity":13012,"Ġfreely":13013,"official":13014,"nUnfortunately":13015,"idespread":13016,"Ġbehaviour":13017,"Ġsociet":13018,"ĠSelect":13019,"nvironment":13020,"ĠEdition":13021,"Ġchecking":13022,"Ġbatters":13023,"Ġpracticed":13024,"ĠIndian":13025,"rigel":13026,"Ġresem":13027,"Ġmoves":13028,"Ġprompt":13029,"nleast":13030,"remend":13031,"Ġmurdered":13032,"Ġbench":13033,"metic":13034,"Ġmounted":13035,"ovingt":13036,"organpipe":13037,"huji":13038,"Ġalternatives":13039,"Ġmaintained":13040,"Ġdrove":13041,"Ġtranslated":13042,"Ġcreating":13043,"Ġadvantages":13044,"ĠLouisiana":13045,"Ġracist":13046,"UBL":13047,"ĠMelbourne":13048,"ĠBursters":13049,"Ġeconomy":13050,"Ġprophecy":13051,"ĠKeep":13052,"Ġschedule":13053,"ĠTelecom":13054,"ĠTemp":13055,"irlian":13056,"Ġbrothers":13057,"Ġtomorrow":13058,"Ġshifting":13059,"Ġbombing":13060,"Ġsurrounding":13061,"Ġdeclared":13062,"Ġelectricity":13063,"Ġgrowth":13064,"ĠNovell":13065,"ĠREALLY":13066,"ioneer":13067,"imedia":13068,"Ġcategory":13069,"Ġmccall":13070,"ĠSYST":13071,"ĠSeptember":13072,"Ġtonight":13073,"Ġstretch":13074,"ĠCLINTON":13075,"Ġlearning":13076,"ĠEnergy":13077,"Ġsucceed":13078,"Ġsimultaneously":13079,"CUNYVM":13080,"ophilus":13081,"Ġnsmca":13082,"ĠCovington":13083,"!.":13084,"#)":13085,"%[":13086,"(^":13087,"-^":13088,"460":13089,":,":13090,"<]":13091,">@":13092,"?).":13093,"CV":13094,"Dev":13095,"GZ":13096,"Gre":13097,"JR":13098,"LR":13099,"Max":13100,"Marc":13101,"Que":13102,"RN":13103,"Set":13104,"See":13105,"UO":13106,"Widget":13107,"bate":13108,"call":13109,"craft":13110,"dep":13111,"fx":13112,"fil":13113,"fers":13114,"hist":13115,"home":13116,"hockey":13117,"ique":13118,"looking":13119,"nent":13120,"narg":13121,"pres":13122,"possible":13123,"sign":13124,"tj":13125,"tfor":13126,"tpl":13127,"tex":13128,"tmp":13129,"uine":13130,"vision":13131,"wan":13132,"Ġ???\\":13133,"Ġted":13134,"heid":13135,"erch":13136,"Ġsie":13137,"orris":13138,"itically":13139,"esome":13140,"Ġcant":13141,"Ġcele":13142,"Ġbib":13143,"Ġbure":13144,"Ġbatch":13145,"ala":13146,"alke":13147,"Ġpaul":13148,"Ġpowers":13149,"Ġmaj":13150,"Ġdot":13151,"iche":13152,"\\'/":13153,"Ġhun":13154,"asa":13155,"Ġneck":13156,"otic":13157,"lynn":13158,"Ġgather":13159,"Ġlately":13160,"Ġloved":13161,"Ġlikes":13162,"Ġlargest":13163,"ĠSix":13164,"ushtra":13165,"ĠASC":13166,"imat":13167,"ĠMec":13168,"ĠMarl":13169,"unar":13170,"ĠFM":13171,"ĠFred":13172,"ĠField":13173,"ila":13174,"ĠBS":13175,"ĠBY":13176,"ĠBEST":13177,"ĠRd":13178,"ĠRich":13179,"ĠPE":13180,"ĠPo":13181,"ĠPOV":13182,"Ġwhit":13183,"chid":13184,"ĠDro":13185,"ĠDame":13186,"ĠDaw":13187,"ĠWide":13188,"ĠWade":13189,"ĠWheel":13190,"emark":13191,"Ġstress":13192,"uber":13193,"ĠHudson":13194,"ĠHAVE":13195,"elle":13196,"abet":13197,"ndata":13198,"ĠGopher":13199,"ĠNixon":13200,"Ġ275":13201,"ulian":13202,"ĠLife":13203,"nOther":13204,"nOperating":13205,"apon":13206,"ĠOst":13207,"ĠEnter":13208,"\\\\]":13209,"Ġkn":13210,"usted":13211,"Ġexcess":13212,"tick":13213,"Ġvacc":13214,"Ġvendor":13215,"nMar":13216,"nih":13217,"Ġgold":13218,"Ġgovt":13219,"Ġdeals":13220,"endors":13221,"Ġallies":13222,"ival":13223,"Ġunc":13224,"akin":13225,"ncall":13226,"ogh":13227,"1990":13228,"ipse":13229,"nAzer":13230,"Ġtran":13231,"Ġ1967":13232,"Ġclothes":13233,"Ġamateur":13234,"nbest":13235,"Ġcontrast":13236,"ngreat":13237,"Ġprev":13238,"Ġbelievers":13239,"licop":13240,"nWas":13241,"nWindows":13242,"ĠIsn":13243,"Ġsinus":13244,"nhuman":13245,"Ġblinking":13246,"164":13247,"Ġdecom":13248,"nGreg":13249,"azed":13250,"~~~~~~~~~~~~":13251,"Ġcoord":13252,"Ġmonochrome":13253,"scale":13254,"Ġinvasion":13255,"ormally":13256,"Ġtransmitted":13257,"Ġdirected":13258,"Ġboys":13259,"Ġconfidence":13260,"441":13261,"ASU":13262,"elsinki":13263,"ĠOrder":13264,"ILES":13265,"Champaign":13266,"nbeh":13267,"Ġswim":13268,"Ġrepublic":13269,"_/\\":13270,"Ġobjectively":13271,"Ġdefinitions":13272,"Ġtestim":13273,"Ġretri":13274,"ADA":13275,"Ġpatent":13276,"Ġsynthes":13277,"Ġsubjects":13278,"Ġ_/_/":13279,"Ġapproval":13280,"ĠNether":13281,"ĠMedia":13282,"9615":13283,"ĠIndeed":13284,"Ġfamous":13285,"riedman":13286,"Ġcutting":13287,"clusion":13288,"Ġmisunder":13289,"nothers":13290,"stitutional":13291,"Ġfilters":13292,"tmc":13293,"carson":13294,"Ġfunds":13295,"nIsrael":13296,"mediate":13297,"Ġsuccessfully":13298,"sfasu":13299,"PPER":13300,"Ġstrip":13301,"Ġsexuality":13302,"Ġmistaken":13303,"iticus":13304,"Ġwalking":13305,"ĠModem":13306,"nComputer":13307,"Ġownership":13308,"Ġoptional":13309,"SLAC":13310,"VVVV":13311,"Ġsquare":13312,"ĠMITRE":13313,"Ġtraditional":13314,"Ġvariables":13315,"Ġmassacres":13316,"emiconduct":13317,"Ġsacrifice":13318,"Ġcompetition":13319,"Ġintroduction":13320,"ĠTemple":13321,"ĠWednesday":13322,"Ġtrend":13323,"halcyon":13324,"Ġconducted":13325,"ĠSIMMs":13326,"Ġadvertising":13327,"Ġencourage":13328,"Ġteachings":13329,"Ġsatisfied":13330,"%*%*%*%*%*%*%*%*%*%*%*%*%*%*%*%*":13331,"represent":13332,"ĠAlexander":13333,"Ġnegoti":13334,"ĠMoore":13335,"ndidn":13336,"Ġsummar":13337,"Ġpolygon":13338,"Ġsolely":13339,"ĠIslanders":13340,"Ġarrogant":13341,"ĠVoyager":13342,"ĠBrookline":13343,"ĠFraering":13344,"ĠOLIT":13345,"Ġstrength":13346,"Ġapologize":13347,"ĠBaku":13348,"!%":13349,"*<":13350,"*\\\\":13351,"+\\\\":13352,",$":13353,",&":13354,"/@":13355,"714":13356,"818":13357,"@]":13358,"App":13359,"Book":13360,"BATF":13361,"Co":13362,"DF":13363,"DQ":13364,"FA":13365,"FQ":13366,"Gen":13367,"HD":13368,"JX":13369,"KJ":13370,"RP":13371,"Randy":13372,"University":13373,"VK":13374,"WQ":13375,"WT":13376,"Where":13377,"World":13378,"Writer":13379,"_$":13380,"books":13381,"cony":13382,"det":13383,"fare":13384,"goblin":13385,"kent":13386,"life":13387,"node":13388,"oakland":13389,"pic":13390,"pad":13391,"rl":13392,"sit":13393,"sco":13394,"tx":13395,"tSt":13396,"tWhat":13397,"vable":13398,"xview":13399,"zed":13400,"{\\":13401,"Ġ________":13402,"Ġ>>\\":13403,"Ġ^^^^^^^^^^^^^^^^":13404,"Ġtie":13405,"Ġaer":13406,"Ġauthors":13407,"hetic":13408,"heart":13409,"Ġwicked":13410,"Ġcens":13411,"Ġomissions":13412,"omination":13413,"Ġfires":13414,"Ġpad":13415,"Ġpeoples":13416,"Ġmg":13417,"Ġms":13418,"Ġmol":13419,"Ġtow":13420,"Ġded":13421,"Ġduct":13422,"Ġnonsense":13423,"etime":13424,"Ġgospel":13425,"ĠSay":13426,"ĠSpect":13427,"ĠSmall":13428,"ĠTurner":13429,"Ġthats":13430,"ĠCole":13431,"ĠAA":13432,"ĠAsh":13433,"ĠApost":13434,"ĠMI":13435,"ĠMun":13436,"ĠMir":13437,"ĠMouse":13438,"ĠMHZ":13439,"ĠMUCH":13440,"amous":13441,"igc":13442,"sem":13443,"unl":13444,"unless":13445,"====\\":13446,"ĠBJ":13447,"ĠBUT":13448,"ĠBuy":13449,"ĠReds":13450,"ĠRomans":13451,"ĠPM":13452,"ĠPop":13453,"ĠPOM":13454,"ĠPoint":13455,"ĠDE":13456,"ĠWorks":13457,"Ġstraw":13458,"against":13459,"ĠHolland":13460,"Ġnoteb":13461,"Ġassembly":13462,"abin":13463,"Ġrise":13464,"ndr":13465,"ĠGent":13466,"ĠGur":13467,"Ġhepatitis":13468,"ĠNorthern":13469,"Ġdocs":13470,"Ġdozen":13471,"Ġabortion":13472,"Ġsees":13473,"Ġexceed":13474,"Ġ3000":13475,"nMore":13476,"nMouse":13477,"aren":13478,"Ġchristian":13479,"nsure":13480,"Ġuncle":13481,"ĠVEN":13482,"Ġwhatsoever":13483,"ucson":13484,"Ġdiss":13485,"Ġadult":13486,"Ġtruck":13487,"Ġimpress":13488,"Ġ1994":13489,"Ġ1972":13490,"Ġamp":13491,"================\\":13492,"Ġresurrection":13493,"ordan":13494,"netc":13495,"obra":13496,"obgoblin":13497,"ngame":13498,"perience":13499,"108":13500,"ĠXt":13501,"124":13502,"Ġ700":13503,"Ġpointers":13504,"117":13505,"203":13506,"OSE":13507,"Ġschem":13508,"nWhich":13509,"nfree":13510,"nlast":13511,"nPl":13512,"isser":13513,"Ġsinc":13514,"Ġreader":13515,"nhaving":13516,"shit":13517,"Ġblast":13518,"Ġdefensive":13519,"Ġ#>":13520,"being":13521,"175":13522,"tti":13523,"305":13524,"Ġfeas":13525,"Ġteen":13526,"covery":13527,"ernel":13528,"nrequ":13529,"ĠProcessing":13530,"Ġformation":13531,"Ġcoin":13532,"Ġcooper":13533,"Ġspecified":13534,"Ġterrible":13535,"ĠCancer":13536,"Ġgenerated":13537,"Ġdetection":13538,"Ġstatist":13539,"archy":13540,"tyou":13541,"ĠCorinth":13542,"ĠGraph":13543,"Ġcounts":13544,"Ġconsiderably":13545,"Ġproving":13546,"trl":13547,"ILLI":13548,"703":13549,"njon":13550,"Ġbigotry":13551,"ĠCAD":13552,"config":13553,"Ġacceptance":13554,".);":13555,"ĠScot":13556,"Ġexpansion":13557,"Ġhopefully":13558,"Ġreceiver":13559,"Ġfriendly":13560,"tAl":13561,"lamic":13562,"arthmore":13563,"Ġservicing":13564,"ĠArea":13565,"cheduled":13566,"Ġfallacy":13567,"royal":13568,"Ġpromisc":13569,"affi":13570,"EEE":13571,"ĠMattingly":13572,"Ġassumptions":13573,"Ġresponding":13574,"tesla":13575,"correct":13576,"metzger":13577,"MUG":13578,"ncontin":13579,"loaded":13580,"sfsu":13581,"Ġphoto":13582,"ĠProgrammer":13583,"Ġangel":13584,"Ġangry":13585,"Ġmirac":13586,"Ġslowly":13587,"ĠSPACE":13588,"nThomas":13589,"Ġnaturally":13590,"Ġswitching":13591,"Ġdrops":13592,"=-=-=-=-=-=-=-=-=-=-=-=-=-=-=-=-=-=-=-=-=-=-=-=-=-=-=-=-=-=-=-=-":13593,"Ġterrorist":13594,"---------------------------------------------------------------------\\":13595,"specific":13596,"Reilly":13597,"Allen":13598,"ĠOklahoma":13599,"ĠSIMMS":13600,"Ġtargets":13601,"ĠJapanese":13602,"Ġachieved":13603,"minded":13604,"ĠStandard":13605,"ĠBasically":13606,"_+_+":13607,"Ġrepeatedly":13608,"vvvv":13609,":-:-:-:-":13610,"_*_*_*_*":13611,"^~^~^~^~":13612,"ĠUtah":13613,"Ġlaunched":13614,"Ġhouses":13615,"WAYS":13616,"INDOWS":13617,"Ġcorrelation":13618,"ĠGalileo":13619,"Ġwuarchive":13620,"Ġscreens":13621,"ĠFoundation":13622,"ĠRogers":13623,"Gayane":13624,"!(":13625,"!).":13626,"#%":13627,"$[":13628,"%/":13629,"*>":13630,"+------------------------------------------------------------------------":13631,",+":13632,",]":13633,"-.":13634,".%":13635,"/^":13636,"327":13637,"375":13638,"412":13639,"610":13640,"613":13641,":?":13642,";[":13643,"<\"":13644,"</":13645,"=?":13646,"@#":13647,"Atlanta":13648,"CG":13649,"Dale":13650,"HG":13651,"IY":13652,"Jake":13653,"Jesus":13654,"Lilley":13655,"MQ":13656,"MAY":13657,"Open":13658,"OFF":13659,"Ps":13660,"QQ":13661,"Road":13662,"UJ":13663,"WZ":13664,"XA":13665,"XF":13666,"dsu":13667,"eas":13668,"fere":13669,"freenet":13670,"great":13671,"gardner":13672,"iol":13673,"jr":13674,"mes":13675,"mens":13676,"mph":13677,"mitting":13678,"nnet":13679,"oof":13680,"pos":13681,"pixel":13682,"rider":13683,"tn":13684,"uv":13685,"uum":13686,"vron":13687,"Ġ000":13688,"Ġecho":13689,"Ġagr":13690,"Ġastr":13691,"heed":13692,"reacting":13693,"Ġwed":13694,"Ġwidespread":13695,"anch":13696,"ori":13697,"orion":13698,"isun":13699,"itative":13700,"eda":13701,"eding":13702,"Ġcup":13703,"Ġbom":13704,"Ġbast":13705,"ingers":13706,"omer":13707,"Ġpm":13708,"Ġmarch":13709,"Ġmapping":13710,"Ġthrew":13711,"strom":13712,"ĠIA":13713,"Ġhath":13714,"Ġholland":13715,"Ġnull":13716,"Ġ(+":13717,"Ġisland":13718,"ĠSER":13719,"ĠSOME":13720,"ĠSuggestions":13721,"ĠTB":13722,"ĠTenn":13723,"**\\":13724,"utor":13725,"ĠAS":13726,"ĠASA":13727,"ĠACC":13728,"imov":13729,"ĠMill":13730,"ĠMuch":13731,"Ġforsale":13732,"../":13733,"ĠRF":13734,"ĠRome":13735,"ĠRaw":13736,"ĠRIGHT":13737,"ĠPO":13738,"ĠPIC":13739,"ĠPersonally":13740,"chip":13741,"ĠDAT":13742,"ĠDON":13743,"ĠWhether":13744,"emen":13745,"agor":13746,"ĠHot":13747,"Ġassh":13748,"nSystem":13749,"Ġrx":13750,"Ġrig":13751,"ndev":13752,"ĠNon":13753,"ĠNOR":13754,"umes":13755,"ĠLoss":13756,"ĠLaz":13757,"ĠLOV":13758,"ĠEE":13759,"ĠEst":13760,"ĠEugene":13761,"Ġken":13762,"anther":13763,"thor":13764,"Ġexit":13765,"arting":13766,"Ġdeleg":13767,"Ġalleg":13768,"nsmall":13769,"Ġleaf":13770,"ncalled":13771,"toal":13772,"Ġdisclaimer":13773,"...]":13774,"Ġadhes":13775,"Ġadmitted":13776,"ĠChamp":13777,"neach":13778,"icals":13779,"Ġreset":13780,"obile":13781,"ontaine":13782,"nmachine":13783,"......":13784,"ĠArticle":13785,"nlong":13786,"ossibly":13787,"nhigh":13788,"naut":13789,"ictures":13790,"nFtp":13791,"Ġconsensus":13792,"Ġdeserve":13793,"255":13794,"ĠQual":13795,"Ġrecover":13796,"beh":13797,"Ġcruel":13798,"Ġbrakes":13799,"azda":13800,"ruit":13801,"Ġslip":13802,"189":13803,"Ġhandles":13804,"ĠCanucks":13805,"eek":13806,"Ġfewer":13807,"aflow":13808,"nEvery":13809,"nnon":13810,"spd":13811,"incin":13812,"Ġlawyers":13813,"ACH":13814,"arsen":13815,"Ġvalve":13816,"Ġarguing":13817,"Ġdiscusses":13818,"ĠBradley":13819,"ariel":13820,"Ġlesson":13821,"ĠApplied":13822,"ĠPLO":13823,"lios":13824,"liography":13825,"ĠBeaver":13826,"Ġlargely":13827,"nproblems":13828,"ĠServicing":13829,"OWER":13830,"uwa":13831,"ĠNotre":13832,"ĠSeries":13833,"Ġpayload":13834,"___|":13835,"anao":13836,"nAndy":13837,"unga":13838,"Ġterminals":13839,"ĠAustria":13840,"Ġmultit":13841,"tDo":13842,"Ġindication":13843,"Ġindicated":13844,"Ġdelay":13845,"rowave":13846,"nesium":13847,"Ġ!=":13848,"AAAA":13849,"ĠISBN":13850,"Ġprediction":13851,"Ġbias":13852,"Ġbiology":13853,"Ġbiased":13854,"ĠWithout":13855,"Ġfunded":13856,"Ġnationalism":13857,"ĠConsider":13858,"Ġassociation":13859,"*******":13860,"nsomeone":13861,"hibit":13862,"tHe":13863,"ĠCANCER":13864,"Ġwalked":13865,"ĠDecision":13866,"Ġprotecting":13867,"ĠPolitical":13868,"Ġjudgment":13869,"ĠCatholics":13870,"Ġracial":13871,"ĠParty":13872,"Ġcommittee":13873,"Ġtickets":13874,"ĠGenesis":13875,"Ġdiagram":13876,"rolled":13877,"Ġcartridge":13878,"Ġpanel":13879,"Ġparanoia":13880,"Ġbursts":13881,"naccept":13882,"hawk":13883,"Ġshifter":13884,"Ġsuspension":13885,"rocities":13886,"Ġoriented":13887,"Ġsurrounded":13888,"Ġguarante":13889,"ĠDouglas":13890,"Ġcircle":13891,"ccsvax":13892,"Ġstereo":13893,"Ġarrays":13894,"ĠStephenson":13895,"Ġbuttons":13896,"Ġgrips":13897,"Ġvaginal":13898,"Ġacknowled":13899,"Ġbacteria":13900,"arrasso":13901,"whelming":13902,"#>>":13903,"*.\\":13904,",?":13905,"-#":13906,"-&":13907,"619":13908,":^":13909,";-":13910,"<:":13911,"@.":13912,"Alex":13913,"DIR":13914,"FAX":13915,"Green":13916,"GPS":13917,"HY":13918,"Id":13919,"LK":13920,"Northern":13921,"PB":13922,"PV":13923,"Red":13924,"Sorry":13925,"UFF":13926,"WK":13927,"WV":13928,"XH":13929,"XK":13930,"YS":13931,"[\"":13932,"]%":13933,"_<":13934,"`@":13935,"author":13936,"bro":13937,"draw":13938,"deck":13939,"eases":13940,"facts":13941,"function":13942,"gment":13943,"hin":13944,"haus":13945,"iop":13946,"iqu":13947,"mine":13948,"mtu":13949,"nment":13950,"nra":13951,"pica":13952,"race":13953,"sx":13954,"software":13955,"sson":13956,"sorry":13957,"sandvik":13958,"tif":13959,"txt":13960,"tHow":13961,"uin":13962,"vc":13963,"wau":13964,"wits":13965,"eros":13966,"Ġwounded":13967,"Ġsnow":13968,"Ġsouth":13969,"oubt":13970,"Ġcock":13971,"Ġcash":13972,"Ġcodes":13973,"Ġcrying":13974,"Ġbait":13975,"Ġfits":13976,"Ġfresh":13977,"Ġpill":13978,"Ġpra":13979,"Ġanecd":13980,"leans":13981,"icate":13982,"icient":13983,"style":13984,"ĠIV":13985,"Ġink":13986,"asive":13987,"Ġnec":13988,"oter":13989,"Ġgro":13990,"ĠSource":13991,"ĠTucson":13992,"Ġreact":13993,"Ġrebo":13994,"Ġyellow":13995,"ĠCare":13996,"ĠCraig":13997,"Ġell":13998,"roof":13999,"imm":14000,"ĠMack":14001,"ĠMechan":14002,"ĠFinal":14003,"ĠFox":14004,"ĠBMUG":14005,"ĠRW":14006,"ĠPope":14007,"ĠPsych":14008,"ithmetic":14009,"ursa":14010,"children":14011,"ifest":14012,"ifier":14013,"ĠDiet":14014,"ĠDTR":14015,"ĠWidget":14016,"emr":14017,"uba":14018,"isture":14019,"elp":14020,"nSe":14021,"nSim":14022,"nSend":14023,"nSure":14024,"Ġrab":14025,"ndes":14026,"ndiv":14027,"opes":14028,"Ġhence":14029,"Ġhelicop":14030,"ĠNelson":14031,"ĠNSW":14032,"nInd":14033,"umph":14034,"ĠLCD":14035,"001":14036,"apc":14037,"ĠOpinions":14038,"quer":14039,"ĠEN":14040,"antage":14041,"Ġabstr":14042,"Ġvoting":14043,"Ġvendors":14044,"ourage":14045,"nME":14046,"nMF":14047,"Ġdealt":14048,"Ġchief":14049,"nsandvik":14050,"akota":14051,"udge":14052,"pless":14053,"nNf":14054,"henry":14055,"ncap":14056,"ĠVx":14057,"ĠVon":14058,"ĠVRAM":14059,"ailing":14060,"Ġplant":14061,"Ġplates":14062,"earing":14063,"nAgain":14064,"nworld":14065,"expo":14066,"Ġtrash":14067,"ansas":14068,"Ġ1975":14069,"Ġ1984":14070,"nps":14071,"nprop":14072,"Ġ617":14073,"reek":14074,"^^^^\\":14075,"ondition":14076,"Ġperry":14077,"ERAL":14078,".......":14079,"Ġscared":14080,"Ġbeliever":14081,"reatment":14082,"nlist":14083,"merl":14084,"SAND":14085,"nins":14086,"nFeatures":14087,"Ġcommunic":14088,"Ġaccus":14089,"Ġremained":14090,"phot":14091,"Ġcru":14092,"Ġwhereas":14093,"ARL":14094,"Ġbrains":14095,"nrep":14096,"Ġphase":14097,"ĠAsking":14098,"ĠAskew":14099,"237":14100,"Ġindirect":14101,"Ġinterests":14102,"lessly":14103,"275":14104,"rison":14105,"nEthernet":14106,"Ġcurve":14107,"HEAD":14108,"Ġpresume":14109,"Ġbestiality":14110,"tracing":14111,"Chuck":14112,"Ġsignificance":14113,"block":14114,"galaxy":14115,"ĠPlace":14116,"Ġaddressed":14117,"nUni":14118,"Ġdevil":14119,"ĠManitoba":14120,"ĠExperim":14121,"ĠPrime":14122,"ircum":14123,"Ġdemands":14124,"Ġelection":14125,"Ġcovering":14126,"OLOG":14127,"nVendor":14128,"Ġexcepted":14129,"Ġfanatics":14130,"Ġproductive":14131,"Ġskill":14132,"ĠGoal":14133,"fessional":14134,"ĠMarshall":14135,"nati":14136,"Ġdelivery":14137,"tThanks":14138,"accur":14139,"Ġassumes":14140,"Ġinterpre":14141,"Ġdenied":14142,"Ġrequests":14143,"Ġprayers":14144,"Ġprevented":14145,"Ġobservation":14146,"corp":14147,"anderby":14148,"nresult":14149,"Ġcryptography":14150,"Ġsurvived":14151,"Ġsensible":14152,"Mailer":14153,"Ġsteering":14154,"nclaim":14155,"write":14156,"atellite":14157,"ĠPatrick":14158,"ĠGreenbelt":14159,"Ġexciting":14160,"Ġexecution":14161,"Ġquantization":14162,"Ġinputs":14163,"donald":14164,"Ġliterally":14165,"ĠEverything":14166,"Ġoccurred":14167,"ĠPeters":14168,"ĠMeteor":14169,"Ġscanner":14170,"nadv":14171,"Ġcombined":14172,"Ġconversations":14173,"utkvx":14174,"Ġexperiments":14175,"Ġinstruments":14176,"Ġaccelerator":14177,"Ġinjury":14178,"Ġprofession":14179,"Ġattributed":14180,"Ġmanufacturers":14181,"Info":14182,"Ġolwm":14183,"ĠElias":14184,"Ġconcentrate":14185,"Ġtorque":14186,"ĠGilmour":14187,"ovenant":14188,"_-_-_-_-":14189,"Ġmotivated":14190,"ĠSilicon":14191,"ĠObserv":14192,"Ġthorough":14193,"Ġdeliberately":14194,"---------------+\\":14195,"nostic":14196,"itecture":14197,"ĠYankee":14198,"WINHOME":14199,"necessary":14200,"Ġoxygen":14201,"Ġarsenokoitai":14202,"Ġinspired":14203,"ĠImagine":14204,"zekiel":14205,"Ġcomprehensive":14206,"ĠASCII":14207,"ĠWheelies":14208,"Ġadhesive":14209,"incinnati":14210,"waukee":14211,"!),":14212,"\"),":14213,"$.":14214,"&$":14215,"&^":14216,")_":14217,"+\"":14218,"+%":14219,",.":14220,",[":14221,".),":14222,"614":14223,"<(":14224,"?(":14225,"@>":14226,"Ben":14227,"Bus":14228,"CN":14229,"CZ":14230,"FIN":14231,"Get":14232,"Hello":14233,"Jews":14234,"KU":14235,"MG":14236,"OQ":14237,"Out":14238,"QD":14239,"She":14240,"Tech":14241,"_;":14242,"bes":14243,"bow":14244,"bio":14245,"backs":14246,"better":14247,"fund":14248,"gic":14249,"hut":14250,"human":14251,"jen":14252,"kg":14253,"km":14254,"kato":14255,"lance":14256,"mike":14257,"nview":14258,"nkeep":14259,"normal":14260,"pse":14261,"page":14262,"rays":14263,"sic":14264,"sum":14265,"sources":14266,"tre":14267,"uity":14268,"vp":14269,"vironment":14270,"Ġie":14271,"inct":14272,"initely":14273,"--+\\":14274,"Ġtheore":14275,"Ġwcs":14276,"Ġwidth":14277,"Ġsect":14278,"Ġsgi":14279,"another":14280,"itation":14281,"Ġbot":14282,"Ġbath":14283,"Ġbps":14284,"Ġborders":14285,"Ġbanschbach":14286,"alph":14287,"always":14288,"alifornia":14289,"Ġpounds":14290,"Ġmast":14291,"Ġmint":14292,"around":14293,"Ġtoxic":14294,"Ġdil":14295,"ĠIstanbul":14296,"Ġinherent":14297,"lling":14298,"Ġgarb":14299,"Ġlut":14300,"Ġlur":14301,"ĠSign":14302,"ĠSUN":14303,"ĠScheduled":14304,"ĠTan":14305,"ĠTal":14306,"ĠTerm":14307,"uswest":14308,"Ġrevelation":14309,"ĠCa":14310,"ĠAG":14311,"ĠAudio":14312,"ĠAvenue":14313,"robe":14314,"roduction":14315,"imi":14316,"iment":14317,"ĠMajor":14318,"ĠMurphy":14319,"aman":14320,"ambridge":14321,"iger":14322,"Ġ135":14323,"ĠFO":14324,"=====":14325,"ĠBon":14326,"ĠBra":14327,"ĠBeth":14328,"ĠBetter":14329,"ĠBiden":14330,"ĠRoss":14331,"ĠRSA":14332,"ĠRather":14333,"ĠPUBL":14334,"herst":14335,"herri":14336,"ĠDate":14337,"ĠDisclaimer":14338,"ĠDisease":14339,"ĠWC":14340,"ĠWE":14341,"ĠWM":14342,"ĠWind":14343,"ĠWaterloo":14344,"riel":14345,"embers":14346,"ĠHat":14347,"ĠHen":14348,"ĠHence":14349,"nSer":14350,"nSun":14351,"nSee":14352,"ndel":14353,"ndeal":14354,"ĠNu":14355,"ĠNEW":14356,"ĠNorton":14357,"ĠNinja":14358,"ĠNissan":14359,"umed":14360,"ulky":14361,"ĠUm":14362,"osky":14363,"nLatest":14364,"apse":14365,"\\\\%":14366,"\\\\*":14367,"\\\\@":14368,"thought":14369,"Ġsea":14370,"ighting":14371,"omeini":14372,"tically":14373,"Ġvide":14374,"ĠJag":14375,"ĠReference":14376,"Ġshock":14377,"Ġje":14378,"ortmund":14379,"ieved":14380,"endar":14381,"Ġchalleng":14382,"nTony":14383,"nsecond":14384,"uded":14385,"ĠKl":14386,"ĠKar":14387,"ĠKSAND":14388,"raut":14389,"ncourse":14390,"Ġoutr":14391,"Ġspying":14392,"uea":14393,"Ġcomposite":14394,"ipal":14395,"Ġdispro":14396,"Ġimper":14397,"ĠYEAR":14398,"eopathic":14399,"Ġ1970":14400,"Ġjustified":14401,"ĠChap":14402,"ualberta":14403,"ultb":14404,"npost":14405,"Ġappar":14406,"ngive":14407,"these":14408,"nmust":14409,"Ġ805":14410,"nRobert":14411,"Ġoffense":14412,"ohnson":14413,"Ġ940":14414,"strong":14415,"ocklington":14416,"nhomosexual":14417,"shock":14418,"asonic":14419,"Ġeverywhere":14420,"ESPN":14421,"ighs":14422,"ALLY":14423,"Ġparad":14424,"ARI":14425,"Ġteeth":14426,"221":14427,"228":14428,"cole":14429,"235":14430,"ĠClarkson":14431,"Ġpersonnel":14432,"????\\":14433,"Ġinvest":14434,"iscrim":14435,"285":14436,"ggs":14437,"Ġtransport":14438,"Ġinsist":14439,"ĠAdapt":14440,"hysic":14441,"nrun":14442,"Ġ129":14443,"ĠOrleans":14444,"Ġera":14445,"engine":14446,"Ġpropane":14447,"ancial":14448,"blind":14449,"Ġengaged":14450,"nstud":14451,"Ġprocesses":14452,"riends":14453,"empted":14454,"poop":14455,"Ġ2600":14456,"Ġelectron":14457,"elfare":14458,"ilarly":14459,"Ġdepart":14460,"Ġpaste":14461,"Ġinvolving":14462,"yeast":14463,"ebay":14464,"Ġengineer":14465,"ĠPalmer":14466,"ĠNYC":14467,"EXT":14468,"Ġjudged":14469,"ĠSchne":14470,"Ġconventional":14471,"Ġwaited":14472,"Ġcomplaining":14473,"nwouldn":14474,"LAGS":14475,"--------------------------------------------------------------------------\\":14476,"slip":14477,"Ġresponded":14478,"Ġstephen":14479,"Ġdomin":14480,"ĠKingdom":14481,"Ġconnections":14482,"THER":14483,"Ġpolicies":14484,"olester":14485,"Ġsilicon":14486,"Ġsurvive":14487,"Ġsearching":14488,"____________________________________________________________________":14489,"***************************************************************************\\":14490,"Ġabsence":14491,"Ġbalcony":14492,"ndeed":14493,"ĠHELL":14494,"ĠIranian":14495,"ĠAssociate":14496,"ĠHimself":14497,"ĠPhoto":14498,"ĠLeviticus":14499,"Ġthyroid":14500,"Ġfeedback":14501,"Ġcustomers":14502,"ĠKhomeini":14503,"ĠNicholas":14504,"Ġconsistently":14505,"Ġtelnet":14506,"Ġarrested":14507,"nactually":14508,"nContent":14509,"Ġmosque":14510,"<<<<<<<<":14511,"Ġclarify":14512,"Ġpgf":14513,"ĠMulti":14514,"openwin":14515,"Ġsuddenly":14516,"Ġcasual":14517,"Ġincredibly":14518,"Ġlicensed":14519,"eskimo":14520,"ĠEncryption":14521,"Ġfluid":14522,"Ġbiker":14523,"Ġcontradictory":14524,"ĠProtestant":14525,"Ġsecrecy":14526,"Ġprejudice":14527,"Ġpermanent":14528,"Ġdeficiency":14529,"Motif":14530,"Ġenhanced":14531,"Ġcesarean":14532,"Ġethernet":14533,"retzky":14534,"arathushtra":14535,"Ġsiege":14536,"Ġcelebr":14537,"ĠOsteopathic":14538,"ĠCorinthians":14539,"AtlantaGA":14540,"oskyns":14541,"!*":14542,"!@":14543,"\"_":14544,"$\\\\":14545,"&:":14546,"+\\'":14547,",%":14548,"/)":14549,"312":14550,"436":14551,"716":14552,"886":14553,"<@":14554,"=/":14555,"?%":14556,"Be":14557,"CK":14558,"CALT":14559,"Den":14560,"Erik":14561,"Guy":14562,"HV":14563,"Her":14564,"Here":14565,"Ins":14566,"JU":14567,"Look":14568,"Me":14569,"NB":14570,"NI":14571,"NQ":14572,"NED":14573,"OE":14574,"PAC":14575,"Posted":14576,"QG":14577,"SZ":14578,"Sender":14579,"TQ":14580,"Table":14581,"Two":14582,"VER":14583,"WY":14584,"XB":14585,"ZK":14586,"[%":14587,"]&":14588,"]/":14589,"^-":14590,"_!":14591,"aired":14592,"cru":14593,"cats":14594,"dney":14595,"different":14596,"fd":14597,"far":14598,"games":14599,"gins":14600,"mel":14601,"nro":14602,"nist":14603,"nection":14604,"nected":14605,"oqu":14606,"subject":14607,"spl":14608,"tY":14609,"wc":14610,"yn":14611,"yne":14612,"Ġ________________":14613,"Ġtremend":14614,"Ġaircraft":14615,"inform":14616,"onal":14617,"erver":14618,"Ġwake":14619,"Ġsections":14620,"anj":14621,"itro":14622,"itual":14623,"enway":14624,"Ġcm":14625,"Ġcert":14626,"Ġcros":14627,"Ġcoding":14628,"Ġbogus":14629,"Ġfo":14630,"Ġfaces":14631,"alysis":14632,"Ġmatt":14633,"Ġanni":14634,"Ġinev":14635,"Ġandrew":14636,"Ġ(-":14637,"Ġ(.":14638,"acon":14639,"acre":14640,"acco":14641,"Ġlaz":14642,"ĠSB":14643,"ĠSM":14644,"ĠSqu":14645,"ĠSoft":14646,"ĠSys":14647,"ĠSund":14648,"ĠTI":14649,"ĠTed":14650,"ĠTape":14651,"utsa":14652,"usse":14653,"ĠCR":14654,"ĠCop":14655,"ĠCourier":14656,"ĠAge":14657,"ĠApart":14658,"ĠAnswer":14659,"idy":14660,"ador":14661,"ĠMer":14662,"ĠMorgan":14663,"ĠFan":14664,
[...]
