#version: 0.2 - Trained by `huggingface/tokenizers`
Ġ Ġ
Ġ t
Ġ a
h e
i n
ĠĠ ĠĠ
o n
e r
- -
r e
Ġt he
a t
Ġ w
Ġ s
a n
o r
i s
i t
e s
o u
e n
e d
Ġ c
Ġ b
Ġ o
in g
o m
Ġ f
a l
Ġ p
Ġ m
a r
-- --
Ġt o
Ġa n
l e
Ġ d
Ġt h
ĠĠĠĠ ĠĠĠĠ
i c
Ġo f
i on
s t
Ġ I
\ '
Ġ h
Ġ in
Ġ \
. \
a s
= =
Ġan d
l l
Ġ n
v e
Ġ (
o t
e t
e c
l y
Ġ is
Ġ g
a c
Ġ l
Ġ S
Ġ T
* *
en t
u t
o w
u s
---- ----
Ġth at
Ġ re
Ġ y
Ġ C
v er
_ _
Ġ A
Ġ e
r o
at ion
i d
Ġb e
a y
Ġ on
l d
a d
Ġy ou
i m
Ġ M
a m
Ġf or
Ġ it
i g
s e
u n
Ġ 1
Ġ F
n t
== ==
r om
. .
i l
Ġ B
Ġ R
ĠĠ Ġ
Ġ P
Ġw h
o l
ec t
c e
it h
) \
ĠĠĠĠĠĠĠĠ ĠĠĠĠĠĠĠĠ
k e
a ve
u r
c h
o st
i f
he r
ed u
Ġ D
t er
Ġ W
ou t
r i
e m
i r
Ġs t
u b
is t
o d
a g
Ġ H
Ġn ot
i ll
Ġw ith
an d
Ġa s
ou ld
** **
Ġa re
Ġh ave
p p
i z
e l
c om
a b
n S
Ġ r
n d
Ġ "
Ġ G
e w
o p
-------- --------
Ġ he
Ġ or
Ġ N
__ __
Ġ 2
n I
> >
Ġd o
it y
u m
er s
es t
u l
ĠT he
: \
j ect
Ġ U
Ġth is
c t
at e
o s
in es
Ġc on
h t
Ġ L
Ġp ro
Ġw as
n O
r g
0 0
n L
o re
a p
ar d
ub ject
Ġa t
Ġ us
es s
Ġc om
Ġ O
q u
Ġ E
iz ation
\ \
Ġw r
a in
Ġ k
an t
an ization
nL ines
t h
Ġa r
nS ubject
ĠF rom
Ġa b
u st
rg anization
==== ====
Ġs e
re s
Ġc an
nO rganization
ig ht
Ġe x
Ġ -
on e
? \
in d
om e
, \
t ic
Ġ v
al l
Ġ J
u p
Ġw e
Ġan y
ou r
Ġ 3
Ġb y
ĠR e
Ġthe y
Ġb ut
al ly
Ġs h
> \
Ġm e
Ġ j
or t
Ġwr it
ver s
n M
o c
Ġf rom
Ġ <
n i
Ġg o
a re
ar t
a st
ic h
i e
Ġs u
k s
Ġd e
Ġ |
m ent
in e
i ve
en d
r y
Ġw ould
Ġa l
Ġa ll
p t
a v
Ġw or
Ġc h
i an
^ ^
Ġwrit es
i ke
i b
Ġm y
i v
i es
n T
**** ****
o se
ac k
o f
Ġw ill
n s
ou g
Ġ un
ag e
a k
t her
u d
Ġ le
Ġab out
~ ~
Ġ if
n ow
tic le
Ġ K
f or
p l
n N
he n
g e
e ll
r a
Ġthe re
Ġs ome
am e
n c
o o
Ġ V
Ġon e
er e
Ġar ticle
ĠĠĠĠ ĠĠĠ
Ġn e
ion s
a il
Ġ out
Ġs p
e p
Ġyou r
____ ____
Ġwh at
h at
o g
Ġh as
in k
Ġs o
Ġ 4
c c
| >
id e
Ġwh o
9 3
ou s
as e
f er
Ġk now
en ce
ĠU ni
t o
Ġp l
e ar
u re
ic e
d er
ĠĠĠĠ Ġ
ou nd
ac t
Ġ up
i re
ab le
a ke
nI n
u e
on g
Ġ *
u c
vers ity
Ġg et
p r
ver y
f f
g r
Ġ 0
s o
1 9
Ġcom p
i p
n D
Ġd is
Ġn o
i a
.. .
n A
b er
ost ing
n w
Ġl ike
Ġ qu
Ġa d
e x
Ġo ther
---------------- ----------------
Ġt r
Ġ im
ĠUni versity
an s
Ġ Y
e op
Ġthe m
nt he
Ġ1 9
Ġw ere
ac e
in t
eop le
ĠS t
oug h
Ġd on
c l
Ġm ore
Ġwh ich
Ġj ust
h is
h ing
Ġc l
us e
H ost
Ġthe ir
P osting
Ġa g
ew s
ar y
im e
Ġ 5
Ġh ad
Ġm an
at ed
ĠC h
Ġa m
Ġ en
he re
======== ========
u al
oo k
i le
ri b
Ġp r
Ġth an
n e
Ġe v
Ġp eople
res s
ĠI t
ĠI n
as s
Ġth ink
ul t
n p
i al
ac h
Ġa pp
Ġ --
ĠĠĠĠ ĠĠ
ic al
n b
o v
Ġs ay
Ġbe en
Ġ 6
Ġdo es
y st
m an
Ġ $
ut ion
Ġ >
Ġre s
re e
m s
Ġon ly
b le
Ġw hen
or d
yst em
a w
c s
Ġcon t
n et
ation s
Ġ \'
a use
c i
N T
u g
Ġg r
! !
o b
n g
ic s
p er
Ġh is
it e
en s
on s
+ +
ec h
^^ ^^
t he
ĠĠĠĠĠĠĠĠĠĠĠĠĠĠĠĠ ĠĠĠĠĠĠĠĠ
ic k
on t
1 0
or y
Ġus e
Ġin ter
Ġp re
Ġbe l
n m
Ġ X
Ġ 8
an ce
h y
u ch
on d
ow s
Ġ /
Ġb ec
Ġp er
Ġh ow
n y
Ġd id
~~ ~~
ĠI f
is h
= -
t e
" \
ing s
ĠC om
1 2
I N
a pp
i ous
Ġt ime
******** ********
an g
Ġ 7
ar k
ig n
ib le
Ġal so
or s
n R
Ġc ould
r ist
Ġw ant
it t
Ġsh ould
Ġp o
Ġb et
E R
n C
E D
.. ..
) .
for m
w o
ay s
1 1
2 0
! \
at h
ent s
o ve
=- =-
it ion
ĠA r
p le
Ġthe n
O S
Ġs c
w are
nT he
ot her
of t
o ll
se l
Ġm ay
- \
p ut
Ġse e
Ġbel ie
l ic
p e
ou nt
: :
n W
a x
n f
19 93
Ġwor k
ist rib
ĠI s
5 0
a id
Ġne ed
Ġo ver
Ġs er
.. .\
i x
Ġof f
Ġin to
u ll
re at
n l
i ld
p s
ĠĠĠĠĠĠĠĠ Ġ
o h
Ġ ke
ĠT his
Ġthe se
Ġsu pp
p ort
) ,
Ġa ct
Ġr ight
Ġy ear
________ ________
om et
ir st
n ing
Ġ 9
Ġw ay
m er
n X
h an
Ġgo od
Ġpro ble
ad e
n P
Ġ [
Ġre l
Ġ .
ow n
st r
# #
en c
istrib ution
is s
ĠĠĠĠĠĠĠĠĠĠĠĠĠĠĠĠ ĠĠĠĠĠĠĠĠĠĠĠĠĠĠĠĠ
T he
c a
n B
er t
ol og
f ter
Ġd ri
os s
gr am
Ġbec ause
S A
Ġun der
d u
ind ows
Ġth ose
O M
Ġs in
Ġm ake
Ġm uch
t on
A pr
t ing
Ġev en
Ġ :
ve l
w e
nt p
Ġre ad
n in
is m
t s
ers on
oc k
ĠH e
n H
n h
le ct
ot e
Ġt wo
NT P
ĠCh rist
nN ntp
1 4
Ġ very
Ġc ar
n a
nN NTP
nD istribution
f ore
c he
Ġo b
y s
ĠA nd
A T
) .\
ic t
ow er
Ġd if
re ad
ĠG od
Ġ our
Ġ _
s h
Ġb l
as on
i o
n F
Ġr un
w n
Ġc all
ian s
Ġto o
Ġman y
Ġe very
1 5
O N
ĠY ou
Ġs ystem
d e
Ġcom m
Ġl ook
Ġag ain
le ase
u ally
n ot
Ġn ow
Ġb ack
Ġcon s
Ġd es
ce pt
E S
Ġse em
is e
Ġqu est
00 0
ig h
Ġ et
1 3
Ġp art
Ġg u
2 5
Ġf l
Ġde f
ap h
Ġany one
Ġpo int
Ġsu ch
Ġ Q
] \
Ġre c
n and
Ġ #
Ġs aid
cl ud
ot h
a h
8 6
Ġf irst
Ġm ost
Ġad d
Ġm od
Ġ1 0
en er
Ġhe re
4 0
i ew
Ġus ed
A N
if ic
nt o
Ġn ew
Ġh im
Ġwor ld
Ġs ame
Ġa cc
a im
-- \
Ġpro gram
r an
av id
b e
i ed
l es
Ġwe ll
Ġth r
Ġb u
Ġ| \
T o
us s
Ġhe l
ag es
1 6
th ing
in al
ro s
or k
w ay
or g
Ġo p
Ġas s
Ġbe ing
Ġit s
Ġre m
n of
o od
p h
I n
1 7
u k
t t
Ġs omet
ver n
3 0
p ect
o y
Ġc r
oft ware
o ld
at es
v es
oug ht
Ġf ind
Ġdif fer
Ġat t
o x
Ġo wn
sel f
od y
f t
ation al
Ġp ost
e y
s on
A L
Ġa c
Ġp ar
vern ment
Ġpl ay
ĠB ut
Ġbelie ve
am es
ĠH ow
m en
ĠD e
re d
Ġw here
Ġf e
I T
al e
Ġst art
at ter
A R
al k
ep ly
Ġd ec
Ġproble m
i k
Ġb r
m ail
> ,
ĠA l
O R
Ġs im
at t
ist s
n G
Ġn um
Ġf act
Ġt ry
Ġ ro
Ġt e
2 2
e ver
Ġs et
id er
. "
Ġre ally
er v
ĠThe y
form ation
Ġa fter
at er
at her
S T
ur n
ĠW hat
c o
Ġs ec
ut e
an y
Ġ &
ab ly
ED U
f ul
le y
er n
n re
in s
Ġm ight
8 0
a z
================ ================
m it
at a
id ent
\\ \\
Ġh ard
Ġst ill
v en
2 4
c k
re n
ou p
ul ar
s u
ĠCom put
ĠP ro
/ /
Ġp h
Ġin f
i et
Ġfor m
Ġb as
il ity
ex t
++ ++
Ġhel p
olog y
x ual
l and
Ġsomet hing
ard s
Ġl ong
il es
at ing
Ġgo ing
Ġre g
Ġa v
ĠA s
ire ct
~~~~ ~~~~
a u
we en
Ġf oll
r u
Ġ =
Ġc o
Ġm on
2 3
ĠC l
i ly
n J
it s
ech n
Ġwh y
Ġp erson
ĠW e
d ay
Ġbe fore
Ġc ol
g et
^^^^ ^^^^
u ff
vers ion
r on
t en
6 0
Ġh app
Ġquest ion
re w
ak ing
re en
it her
Ġ x
Ġin d
Ġ +
ow ing
Ġin st
O T
nR eply
Ġg ot
Ġt ake
n er
Ġs l
Ġsp e
c es
? ?
Ġs m
he d
if e
Ġne ver
Ġgo vernment
Ġth ings
iv es
1 8
Ġbet ter
Ġyear s
Ġw on
Ġsp ec
ĠThe re
n K
ub lic
Ġre al
Ġc or
o es
s w
Ġsin ce
Ġf ile
em ent
ut h
iz e
c ess
Ġin clud
Ġh and
Ġe l
Ġme an
s c
Ġc he
Ġus ing
Ġt er
E T
Ġdis c
Ġsupp ort
Ġin v
Ġl ast
Ġthr ough
Ġm ade
Ġdoes n
Ġs ur
Ġ2 0
=-=- =-=-
b o
Ġsu re
>> >
ĠC an
Ġe ff
Ġres p
Ġs he
Ġinter est
e e
h o
ĠS p
Ġet c
Ġsome one
han ks
nt hat
Ġas k
l ess
Ġp oss
a ir
Ġre ason
Ġbet ween
E N
Ġ\ \
3 5
i pp
Ġp ut
ak es
Ġ2 4
-------------------------------- --------------------------------
Ġf ew
2 7
Ġg ener
S I
r is
Ġth ing
Ġc le
Ġb oth
Ġwor d
> <
ra el
an ge
Ġch ild
a f
Ġl ot
itt le
Ġt ell
b it
is ion
i er
Ġc our
ĠN ew
at or
ĠI nc
n al
Ġnum ber
. ,
Ġin formation
ct ion
ĠT h
n E
Ġad v
Ġw ar
im es
oh n
n it
ail able
ose xual
le t
ent er
Ġ her
ĠI nt
C OM
Ġwith out
2 6
Ġst and
v ed
or m
n n
Ġd own
is c
uc k
. "\
Ġm ust
Ġle t
o k
p ly
:: ::
r it
Ġl ist
at ive
Ġh av
em ber
9 2
Ġ ide
Ġar ound
st it
Ġin t
Ġc op
st and
Ġg ame
ĠAr men
it ies
ĠComput er
Ġd et
m ed
Ġp ol
2 8
m in
Ġp ower
e v
g er
Ġ Z
al s
Ġm ess
Ġcl aim
Ġagain st
Ġdiffer ent
9 0
I C
Ġst at
g g
Ġg reat
Ġ1 6
Ġrel ig
ert ain
o ol
s p
n as
Ġre qu
**************** ****************
Ġ1 5
ment s
ar ch
os ed
ĠC ol
un d
Ġcom e
Ġin c
Ġop in
Ġc ur
Ġe ar
b ably
in c
mer ic
ap s
Ġst r
b y
um an
g in
Ġb it
ĠS h
en se
om osexual
ĠT ur
Ġ i
Ġd r
Ġdri ve
pt ion
ĠIs rael
Ġex t
ie ld
m e
-------- ----
" ,
at ch
ent ion
p ro
ĠM ac
H E
l im
n Y
Ġ2 5
t y
Ġl aw
on y
Ġd ata
ter s
Ġany thing
u res
re nt
ar ge
ĠC or
E G
2 1
Ġtr ans
ĠR es
O U
aph ics
Ġ end
Ġd ay
b ody
er ing
ĠG r
Ġk ill
Ġdid n
l er
Ġwh ile
ic es
Ġav ailable
Ġl ittle
n is
Ġim age
Ġd irect
ĠF or
Ġan other
ĠĠĠĠĠĠĠĠ ĠĠĠ
A M
ĠĠĠĠĠĠĠĠ ĠĠ
Ġg ive
Ġf ar
; \
Ġseem s
B I
l ed
ĠS ystem
Ġ1 4
n ess
Ġn et
ĠW indows
3 3
8 8
a i
Ġc ount
Ġe ach
Ġle ast
re t
ĠS ci
Ġen ough
## ##
Ġh igh
Ġin s
ou se
Ġm in
ĠChrist ian
>> \
o ad
Ġe m
op e
id ence
i ent
a ul
A C
ĠA pr
p ress
Ġb o
Ġt ri
Ġn ews
ĠA d
for d
Ġcon f
Ġex am
ur ing
n o
ar s
Ġel se
oo ks
Ġcons ider
g ov
Ġp ass
um ent
/ \\
ĠSt ate
Ġcont ro
at ure
4 4
Ġ1 7
h ich
Ġt y
Ġf ound
ur ch
Ġke ep
ate ly
hy s
ĠT hat
ĠP C
Ġ19 93
a j
Ġp res
I F
>< ><
Ġc ase
ĠS un
Ġo ld
ke y
ord s
i ally
Ġf r
ter n
Ġb est
al ity
n r
od e
pl ay
E L
Ġc are
Ġs oftware
Ġpro v
ĠE ng
A S
a el
Ġse en
ect ion
Ġl oc
Ġf ire
Ġ1 8
ap e
r ic
v ious
Ġwr ong
n ews
Ġsay s
t r
Ġ1 2
us lim
ĠM y
Ġw he
iz ed
b r
el s
ĠO r
Ġcour se
at ic
Ġk ind
* \
Ġpro bably
ber t
u i
w ays
I D
Ġex pl
Ġv al
vel op
iv en
Ġm em
w ork
t il
Ġm or
ĠA meric
ast er
I S
Ġs ol
x t
Ġ es
Ġt alk
ot t
es us
ich ael
7 5
e ad
c ol
Ġs ub
U C
he s
Ġhapp en
r or
Ġc ertain
ĠS o
a it
as h
et s
ĠO n
Ġl ife
Ġl ine
Ġm ach
ri v
Ġor der
enc es
Ġa rg
ĠM S
Ġab ove
Ġdisc uss
I L
Ġtr ue
Ġd one
________________ ________________
7 0
as ed
Ġe ither
== =
ĠC on
our ce
Ġ ent
Ġg un
Ġpl an
ant s
Ġmess age
ĠĠĠĠĠĠĠĠ ĠĠĠĠĠĠĠ
nI f
Ġke y
Ġeff ect
R E
Ġf iles
al t
b ers
Ġb ook
C h
Ġst ud
Ġwr ote
Ġe ver
Ġle ad
Ġpl ace
Ġcall ed
Ġth ought
nb e
n for
m y
nI t
. )\
it or
Ġs it
Ġf ree
art ment
Ġm ed
.... ....
at s
Ġan sw
et h
Ġcomp ut
net com
u es
ĠP h
Ġ er
Ġab le
Ġf ull
Ġsec ond
Ġchild ren
B M
w as
Ġhe ard
Ġor ig
Ġp lease
ĠĠĠĠĠĠĠĠ ĠĠĠĠĠ
S t
ĠS C
Ġte am
t p
re ct
e f
ĠI I
Ġre fer
Ġunder stand
Ġth ough
ro p
of f
/\\ /\\
Ġs w
Ġe as
c m
ent ly
ĠB r
Ġsu gg
Ġsugg est
ar i
Ġl ess
Ġre p
Ġgr oup
n j
ri pt
Ġv iew
E C
_ /
n on
en g
ic ros
Ġre f
Ġpro p
M S
ĠT echn
ĠN o
ĠM ay
Ġposs ible
an c
ĠD o
Ġex per
Ġother s
D OS
Ġ1 1
Ġr ather
m a
Ġs end
ui uc
com m
ĠU SA
4 5
-- -\
ĠU S
Ġob ject
Ġh omosexual
ĠĠĠĠĠĠĠĠĠĠĠĠĠĠĠĠ Ġ
am p
com p
du ct
e k
ĠA T
Ġbu y
Ġpar tic
Ġs ign
Ġb ig
ĠA ll
Ġ1 3
Ġv i
nT his
are d
Ġm ail
Ġnot hing
k y
ĠA pp
ĠB l
Ġre port
Ġproble ms
Ġfe el
Ġn ame
ĠJ esus
6 5
ap t
ĠC A
" .
| |
Ġm ind
Ġcle ar
ĠT r
Ġlook ing
Ġdef in
b l
Ġh uman
ver t
Ġc ard
ĠĠĠĠĠĠĠĠ ĠĠĠĠĠĠ
um e
b s
st er
t I
Ġ version
Ġsh ow
Ġdo ing
Ġt est
ĠP L
Ġ ...
Ġqu ite
P EG
p or
Ġb ad
iss ion
0 2
in ce
ain s
ĠA ny
ĠĠĠĠĠĠĠĠĠĠĠĠĠĠĠĠ ĠĠĠĠĠĠĠĠĠĠĠĠĠĠĠĠĠĠĠĠĠĠĠĠ
g al
Ġde al
Ġp ublic
Ġact ually
Ġfoll owing
, "
m m
Ġse ver
w ords
ec ess
Ġ: -
% *
N ews
z er
Ġres ult
or n
Ġex ist
9 1
Ġev idence
Ġide a
Ġy et
il le
Ġwhe ther
an k
et er
3 2
Ġp os
nt h
ĠM uslim
ĠP l
a us
ĠF BI
sel ves
Ġadd ress
if ied
Ġal ways
ar l
9 5
c r
ic ally
Ġf un
D avid
c le
Ġ3 0
Ġexam ple
. \'
A X
g y
ni a
are nt
c on
n U
Ġc re
Ġen g
Ġis n
id es
Ġbe h
Ġtry ing
++++ ++++
a ug
ch ool
ĠD avid
Ġth ree
Ġcomp le
ĠA m
Ġch ip
Ġpr ot
ĠQ u
6 6
u x
Ġs ci
Ġac cept
Ġhav ing
Ġre t
u pp
if y
IN G
c her
Ġn on
Ġsm all
n or
Ġl ight
Ġch ange
!! !!
ac tic
Ġe qu
A D
ul ation
Ġcon c
n st
o ice
ĠĠĠĠĠĠĠĠ ĠĠĠĠ
L I
ĠA t
Ġhe ad
ra w
Ġget ting
Ġen c
uth or
h p
or on
v iew
ad a
Ġpro cess
> |>
ĠL e
Ġle ft
che s
Ġcop y
w ard
it al
ar n
Ġme ans
ear ch
ey words
h ip
ex as
ĠW hen
A nd
un ic
nK eywords
Ġopin ions
ep artment
d en
l i
Ġa way
8 5
ri end
um b
u f
an e
ĠInt er
h aps
m ost
o e
t i
cc ess
Ġcur rent
ĠSci ence
aj or
re g
em pt
Ġ2 1
stit ute
it ed
Ġp ack
le ge
Ġmon th
b all
al th
Ġm en
ain t
or ld
Ġm atter
ar g
Ġd ou
read y
= *
nw ith
ĠB e
Ġcon d
Ġs ound
as es
one y
iv ed
. )
iv ing
ĠC al
Ġwon der
Ġapp ear
Ġapp lic
B S
I V
Ġb us
ire d
p o
Ġst uff
ag er
A P
Ġp at
ĠD OS
ĠCom m
i or
ĠW hy
Ġm akes
Ġf a
oron to
I f
Ġde v
I M
ir d
our ces
Ġne xt
Ġsay ing
I G
Ġh ist
ĠS c
ind ow
tt y
Ġcontro l
ĠT HE
id ed
ĠM an
Ġsever al
2 9
ĠE x
Ġde velop
Ġansw er
nT hanks
3 7
am er
Ġim port
o pp
ĠB os
ry pt
he m
Ġc ost
ĠW h
Ġg iven
Ġl arge
e ff
is on
ou ps
ĠS T
on es
ri an
ĠN OT
ros s
v ent
Ġde ath
og r
O P
Ġp it
ot s
~~~~~~~~ ~~~~~~~~
D E
n us
in ter
ĠP r
%* %*
Ġ ed
Ġc ame
Ġrun ning
Ġdes c
Ġon ce
n k
ap er
3 4
3 8
as k
6 4
M T
ĠM c
ĠJ ew
Ġgener al
l is
Ġs oc
ir c
Ġn ecess
Ġex p
Ġo pp
os p
Ġsp ace
u ro
np ro
i am
hing ton
Ġd uring
ĠS e
ĠP er
um p
m p
ĠL ab
end ed
Ġag ree
Ġse ll
Ġal ready
ĠAr ab
G A
ar r
ĠJ PEG
Ġbu ild
icros oft
Ġbas ed
Ġd em
9 7
ĠEng ine
b ur
Ġt urn
om en
Ġg ames
enc y
Ġ2 2
0 4
Ġ2 6
read er
nas a
P U
ĠP res
our s
\\\\ \\\\
c b
Ġcan not
Ġspe ed
3 6
Ġinterest ed
ĠA n
ny ou
Ġgu ess
I ON
n ex
is ed
Ġto p
L E
-- -
ĠS erv
Ġe lect
ĠĠĠĠĠĠĠĠĠĠĠĠĠĠĠĠ ĠĠĠ
ore sh
i res
nF rom
News reader
Ġc ou
Ġch ang
O W
en et
Ġo cc
el f
Ġag o
Ġloc al
Ġorig inal
ain ed
ide o
cl aim
Ġmach ine
o id
ord ing
U S
r al
Ġto ld
Ġd ist
and s
n ew
o ot
u w
Ġre st
Ġrem ember
// //
ĠTechn ology
b t
Ġa ut
Ġh ome
il ar
ĠN ot
Ġ2 3
Ġcor rect
Ġresp ons
M ay
us h
ĠU N
ĠRes earch
0 5
s ue
Ġl ib
ĠD epartment
um m
l in
n v
ur d
Ġacc ess
Ġinf o
Ġp op
Ġg od
Ġst ate
ĠN e
th at
r ight
Ġt imes
Ġop en
8 7
l ing
ĠS er
Ġr ad
Ġde p
Ġim ages
on om
Ġs y
Ġto day
ac y
Ġo per
Ġm ajor
fer ence
i ver
p ec
ar m
ar ry
Ġof ten
Ġdis k
Ġcomput er
Ġ ve
er al
er ve
Ġp e
ĠIn stitute
iet y
Ġstand ard
n ch
Ġt ext
Ġf re
Ġd ays
Ġg l
ĠG e
ĠE d
Ġwor ks
Ġwho le
=-=-=-=- =-=-=-=-
ipp er
s d
ĠT o
Ġs ubject
Ġp ast
Ġinv ol
# >
Ġh ope
Ġn ight
Ġcon n
Ġex pect
Ġquest ions
Ġco ver
Ġpartic ular
Ġs ort
Ġm ark
Ġl ove
Ġsim ply
:::: ::::
ĠCol lege
cm u
re ci
Ġall ow
Ġpr ice
Ġform at
8 9
Ġdes ign
O L
l ine
Ġp ay
Ġre ce
ĠC enter
Ġhe ar
i ence
Ġf riend
out h
ir gin
th ough
Ġdr ug
5 5
v ax
Ġw indows
Ġc ode
Ġdis play
nY ou
A Y
c ent
Ġus a
ER S
Ġprogram s
Ġph one
Ġinst all
u h
Ġa uthor
Ġh old
un ch
Ġ2 7
n V
ĠĠĠĠĠĠĠĠĠĠĠĠĠĠĠĠ ĠĠ
ort un
ran k
Ġsit u
ol ution
8 4
f ull
g o
at us
Ġb re
Ġp ort
ec k
Ġun til
ĠĠĠĠĠĠĠĠĠĠĠĠĠĠĠĠĠĠĠĠĠĠĠĠ ĠĠĠ
0 1
Ġis sue
Ġdo ct
Ġpre tty
Ġfoll ow
I R
I t
Ġb ase
ĠR E
iv id
er man
Ġw ent
AT F
uro pe
U R
ĠI BM
Ġus er
Ġv ar
Ġh it
Ġat he
Ġrelig ion
ĠSystem s
Ġp ress
ad o
ĠB ible
Ġ* \
m b
Ġs ource
ĠHow ever
in ation
os h
Ġ_ /
^^^^^^^^ ^^^^^^^^
c y
Ġm ass
Ġm ove
ac s
ore d
ian a
Ġbelie f
Ġcont in
Ġword s
Ġcomple te
ib ility
ĠK oresh
Ġche ck
9 4
s ol
ain ing
I X
g ers
Ġb ox
Ġm ention
Ġthem selves
" .\
e g
Ġs ing
ĠC r
t S
nh ave
i od
t A
ĠC ar
bo ard
qu e
ak en
Ġty pe
s un
Ġapp ro
n not
ĠJ ews
ĠSC SI
n ed
Ġ4 0
ne y
l am
UC P
l a
Ġtri ed
ĠEngine ering
A Q
Ġm oney
ĠD oes
Ġstart ed
Ġspec ific
---------------------------------------------------------------- ------------
Ġf ield
... .\
ar ily
Ġl og
Ġe mail
e al
ur p
ac ks
Ġre pl
ill ion
es tern
ar c
ĠS ome
Ġapp reci
is k
ur al
Ġcol or
Ġimport ant
4 1
Ġw in
=* =*
__ _
il t
I I
e h
ĠN or
Ġdo c
, `
3 9
it er
al o
ĠCan ada
W indows
ec ause
if or
Ġal most
o bert
st ate
ac es
ur y
Ġoff ic
S P
Ġn or
an a
it ions
ect ed
um ents
oc i
3 1
re l
Ġs ide
Ġc ause
Ġb atter
nA nd
ĠArmen ian
f ace
or ado
ĠS he
un g
i um
Ġim p
nC h
ĠAmeric an
E W
Ġ `
Ġ1 00
Ġcom es
ĠO F
ĠJ ohn
ĠCom p
om as
Ġof fer
Ġso ld
riv ate
ĠP aul
ir on
ag o
ifor nia
1 00
U T
Ġ ?
Ġ5 0
g or
iv il
ens ive
+ \
n are
\' \
ri es
ep end
Ġcomm on
irgin ia
T his
nc on
ĠJew ish
J ohn
u ct
in o
Ġp osting
O C
a ult
Ġm ot
ĠA N
Ġcertain ly
n he
s y
ab ility
M A
h am
p ar
Ġde ad
% %
y e
| \
on a
ĠO ne
ĠApr il
Ġm aking
ar th
Ġ3 2
ĠDe pt
o le
s er
Ġ z
ĠN ow
ion al
Ġser v
en n
Ġl ive
ĠN et
Ġpro per
Ġpr int
Ġter m
ĠPres ident
I P
c so
Ġc ap
em s
Ġrelig ious
4 8
le v
Ġare a
av es
ra ft
Ġne ar
Ġpres ent
L Y
ol s
Ġle vel
y p
Ġp hys
Ġan al
Ġl im
ĠS oftware
IN N
Ġwork ing
Ġatt empt
Ġmonth s
ĠC D
ĠG MT
Ġevery thing
> :
w ith
w ell
ĠM ed
Ġex cept
Ġdiffer ence
Ġspe ak
Ġask ed
,` ,`
e b
r ary
Ġw indow
Ġb ody
Ġf an
Ġf ont
nt er
Ġ2 8
ud e
for man
itt ing
Ġfa ith
+ @
4 2
n un
re am
Ġf ail
Ġl ow
Ġpos ition
9 6
er c
Ġb ro
Ġex act
S C
Ġc irc
ab out
ure d
Ġsim ilar
Ġcou ple
/ \
l s
t le
Ġf in
ĠI m
ĠD on
ines s
Ġinst ead
#### ####
ivid ual
w hich
Ġ 93
Ġc ult
Ġpr actic
ĠTur k
forman ce
U N
or ry
Ġf tp
ĠI nd
Ġn a
Ġre d
Ġeng ine
Y ou
p en
Ġ ign
Ġs chool
Ġb ur
Ġf ig
4 6
Ġs ent
Ġmay be
Ġstr ong
m ore
s a
ur ity
ib m
ĠSp ace
r ig
Ġc aus
Ġre se
ĠB ATF
Ġv is
C H
g s
r ing
w here
Ġl ater
ĠA re
ad s
ate ver
Ġpro duct
Ġsh ort
Ġwould n
ĠĠĠĠĠĠĠĠĠĠĠĠĠĠĠĠĠĠĠĠĠĠĠĠ ĠĠ
Ġser ious
Ġsing le
ĠĠĠĠĠĠĠĠĠĠĠĠĠĠĠĠ ĠĠĠĠĠ
ĠO S
Ġright s
Ġinc re
oc key
Ġcl ass
Ġbec ome
Ġper iod
che d
Ġhav en
full y
Ġwe ek
Ġknow n
Ġkill ed
ĠInter net
ĠCal ifornia
7 7
O O
Ġt echn
is ter
ec e
ut ch
ĠA ust
M ark
l ike
om an
Ġf all
Ġm ult
ĠĠĠĠĠĠĠĠĠĠĠĠĠĠĠĠ ĠĠĠĠ
Ġmon itor
><>< ><><
l u
on se
en e
al f
ĠP al
Ġwith in
Ġgo es
Ġmem ory
n se
Ġ **
Ġit self
up er
ĠChrist ians
b ut
Ġf am
ĠI N
ĠE urope
Ġwrit e
Ġstat ement
Ġfr ont
Ġvi ol
E du
L L
r ad
y ou
Ġf our
Ġn ice
ĠT hanks
Ġst op
uff alo
Ġ ver
nT here
nw as
pec ially
c an
g ed
Ġm ov
Ġd am
st an
ĠN Y
ĠJ ust
ound s
nW hat
Ġreg ard
Ġsitu ation
d s
h ar
s erv
v ing
z e
Ġs ense
it ical
Ġy es
ro y
ost on
ĠY ork
Ġhow ever
claim er
Ġs k
an i
ac o
ĠM A
ĠG o
av ing
Ġopin ion
Ġhappen ed
umm ary
E X
or ies
ist r
Ġhist ory
Ġdesc rib
id ge
il it
ĠP R
el ie
av en
int on
ict ion
b u
g h
Ġm iss
ĠR uss
Ġj ob
Ġam ong
C C
C ol
f ect
p ub
it ch
Ġv ia
Ġv ideo
ĠAl so
Ġdet ail
0 3
f ess
Ġa p
ĠM ar
ĠĠĠĠĠĠĠĠĠĠĠĠĠĠĠĠ ĠĠĠĠĠĠĠ
te ve
ĠArmen ians
Ġs aw
Ġf ine
Ġp ers
ic ago
ĠĠĠĠĠĠĠĠĠĠĠĠĠĠĠĠ ĠĠĠĠĠĠ
ri ve
Ġj ud
4 9
M ichael
Ġs elf
Ġis su
os es
Ġv ol
Ġadv ance
umb ia
m ith
s ide
Ġ @
Ġh ig
ut gers
se y
ri ed
ĠH is
Ġwant ed
let ed
n at
t D
ĠS ch
ĠW in
T P
r ant
ĠT IN
ur ther
pl oy
Ġcl ose
Ġgu y
7 6
C S
f ic
Ġm ain
ut es
Ġus ers
Ġsh all
Ġwrit ten
Ġlike ly
Ġser ver
h ow
Ġb ooks
Ġto t
Ġr id
Ġcomp any
ĠCor por
an n
================================ ================================
Ġent ire
0 8
o int
Ġ >>
at ory
Ġup on
Ġinclud ing
Ġcount ry
R A
r act
Ġ )
Ġch ar
Ġgr aphics
Ġevery one
l ish
er m
or ge
U UCP
c is
Ġs us
Ġp ub
i ents
Ġt aken
Ġf air
ĠP lease
Ġtalk ing
eth od
? )
a ust
r ay
al d
nA r
Ġtoo k
e ve
Ġ >\
he ad
nA s
itt ed
Ġsc reen
Ġind ic
t B
ou ble
Ġp rom
ac ed
ir t
ag ed
ĠThe se
Ġpack age
M B
Ġs ale
Ġl and
Ġon es
ad d
Ġmy self
nb ut
Ġspec ial
I A
in a
Ġw atch
nt his
ke ley
if t
Ġcon v
Ġv s
Ġdiscuss ion
5 9
Ġt w
Ġw ait
Ġc ent
Ġb all
Ġle arn
Ġpre vious
Ġpe ace
> (
o z
Ġa ir
end ing
Ġpol ice
Ġdou bt
P S
n am
Ġt em
om ew
Ġm ag
ent al
ry ption
Ġhard ware
gor ith
c er
Ġm other
ĠG erman
4 3
= \
D L
o ly
at ors
Ġm ine
ir it
nA l
Ġtr ad
Ġread ing
Ġinclud e
/\\/\\ /\\/\\
Ġeas y
ĠApp le
8 3
s g
Ġw omen
ar ks
Ġd el
Ġd ue
Ġn orm
ist ic
l or
ut ure
ul es
r ow
t T
Ġch o
Ġg as
ive ly
Ġarg ument
ĠCorpor ation
m ing
Ġt reat
ĠM ary
ĠW as
Ġor g
ĠO h
Ġind ividual
# \
4 7
a ff
k now
o op
t The
is claimer
ec ond
ĠW aco
Ġty p
% ^
E E
n es
st on
ol ic
Ġde g
Ġperson al
a ut
un ix
and rew
com e
res ent
ich ard
unic ations
Ġvar ious
j ust
t P
ut ed
Ġle g
d ig
Ġ ut
Ġd i
ac c
uc s
Ġper haps
str atus
Ġear th
Ġstud y
f r
r utgers
t C
Ġb ike
ĠF AQ
ĠD r
pl es
Ġ:- )\
Ġp urp
ĠB ill
nS o
Ġd est
ĠW ell
Ġsim ple
led ge
9 9
in ed
un ity
av y
ip s
Ġneed s
vel and
Ġatt ack
Ġmean ing
6 7
E NT
n ce
t d
u el
Ġ !
ĠD es
Ġyour self
Ġwant s
Ġcomm and
s s
le x
Ġcom pl
Ġser ies
M H
o on
u le
ĠS an
ĠA fter
ĠMuslim s
5 7
ĠM r
ĠM ot
nA ny
Ġbo ard
P L
V M
b ack
Ġ ir
ĠT exas
Ġwill ing
Ġget s
Ġsupp osed
aug h
_ \
ĠM at
un e
gr oup
ug g
Ġass um
Ġinterest ing
ĠChristian ity
press ed
ĠServ ices
h il
Ġs ize
ed s
Ġc ivil
ĠW ill
ang u
Ġob vious
Ġresp onse
fic ult
N ET
R U
r d
t ime
Ġ vers
Ġt aking
ĠC ont
ver age
ĠU s
Ġcon vert
ns h
act ion
Ġper formance
c ed
m il
Ġc ut
ur t
Ġar ch
Ġ3 5
Ġneed ed
Ġmem bers
Ġer ror
Ġdoc ument
D S
Ġc it
Ġm et
ĠB oston
Ġ2 9
nw ould
Ġlong er
e an
g ot
t M
v m
w in
ĠM or
ĠW estern
Ġwor th
cl us
ogr ap
< <
k ing
er ry
ĠW ar
ĠG IF
\\ \
Ġplay ers
! "
A A
C E
as ons
ig a
em ents
ĠN ational
Ġqu ality
Ġman ual
nH ow
Ġnet work
ĠTurk ish
6 3
C R
N o
b or
d es
r am
Ġany body
Ġdri ver
ys is
D X
W hat
at ech
Ġl ab
ĠA zer
ag ue
op her
ĠU nit
Ġam ount
Ġbl ack
Ġsystem s
n an
t a
Ġ %
Ġ est
Ġl oad
ur der
Ġus es
Ġse x
nM y
ose ph
Ġexper ience
Ġexact ly
8 2
H L
Ġ {
id d
ur s
Ġch urch
Ġinter p
Ġissu es
" )
w ise
Ġf ast
ĠI S
Ġl ives
ĠS w
Ġpre d
Ġmod el
ron ic
l ib
Ġf ans
al es
ant a
ener al
Ġacc ount
Ġm ethod
Ġen v
w ards
Ġm is
ar ies
Ġh or
Ġl a
ĠL et
ĠCl inton
iron ment
5 4
A l
S un
f i
f fer
m on
om s
Ġp ick
Ġd raw
Ġth ird
ĠI ll
us ed
ĠB y
nf rom
nB ut
7 35
A r
C A
d ec
f e
n other
Ġf ace
Ġh ours
ĠB BS
Ġun less
Ġ8 0
stit ution
L A
W e
d o
w h
Ġp aper
Ġd en
ac ter
id s
ĠM in
ter m
Ġst ory
Ġ4 86
Ġadd ition
E P
e le
Ġb i
om atic
Ġfor ce
ur ance
Ġare n
Ġgr oups
ang er
Ġ ,
he l
ĠC ent
um d
the w
---------------------------------------------------------------- --------
er y
re et
Ġan n
as er
em on
iv ision
nF or
p i
ll er
Ġl ines
est in
qu est
iv ity
Ġrec ently
Ġconsider ed
++++++++ ++++++++
5 3
E M
n any
Ġwh atever
-------------------------------- ----------------
Ġgr ound
Ġ ?\
Ġus ually
Ġar t
Ġapplic ation
Ġinvol ved
o ke
s l
Ġc al
ĠF OR
ce ll
ĠW ith
Ġwe ap
Ġany way
Ġcomp ress
7 4
M W
T W
re ed
Ġs af
Ġm iles
ĠM on
Ġhe ll
ĠN O
Ġwas n
Ġle ave
ov iet
i ot
n app
Ġf il
Ġp rivate
ut ions
Ġappreci ated
2 00
t m
op s
nP lease
Ġrequ est
Ġbeh ind
Ġappear s
Ġp ict
ic ro
ĠS upp
ĠD en
Ġsh are
Ġde leted
nthe y
oh io
Ġes pecially
bur gh
Ġhig her
b i
c ont
n le
o ver
Ġ id
Ġt akes
re m
un et
ĠThe n
ff ic
Ġpre fer
de f
5 2
? "
d uc
v ard
Ġto get
Ġg en
id a
ay ton
ĠM icrosoft
Ġ3 3
Ġcont act
ĠĠĠĠĠĠĠĠĠĠĠĠĠĠĠĠĠĠĠĠĠĠĠĠ Ġ
Ġresp ond
ograp hy
Ġtoget her
A SA
at ures
ĠM ark
Ġhe alth
Ġcom ing
Ġact ion
0 7
6 1
: -
F F
m ot
Ġ enter
Ġm ar
ĠC le
ol ks
Ġ3 1
ES T
att le
c ar
e in
f o
g u
n im
t es
ou d
Ġf ore
Ġg ives
ple ment
nW ell
ater ial
a ur
g en
g ress
Ġ ec
Ġan ti
ĠT H
ĠM Y
ĠW ho
Ġst ep
Ġdo or
Ġal gorith
ĠX V
Ġprov ide
angu age
m ission
Ġw ays
it ive
Ġf uture
Ġm urder
ĠT oronto
ĠA ccess
ce ed
Ġcould n
ĠCl ipper
Ġhomosexual ity
G R
n ag
Ġ u
Ġn ature
am in
ĠG ree
Ġknow s
ĠUni x
the y
mer c
du ce
Ġmod e
Ġpost ed
Ġear ly
5 6
A K
I s
d t
is ing
ĠH P
ĠN T
itt s
Ġplay er
C om
O V
Ġt ur
Ġb en
Ġh ate
il ities
ĠR ed
og n
Ġim ag
Ġpr ay
!! !\
C P
f ield
ar ing
Ġg ave
ĠO f
ĠO pen
ight s
Ġso on
Ġqu ick
Ġ19 92
ific ant
Ġche ap
Ġpop ulation
a e
r up
an ford
Ġf und
al le
Ġd om
ot a
Ġl ost
if f
est ig
Ġpro ject
Ġgo al
ip ment
******************************** ********************************
lis hed
merc ial
Ġf ix
ĠS at
Ġhe art
ind iana
ib ly
ĠK ing
olog ical
ĠComput ing
Ġrequ ire
Ġconn ect
g un
re al
Ġre v
nI s
ĠSt ud
Ġpre vent
! )
> "
T S
Ġa f
Ġin n
im ate
>> >>
ain e
Ġout side
T H
n com
Ġt ape
re me
Ġp un
et te
ĠS ince
id get
Ġqu ot
Ġpr im
app le
Ġob serv
Ġclaim s
Ġmor al
ĠLab or
ino is
dig ex
8 1
Ġ ;
Ġs omew
ĠC am
ĠN ews
Ġme as
Ġass ume
ru ct
S c
y l
Ġnot e
Ġ3 86
Ġwar rant
med i
col umbia
Ġret urn
sol ute
ĠIll inois
- >
ly ing
ĠC OM
Ġde b
Ġle gal
Ġtr uth
ĠIs lam
Ġbr ing
Ġide as
Ġsci ent
ilit ary
C D
H ow
n ers
Ġs ave
nS ummary
nO rig
Ġex ter
up id
Ġch oice
nw hich
Ġ-- \
str uct
Ġdif ficult
Ġnum bers
reen et
Ġcle an
Ġpol ic
Ġapplic ations
ĠUnit ed
) ,\
C l
M ike
m ag
ou nc
Ġc ases
Ġm illion
Ġh alf
ol es
ĠH ar
nS t
Ġcl utch
Ġev ent
ific ation
ĠAT F
m iss
Ġin it
ĠC PU
ĠB D
oc ide
Ġal ong
av ior
nT hat
Ġbas is
Ġval ue
p d
Ġa ff
en ed
Ġb ill
ic a
ut tle
Ġcomp ound
Ġke ys
was hington
Ġvi ews
ortun ately
itts burgh
s ch
ou l
st ant
Ġre comm
Ġor bit
nc an
gr ad
ai j
5 1
O D
n all
ell ig
Ġout put
gr oups
nW e
Ġdri vers
Ġrun s
Ġdirect ly
Ġnecess ary
7 3
c or
d om
Ġf aster
ĠI DE
ac hing
am s
ĠP ost
nd er
Ġem ploy
5 00
> #
s et
v ms
Ġ ...\
Ġw ater
Ġp ri
ĠH ST
end s
ĠCh urch
Ġmod em
Ġdet ect
ĠGerman y
6 8
6 9
G P
m et
v al
Ġd ie
Ġn ational
ĠM R
ĠL ord
Ġsh ot
Ġal t
Ġch ance
nb y
Ġper cent
Ġper fect
Ġdri ves
Ġcar s
%*%* %*%*
ĠWas hington
Ġcit iz
n z
Ġb ought
Ġf ight
Ġm ount
ĠS ubject
ig ital
el t
ĠL aw
th is
Ġ- \
ip le
nD avid
Ġres pect
Ġpoint s
clud e
Ġlaw s
Ġgun s
J im
M U
V irginia
Ġ ident
ĠC H
Ġwh ose
Ġsu ccess
Ġ6 0
Ġnecess arily
b aij
in ator
ed eral
ĠP ublic
Ġse lect
Ġknow ledge
uc p
Ġresult s
Ġbase ball
N et
er gy
at he
Ġbe gin
ĠE arth
Ġuse ful
str onom
Ġcar ry
ĠGr aphics
Ġmed ical
Ġdefin ition
Ġbus iness
Ġsoc iety
d d
h ic
ĠS ab
Ġst ick
and er
gr aphics
ĠĠĠĠĠĠĠĠĠĠĠĠĠĠĠĠĠĠĠĠĠĠĠĠ ĠĠĠĠĠĠĠ
Ġes c
Ġfun ction
S h
v ille
Ġt ra
on est
Ġs ources
ic ed
Ġun i
nc ont
Ġinclud ed
ĠGr oup
Ġdirect ory
istr ation
%^ %^
T h
g a
k i
w orld
y es
Ġs ite
an ks
it es
it ing
ĠY OU
Ġthink ing
?? ?\
Ġext ra
Ġmark et
r b
Ġa verage
an ces
en o
Ġf urther
ac le
ĠW here
ĠO N
40 8
Ġsec urity
O B
P aul
n ic
ou is
ent ial
ĠF TP
ĠW orld
for ce
Ġim plement
int osh
ech an
Ġbel ow
omet hing
Ġrec ord
ĠAs s
Ġwonder ing
ĠUN IX
EW S
( *
7 2
A B
E l
l oad
t w
re st
ĠI R
ĠU K
........ ........
6 2
g atech
s f
Ġh ockey
ĠS im
ĠT V
ĠE ven
nw ill
pe g
Ġbu ilt
Ġter ms
Ġconc ern
Ġmention ed
Ġserv ice
Ġtot al
0 9
N S
P P
c ast
| >\
in ally
Ġth ous
st d
ĠE lect
Ġal though
ack er
du ction
Ġpart s
Ġexpl ain
urd ue
. :
a ud
e ks
t N
v in
Ġst ri
ess ion
Ġbuild ing
Ġrad io
c w
e ase
y ing
er d
Ġs ky
Ġp ain
Ġre ply
ĠM ichael
ol a
Ġr a
ct ually
ns on
oss ible
Ġfl opp
inal s
alt ech
Ġcond ition
eh ov
B ill
t R
an ies
ĠC ons
id ing
ist ry
co ver
Ġph ot
Ġplan et
Ġcomplete ly
Ġw ish
an et
it ors
it ude
Ġl ooks
Ġlook ed
Ġgu ys
Ġacc ur
Ġass oci
ĠIsrael i
arent ly
Ġchang ed
uw ait
ehov ah
I ST
n res
n pr
s ome
Ġf olks
Ġm aterial
\' ,
Ġh ouse
ĠO tt
av or
ak er
ra ight
ov ing
form ed
Ġenc ryption
idd le
ac cess
ro l
ist ent
org an
ipp ing
Ġp urch
Ġl anguage
el es
Ġ2 00
Ġse xual
Ġdis ks
ĠSt ates
Ġask ing
Ġmach ines
Ġpit cher
sg i
P R
h u
n about
r ors
Ġh ost
ĠF r
os ing
Ġab solute
!! \
Ġadv ice
8 00
F or
s i
u ucp
Ġt ax
Ġw ife
Ġs il
Ġc rypt
Ġp age
Ġp arent
op h
ast e
Ġhim self
ĠPro gram
rop ri
ille gal
+ -
7 8
M E
m ac
y le
ĠI ra
ac ing
ĠR ob
Ġdo g
nl ine
Ġact ions
Ġsur v
ĠBos ni
ĠWh ite
Ġbre ak
================================================================ ========
Ġnorm al
U E
y er
Ġs ens
Ġp en
Ġan g
Ġbe g
her n
**** **
Ġr ate
Ġcom ments
Ġex ists
nD oes
ber g
ystem s
rist ian
Ġdec ided
OR D
Ġsign ificant
uf act
Ġoffic ial
l as
u ed
u ly
Ġ ____
ĠE SP
Ġv ill
nN o
ous ly
ob e
Ġacc ording
Ġinclud es
Ġsur pr
Ġnews group
Ġclear ly
? ?\
i able
s ys
re es
Ġo il
ar les
le ep
Ġre asons
se e
Ġst upid
ĠO ther
Ġhapp ens
Ġconf ig
=== \
Ġeas ily
ĠWh ile
ĠNor th
m d
r v
ĠB er
ĠD C
ĠD ES
Ġpro of
ng o
Ġsus pect
Ġinterp ret
nOrig inator
] ,
_ \'
at ible
om ent
Ġm ist
Ġl iving
ĠB ell
op til
Ġar ms
ns ome
ere ly
Ġim pro
per ature
ps u
Ġins urance
Ġrefer ence
optil ink
7 1
7 9
S teve
X X
b in
k en
l ight
is hed
Ġm ission
Ġto ol
ic o
ac hed
ĠT O
un i
nw hat
Ġim pl
ĠY es
Ġsomet imes
Ġpol itical
Ġmed ia
Ġbatter y
Ġrese arch
ĠESP N
h ib
Ġb its
Ġm ir
Ġh yp
ĠC S
am ma
Ġst ated
ĠG u
ĠJ er
Ġal tern
ear s
Ġ-- -
enc ies
br idge
Ġcre ate
Ġenv ironment
R obert
n one
t H
Ġs at
as ing
Ġ3 4
ĠV AX
ĠUni v
nthe m
nthe re
Ġcond em
har vard
ani el
6 00
d am
h and
m or
Ġ( "
ut exas
ĠC he
ĠC ON
am ed
ĠP A
ĠP ittsburgh
ri ption
Ġst ay
Ġdec ision
Ġreport ed
|| ||
\\\\\\\\ \\\\\\\\
Ġrespons ible
Ġfig ure
rup t
B ut
E V
J ehovah
M ail
i ers
n ne
Ġt ech
om b
al se
Ġm ouse
Ġl ack
ĠS mith
ĠA g
um ber
os ition
Ġwe eks
oc al
Ġ| |
Ġwork ed
Ġstart ing
Ġeff ort
ĠCor p
.\' .\'
ĠPal estin
or ks
ad es
un der
ab les
op y
ĠN ASA
Ġreg ular
Ġinv estig
Ġcre ated
Ġdem on
//// ////
Ġbelief s
Ġfont s
ĠMY ERS
3 00
C W
h z
or ing
ar on
us c
ĠC AN
edu c
Ġr out
nd o
Ġcon cept
ĠK uwait
Ġrel ations
Ġob t
Ġbas ic
Q u
n if
t W
} \
it ic
ve y
Ġl oss
ver se
ĠM ike
Ġst e
and om
ell o
nc l
Ġne ither
ens ion
Ġrec ogn
Ġsl ow
Ġcurrent ly
? )\
O G
R eply
c d
c altech
z a
in i
Ġc ards
al ed
ĠP ower
ĠP IT
Ġcom ment
12 8
pe ed
Ġro om
ĠTh omas
press ion
:::::::: ::::::::
X T
u ge
re y
Ġw alk
en ing
ic ine
Ġin de
ĠC o
ĠD ec
ant e
tic al
gr ound
Ġpr inter
nin ter
AT ION
Ġcomm unity
ran ge
Ġac ross
Ġval ues
ĠMay be
Ġanal ysis
v ik
in ary
Ġo pt
Ġth us
Ġh um
Ġn one
ut s
ĠM od
iz ing
ĠE ast
ep hen
Ġrequ ired
. .\
a res
r im
w r
ĠS P
ĠA ng
ĠF AX
ĠH am
ĠL ib
Ġse ason
ie f
ĠArmen ia
Ġins ide
ĠAmeric a
Ġpolic y
F rom
H T
S D
g es
ĠB rit
od ies
ill er
ul f
nN ews
Ġne igh
Ġtr ouble
ron ics
Ġturn ed
epend ent
G B
c al
o om
Ġ __
ing er
Ġp i
Ġk new
av is
nw e
Ġag ents
Ġpo or
Ġdesign ed
ĠAzer baij
ĠGree k
0 6
A s
T here
U M
V MS
Ġre pe
Ġfor get
se qu
un k
ĠF ran
ĠR ad
ul ate
ate ll
ore s
Ġse par
Ġcomp anies
Ġen ergy
ook ing
Ġcont rib
ĠĠĠĠĠĠĠĠĠĠĠĠĠĠĠĠĠĠĠĠĠĠĠĠ ĠĠĠĠ
Ġser ve
org ia
Ġrep resent
P C
b ell
r aph
Ġb ul
Ġd anger
ĠA rg
il i
ĠH el
Ġhe at
ĠE l
ĠY our
np eople
Ġapp ly
Ġrel ated
nH i
Ġreason able
Ġmin or
ĠDo D
cb news
Ġdrug s
Ġcho ose
Ġalgorith m
B C
F reenet
b uffalo
l ied
r ine
in st
Ġw ire
Ġs ch
or der
Ġd ied
pp ed
ĠG eneral
um a
um n
ĠL a
av ed
nT h
ud el
Ġcol lect
=*=* =*=*
5 8
E d
m ath
n out
s m
Ġt end
ac he
ĠB ru
and vik
Ġr ange
Ġsu ffer
du ke
Ġhand le
Ġlet ter
Ġsound s
ĠComm unications
ogr aph
Ġallow ed
Ġchar acter
E K
S R
n el
Ġ ess
Ġs uper
al y
Ġp ot
Ġm ilitary
Ġh ot
nw ho
Ġim medi
Ġser ial
Ġph il
Ġav oid
ĠTur key
Ġdev ice
nk now
Ġdetail s
u unet
Ġh om
Ġn at
Ġl ic
Ġsh ows
Ġal one
Ġdis ag
Ġsc ript
Ġro ck
Ġlot s
hys ics
Ġsw itch
Ġprot ect
~~~~~~~~~~~~~~~~ ~~~~~~~~~~~~~~~~
Ġfre qu
Ġpurp ose
( "
S o
V R
u o
ar a
ĠS ter
ĠA L
ĠA b
un t
nt han
Ġr ule
Ġpl aces
Ġdis ease
nY es
Ġfam ily
ĠRuss ian
augh ter
D ave
e ast
z ip
Ġthe r
Ġw all
Ġd iv
Ġre le
ĠR ay
if fer
ni versity
Ġthere fore
nW hen
Ġbr ought
Ġbo ards
Ġref lect
ĠLabor atory
f l
l ier
n ock
s al
Ġ ^
at est
Ġc at
Ġp ix
\' .
Ġl uck
us ing
ĠP at
Ġcon ver
Ġpro ve
ap ter
ĠE v
Ġse arch
nT o
ĠIn formation
ony m
ĠAN D
ropri ate
Ġinde ed
D D
w ho
Ġs ection
Ġc oll
Ġm aint
Ġd ro
nt r
ur ation
ir m
ir ing
ist ory
ĠG reen
all ed
ell ing
!! !
Ġlead ers
cell ent
Ġweap ons
ĠSupp ort
3 86
K S
Ġ illegal
Ġp ages
ar iz
ĠS oviet
ĠM e
ĠM ost
ĠP ol
ĠW H
ĠE r
ff ice
ber keley
ov ed
nC an
nC om
Ġhand s
und red
mag nus
B IT
l ig
at ives
is es
ou nce
ar b
ĠA c
ĠM ail
ĠB MW
ĠR em
ĠH ouse
Ġex c
Ġex pressed
Ġme et
Ġcont ains
Ġrequ ires
________________________________ ________________________________
anc ed
Ġrece ived
) /
G E
H z
a ks
m osp
Ġ )\
at thew
ĠS y
ĠM orm
ĠB ox
tic les
nThe y
nl ight
Ġobject s
Ġfre ed
k t
n comp
s he
s ci
ĠS ec
Ġfor mer
ter day
ew ay
Ġsupp ly
Ġpart y
Ġshe ll
Ġgen ocide
m ap
t F
t u
Ġ ill
Ġst raight
ag ing
Ġr isk
qu es
Ġ| >
Ġcont ext
ath os
ĠTur ks
Ġtrans l
Ġcaus ed
ĠOpen Windows
S E
m ont
u ke
y pe
Ġthe ory
Ġf ather
ar ter
Ġan im
Ġd iet
ic on
Ġg one
ce ler
our nal
Ġsp irit
Ġqu ote
ms u
IL L
anc y
Ġcost s
Ġjud g
Ġtem perature
Ġtreat ment
erd ar
) ;\
> --
h ost
u z
Ġp ull
Ġan t
Ġl ate
ĠS H
us r
ĠM D
ĠD et
Ġst ates
ul s
Ġv ict
Ġch arge
ran ch
Ġcr im
Ġkill ing
Ġreport s
Ġ:- )
Ġbeh avior
ĠGe orgia
,`,` ,`,`
fess or
ĠArg ic
P I
P at
d a
f rom
m itted
p ost
t l
w ill
in et
Ġc reat
al ent
ar get
ve x
Ġg ay
ĠH ere
ill y
el come
ap ers
ess age
Ġex ec
Ġ19 91
Ġman ufact
ĠĠĠĠĠĠĠĠĠĠĠĠĠĠĠĠĠĠĠĠĠĠĠĠ ĠĠĠĠĠ
Ġass ert
Ġstat ements
OU L
aug ht
unic ation
ĠNet work
Ġcitiz ens
, \'
B rian
] :
b ased
d r
n op
p m
Ġc able
Ġb ab
ĠI T
and y
ĠL ee
ant ed
Ġ3 8
nN ot
cc ording
Ġqu ant
Ġbl ood
ON E
Ġrec ent
Ġown ers
Ġdefin ed
Ġaut omatic
=-=-=-=-=-=-=-=- =-=-=-=-=-=-=-=-
Ġinstall ed
rb ana
C on
N N
P T
S oftware
U L
b elie
e ah
n pl
Ġs ix
Ġre lease
ĠC ath
Ġyou ng
im um
ĠR AM
ĠH er
Ġnot ice
ĠO nline
Ġab ility
uc ks
nA ll
Ġrem ote
Ġpost s
Ġhapp y
Ġter ror
Ġadv ant
eng th
cle veland
Ġincre ase
Ġflopp y
onym ous
> [
K e
v t
Ġ educ
Ġc y
ar ian
Ġin put
ĠS am
ĠF re
ĠF ax
ĠP ress
ur rent
ri ef
ĠL ouis
ap an
Ġ3 7
nthe ir
cl es
Ġres ources
nm e
ny our
Ġke pt
Ġmin utes
Ġcontro ller
Ġphys ical
) :\
9 8
d is
n man
in ate
at ics
Ġs um
Ġb at
Ġth reat
ot ing
Ġg iving
ĠS chool
ĠP H
Ġr ac
Ġme ant
________ ____
Ġ19 90
ne g
ob b
Ġsupp ose
han k
Ġcall s
ĠCol orado
cw ru
U B
^ \
d on
f ort
w hat
en ry
Ġg e
Ġl iter
il s
Ġ6 4
ĠĠĠĠĠĠĠĠĠĠĠĠĠĠĠĠĠĠĠĠĠĠĠĠĠĠĠĠĠĠĠĠ ĠĠ
nh as
cr ow
Ġben ef
ariz ona
M y
a ver
f ile
h ave
m c
n up
w er
Ġw ide
en ge
le g
ic ks
Ġl ower
ĠW est
ĠW ork
Ġr ules
Ġpl us
Ġen force
Ġ$ (
oh im
Ġadd ed
Ġval id
_/ _/
ĠArab s
Ġve hic
Ġcontin ue
ĠCr amer
Ġtyp es
Ġdemon str
" ,\
G I
u it
Ġm oment
et on
ĠM ass
ĠF irst
ĠD ivision
Ġnot iced
ers ion
est ed
ĠL A
Ġcom mercial
Ġcan cer
ink ing
nw ere
nf ortunately
Ġcop ies
Ġmor ning
Ġathe ists
Ġpractic e
Ġdest roy
L B
O K
R OM
b ony
c orn
t or
u y
Ġ ----
Ġt it
or cy
is ions
it amin
Ġm us
ĠC ase
ĠM el
ig an
se ll
ĠB ur
ĠR obert
ĠN az
Ġex port
oc r
nD o
Ġ8 00
Ġ7 0
put er
Ġet h
Ġsit es
Ġexist ence
Ġequ ipment
Ġpat ients
iver se
Ġfair ly
Ġorg anization
Ġest ab
T R
p an
es ides
Ġf ive
Ġd istrib
ĠS outh
ĠA C
Ġhe ld
ĠO K
ĠE very
og er
Ġad mit
ĠSt r
rib e
Ġev ents
nl ike
olog ies
Ġthr ow
Ġfact s
Ġform ats
Ġcol ors
---------------------------------------------------------------- ----
Ġdou ble
$ $
b ul
b nr
y a
y ond
re tt
it ness
Ġf ill
Ġf ax
ar ger
Ġth read
ot hes
im s
ĠL C
Ġsh oot
nN ow
gr ade
Ġman ager
Ġbec om
ES S
ph one
Ġcr ime
sp ec
inc eton
ĠMac intosh
Ġeffect s
amp a
ĠMor ris
n ar
s ec
t G
at ab
it z
it ics
Ġb ug
Ġb urn
Ġf ood
ĠH ol
nO n
art in
ib er
Ġ9 0
enc er
ev in
Ġcount ries
Ġhist or
Ġdevelop ed
lev ant
Ġbro ad
Ġcirc um
######## ########
ĠAust ral
B R
R e
z y
Ġt ro
Ġs am
es e
ac ec
Ġl ay
ĠG reat
ĠG ood
ap ed
Ġsp end
Ġ4 4
Ġres ist
Ġplay ing
ĠInt ern
St anford
------------------------------------------------ ------------
**************************************************************** ********
Ġparent s
I AN
T om
i en
t oronto
Ġf avor
Ġf alse
ĠA LL
ĠM ore
ol ar
nd is
... ]\
Ġinter face
Ġro ad
ĠPh il
Ġunderstand ing
ĠQu est
ux a
!!!! !!!!
Ġrece ive
sy ch
Ġproduct s
Ġfreed om
4 00
A V
P eter
d b
m o
r c
Ġa w
Ġo ption
al ks
Ġm echan
ut o
ĠC ard
Ġbe yond
ĠM ont
ĠB I
ĠR oad
ur a
ist ics
Ġcon clus
Ġpro duc
ĠJ ames
hen a
Ġplay ed
Ġdec ide
Ġfull y
Ġchang es
Ġdoct or
acec raft
J on
S H
S L
l aw
n ational
p et
p urdue
t am
v i
~ =
in ks
Ġp aid
Ġm erely
Ġto wards
ĠT im
ol ume
her s
ĠD id
ĠH D
Ġhe aven
ust om
ind er
Ġwe ight
Ġj ump
ast ro
np er
uch icago
wo od
Ġset ting
Ġreal ize
Ġcour t
Ġint ended
Ġsol ar
Ġdescrib ed
ĠIra q
ĠBrit ish
A NT
V V
b eck
l ies
m id
n avy
Ġw idget
ou ri
== \
ĠF ord
ĠB ob
ĠH IV
ĠU rbana
ĠJ im
Ġbl ue
Ġplay off
Ġchip s
Ġsci ence
Ġec onom
Ġrelations hip
BIT NET
) ?
J eff
p art
at o
Ġs qu
ar io
ĠA the
ĠM any
.. ...
ĠP art
ĠW ould
ul ated
Ġab s
Ġ3 6
Ġwrit ing
Ġ4 2
ia h
Ġ5 00
Ġseem ed
Ġrec all
%% %%
Ġlim ited
Ġsomew here
O n
i us
k a
t the
z oo
Ġt ou
it able
us ion
ĠA DL
ĠF l
Ġwh ite
ir th
Ġv irt
Ġsh own
Ġj o
Ġact ual
Ġgreat ly
Ġear lier
Ġpit ch
Ġsoc ial
Ġpict ure
El ohim
A ll
H S
N D
_ -
h ood
at eway
or a
Ġf at
Ġp in
Ġh undred
et y
et ter
ĠC ro
Ġare as
Ġwor se
iv ities
Ġtr ust
Ġtr ade
Ġbel ong
nH e
Ġdef end
Ġprop he
Ġbuy ing
nter net
ĠGo vernment
ĠOh io
Ġpun ish
$ (
G S
K en
l ab
Ġc ity
ĠT el
Ġe yes
ĠM IT
Ġst ation
ĠG l
ct ions
Ġcon ference
ĠJ oe
Ġall ows
ĠK e
nm ore
Ġsee ing
Ġcomm it
Ġdef ine
Ġsur face
ĠAmeric ans
Ġsol ution
Ġarg uments
Ġobject ive
Ġshow ed
Ġdev ices
Ġdevelop ment
Ġocc ur
Ġlib rary
Ġtrad ition
Ġobvious ly
ellig ence
1 50
E ric
a ft
p in
t ar
v x
re te
Ġw ind
le m
ĠC O
ĠA tt
ro g
ag raph
ĠH all
Ġr an
ĠRe g
Ġcomp ar
che ster
az ine
Ġsl ight
ative ly
Ġfriend s
nAl so
ĠMot if
Ġdisag ree
! )\
A U
B B
N ot
R R
m od
r ough
Ġt ank
ĠB ro
ĠP et
ĠP eter
ave l
ĠO rganization
Ġv ari
ns o
Ġother wise
ask a
Ġappro ach
ĠAzerbaij an
Ġphil os
ĠSter nlight
ĠAustral ia
A ny
N EWS
f c
g ht
Ġ ]
Ġ ]\
Ġt able
Ġw at
Ġc ross
Ġn ames
ec n
Ġl o
Ġe le
Ġr andom
ĠJ oh
Ġ3 00
Ġme g
nM ark
app ed
lic t
Ġact ive
ĠAnd rew
Ġprot ection
Ġmass ac
ĠAust in
stronom y
" ?
M an
d y
n qu
Ġt ick
Ġf ac
Ġf oot
Ġm at
ic ated
Ġh arm
ĠS oc
ĠM et
od es
all enge
oc he
ast ic
Ġdis cover
ĠCh icago
Ġbec ame
AL E
ĠDe v
Ġinst ance
Ġclaim ed
Ġext reme
Ġprov ided
Ġeffect ive
ĠTr ans
Ġregard ing
nAr ticle
Ġrecomm end
corn ell
? "\
A I
R C
_ |
l av
n en
Ġ ___
Ġa ware
Ġc red
Ġb al
Ġb orn
Ġm ac
et ween
Ġl ock
ent y
ent ially
ĠD ata
ĠH art
ĠG en
ĠL ED
Ġex cellent
our se
Ġch arg
Ġ4 5
Ġsc he
nl ght
ict or
Ġbl ock
land s
Ġgener ally
nj ust
ĠSer bs
Ġdoct rine
Ġpub lished
aust in
Ġdi ag
Ġsaf e
~= ~=
H AN
i ants
l ow
in n
Ġf it
Ġd ial
Ġre ject
im a
ĠM icro
ĠB ecause
nd e
um ich
Ġev il
ite ly
Ġsc an
Ġoff ice
sc ript
velop ment
Ġrefer ences
nU niversity
And rew
ĠBos nia
Ġsold iers
Ġconcern ed
ĠHel p
G e
H e
M M
g ing
h ile
j hu
n ard
o or
p a
s k
t J
v is
Ġs pl
Ġb unch
le ton
Ġd er
ĠT e
ro ll
am b
il son
em ic
Ġst ruct
---------------- --------
ĠN C
ĠO ffice
end er
ĠV GA
ong ress
Ġ0 4
ult s
app ing
Ġsec ret
nJ ust
Ġsuggest ions
Ġdeal er
---------------------------------------------------------------------------- --\
ĠWill iam
Ġabsolute ly
> |
R I
T im
j pl
n ad
n ED
p ir
is f
Ġc ell
Ġo k
Ġre view
ĠA nt
Ġe ye
am m
il ed
ĠH EL
Ġor d
Ġcom b
ĠO T
ĠO ur
end or
ib l
ng et
ons ider
ond s
IN D
ath an
Ġacc ident
Ġfe atures
Ġcomple x
Ġyes terday
/\\/\\/\\/\\ /\\/\\/\\/\\
Ġdeg ree
R S
W ell
d emon
h old
k o
m i
m ark
Ġs oul
Ġf ly
al i
il ty
ĠR eno
ĠH aw
ich igan
ĠV NEWS
Ġapp ropriate
Ġres olution
ics son
ĠĠĠĠĠĠĠĠĠĠĠĠĠĠĠĠĠĠĠĠĠĠĠĠĠĠĠĠĠĠĠĠ Ġ
Ġpar agraph
min istration
Ġ25 6
Ġcomput ers
osp ital
Ġrespons ibility
Ġmajor ity
Ġmeas ure
M P
T r
W ill
b ed
g n
m outh
o ch
t L
w est
Ġc old
Ġf ear
Ġf ool
ĠT est
Ġre str
ĠA nn
ĠM ag
od d
el ess
nO ne
Ġar ticles
ĠK r
ĠIn f
Ġpre c
nm y
nh ad
?? ?
Ġsupport s
min ation
Ġcount er
con vex
ĠServ ice
Ġbeg an
2 50
B N
E F
_ ,
n em
t f
Ġs un
en gr
Ġf inal
id th
il ver
ĠB uffalo
ĠR el
ĠN ote
ra id
pr ism
nw hen
ĠSt eve
Ġche m
ĠSp encer
ĠMed ical
Ġtechn ology
cis co
ampa ign
! "\
A m
c edu
r ound
Ġb and
Ġp ath
Ġto ols
ĠI ran
Ġin te
as c
ay be
Ġfor ward
ĠW ord
ĠL ist
Ġsome body
Ġsp read
Ġ4 1
Ġno ise
ang ers
Ġcall ing
Ġeff ic
Ġsign al
Ġaccept ed
Ġoper ation
Ġappreci ate
Ġlim it
Ġwatch ing
CW RU
N Y
R Y
g l
g ary
n ob
r ain
w ould
Ġs ick
Ġb apt
Ġb odies
Ġd ig
ĠM ax
ĠB o
ĠP ark
ĠD el
ri a
ĠG re
ĠN J
ĠN SA
ul ed
ĠJ oseph
Ġun f
ud io
Ġ4 8
Ġcomp ared
Ġcomp atible
Ġcl osed
ond on
form at
Ġ: )\
Ġdef ense
ĠZ ion
ID S
ĠOn ce
ĠPer haps
ĠGe orge
Ġathe ism
^^^^^^^^^^^^^^^^ ^^^^^^^^^^^^^^^^
Ġfin ally
ĠIm age
( \
S S
a ith
b ook
p ol
Ġa ge
re ement
Ġs on
Ġs leep
al em
ĠP GP
Ġr ide
Ġ2 000
Ġun iverse
ell ow
uc i
Ġpr ices
Ġinter nal
ĠĠĠĠĠĠĠĠĠĠĠĠĠĠĠĠĠĠĠĠĠĠĠĠĠĠĠĠĠĠĠĠ ĠĠĠĠĠĠĠĠĠĠĠĠĠĠĠĠĠĠĠĠĠĠĠĠĠĠĠĠĠĠĠĠĠĠĠĠĠĠĠĠ
Ġpost er
nJ ohn
Ġsupport ed
ĠAd d
Ġstud ies
Ġhomosexual s
ĠBl ue
Ġvers ions
Ġpred ict
% \
D an
R ichard
V A
_ *
l an
n x
in clude
re ction
Ġs atell
\' \'
ĠT om
Ġbe at
am a
Ġfor ces
ĠP eople
ĠG al
av i
ĠV en
uc sd
nD isclaimer
ble m
OM E
erson al
AT E
Ġcur ious
Ġmor ality
><><><>< ><><><><
Ġcompress ion
alle l
Ġpri or
) -
? !
e qu
f ig
j s
Ġs ac
Ġd ark
Ġl arger
ĠS ee
ad y
ĠP en
ĠH as
and a
ĠG ay
up enn
oc ks
Ġcomp et
np re
Ġinter national
Ġbelie ved
nP ro
alk er
Ġx term
Ġint ro
ĠRes erve
IF F
Ch ris
Ġmail ing
Ġtop ic
stan bul
ĠAss oci
Ġthous ands
iffer ent
oche ster
= >
_ )
a ily
h igh
k ins
n ame
p ite
r w
Ġ .\
Ġw is
ĠT ele
Ġre ach
ĠA B
ro ck
am ent
ĠW hich
ub e
nd oes
Ġcon vers
th od
ell on
Ġup d
nD on
ĠY et
Ġ6 6
clud ing
ipp ed
Ġmess ages
Ġtrans fer
Ġes crow
ĠSc ript
Ġ` `
ĠCam bridge
Ġimmedi ately
neg ie
ĠIntern ational
A G
P H
T ER
d se
e ven
p c
Ġc and
Ġc enter
ĠT em
us es
ro it
id ents
ĠB ack
ĠR ush
ch ie
ĠD rive
ri age
Ġst re
op t
Ġar m
res p
ĠV irginia
Ġtr ack
Ġgr aph
Ġatt itude
Ġreg ister
col or
Ġprocess ing
uf l
ĠMan ager
Ġdeath s
Ġgod s
Ġlog ic
Ġarch ive
ĠDen ver
Ġtech ni
( )
- +
D T
G L
Q U
r ical
u ing
v ention
Ġt en
on et
at hena
or ters
Ġg reen
ĠC ap
ĠA ct
ĠM ichigan
ĠM ellon
ĠF rank
ĠW ed
ir l
ĠN E
os en
Ġwe ak
ĠRe p
Ġsh ipping
for ms
nc ould
Ġpr in
te e
Ġgu est
ĠQ ue
Ġreal ity
ĠCan ad
Ġsub sc
Ġpartic ip
Ġathe ist
Ġfail ed
ĠSw ed
Ġexter nal
thod ox
# :
v a
Ġt re
er ation
or ney
Ġc art
ic it
Ġh op
as ion
ĠS econd
ut k
un c
rom e
ĠD EC
ĠW AS
ri p
Ġst opp
ĠH im
Ġr ay
ĠG ant
ĠN HL
Ġat mosp
Ġk ids
ond a
Ġshould n
Ġfe et
Ġposs ibly
Ġcre ation
ĠAm iga
Ġexp ensive
Ġesc ape
D A
T M
h al
i ast
p y
v an
y ear
er en
le ar
Ġd istribution
ĠC ould
im ately
ĠM ust
ĠM icros
il er
ĠD igital
ab s
nS teve
os ite
ĠO ver
oc ent
IN E
ik es
ĠPro fessor
ĠAny one
Ġtechn ical
Ġdanger ous
Ġwire t
Ġadvant age
Ġenforce ment
ĠBI OS
/ *
I SA
O F
U SA
b and
e ace
m al
t O
w indows
Ġ ~
in it
Ġw oman
Ġb ott
Ġto wn
Ġan onymous
Ġl ed
Ġon to
ad ing
ĠM ath
ĠM arch
ĠO k
ain st
Ġcl os
man n
ang ing
ĠTh us
nE x
Ġstand ards
Ġdet er
ĠPh one
po int
ĠNe ed
U F
U P
l cs
s en
w isc
Ġ ur
al ty
ĠS ur
ĠT art
ĠM os
ĠD ie
nd on
ĠG O
ĠG ateway
ĠL y
ĠL td
ĠK en
... )\
Ġpo ly
Ġsc rew
nW hy
Ġco ol
Ġfr ame
Ġprov ides
Ġansw ers
ĠPh ot
Ġexper im
ĠĠĠĠĠĠĠĠĠĠĠĠĠĠĠĠĠĠĠĠĠĠĠĠĠĠĠĠĠĠĠĠĠĠĠĠĠĠĠĠ ĠĠ
ĠDavid ians
ĠCar negie
Ġmov ing
Ġorg an
Ġla unch
Ġimag ine
Ġscient ific
. /
F C
F rank
G reg
P A
S V
Y es
b ig
g ate
h ard
o ber
s r
** *
ĠC all
ay ne
ad el
ig ion
ĠU l
Ġcon version
Ġcon duct
ni e
Ġsp ort
nb elie
nl ess
port s
Ġet ern
omosexual ity
ĠEng lish
Ġkey board
gy pt
Ġviol ence
Col orado
Ġconv inc
Ġdeg rees
Ġnat ural
ĠCath olic
C an
M O
d ro
e ing
g reen
m u
r ick
u ate
x x
on ly
is er
Ġc apt
Ġc amer
ar son
Ġd ate
ic ing
ĠS IM
am ental
ĠR ec
ĠR ichard
ĠP re
ĠP ar
ĠD X
ĠH istory
est ing
ĠL ike
Ġpro b
Ġsh ots
ns c
Ġsp acecraft
ci ent
Ġ/ /
Ġgreat er
Ġsell ing
athe w
Ġbegin ning
_\' _\'
Ġrele ased
( &
( .
, ,
B ob
b c
c f
c ks
h a
l o
p itt
t here
Ġd ream
Ġin str
ĠC ity
ĠA M
ĠD O
ag ement
nS ome
ĠO b
nM ichael
Ġle ague
ell er
ĠV ersion
act ive
Ġapp arently
Ġread y
Ġac celer
mit re
Ġenc rypt
ĠST EP
Ġhear ing
Ġbro ken
Ġcaus es
stan ces
Ġsurv iv
ĠBosni an
Ġobt ain
Ġpi ece
G M
U U
i as
m ar
w am
x c
ar ab
ar ms
ut r
ĠC ongress
im age
Ġwh om
ĠH ard
Ġr are
ul ations
Ġv itamin
Ġsh uttle
oc us
ry ing
ns upp
Ġ0 3
... "
Ġ5 1
Ġ6 5
ci ples
Ġper form
ps y
AT H
---------------------------------------------------------------------------- ---\
OO K
ĠAng eles
Ġtit le
B D
a q
m pt
n att
w m
Ġw aste
es c
Ġp an
Ġl ose
ĠM erc
Ġst ock
ould er
Ġr ational
ĠG et
ĠO R
ns p
Ġun to
ra ham
Ġknow ing
Ġpl at
ens ions
IN S
ign ed
nC l
Ġact s
nH ere
Ġpoint ed
Ġhel ps
Ġrem ove
Ġposs ibility
Ġput ting
AS E
Ġsecond s
ĠAt l
Ġopp ortun
ĠSer b
ser ver
Ġserious ly
Ġdam age
Ġpurp oses
MH z
Ġimpro ve
Ġsepar ate
) :
* ,
* .
D on
S X
T C
d ie
r ation
u u
u ction
u ok
w ar
y an
Ġt arget
Ġb rief
Ġh y
Ġbe ar
am ps
ĠD is
Ġk ing
Ġv ote
end ment
Ġne g
Ġhas n
act s
Ġ0 2
Ġad vert
Ġag encies
Ġpo ll
The y
ĠDe velopment
Ġkeep ing
Ġer rors
Ġpress ure
lor ida
fe ld
ĠBru ins
> -
G od
H A
M C
S erdar
W hy
b b
i ation
j a
l ong
l ock
er g
Ġs orry
Ġf ederal
Ġm iddle
Ġfor got
ĠB oth
ĠB rian
ĠR on
ĠD ave
ĠD IS
Ġst range
ab it
nd et
Ġk id
Ġar med
ĠJ eff
Ġ3 9
ase ball
Ġcl ock
ĠĠĠĠĠĠĠĠĠĠĠĠĠĠĠĠĠĠĠĠĠĠĠĠ ĠĠĠĠĠĠ
Ġpre p
ĠYou ng
Ġbr other
Ġte le
az ing
Ġold er
Ġauthor ity
Ġcult ure
Ġvis ual
Ġaf raid
Ġinit ial
Ġtro ops
. ;
< \
E Y
I U
N A
P ro
m isc
p g
v est
w a
z uma
Ġthe ism
Ġm ax
ĠM iller
ch ange
ĠW ings
em y
Ġst ar
ĠG R
Ġpro ceed
Ġpro cedu
Ġany where
nw ork
Ġman ip
ER Y
ild ren
ah a
Ġpar an
nG od
Ġstud ent
ify ing
Ġenc our
Ġmult iple
iction ary
Ġvol ume
Ġcent ury
know n
ĠMot or
ĠCle veland
Ġaltern ative
mor al
atab ase
" "
" ?\
T V
a uc
Ġt ap
Ġa head
is l
Ġp ure
Ġp riv
Ġm ember
ĠI SA
\' .\
ĠT er
us enet
ĠA IDS
ĠB ig
ect ions
ĠH ell
ĠH igh
ĠL os
Ġch ann
ra ke
act ions
ick ed
che m
Ġmost ly
ey er
ĠDe f
Ġinf ection
Ġind ependent
ĠSci ences
Ġpass ed
vious ly
Ġexpl an
cher s
Ġconc er
OP OUL
Ġcover age
Ġparticular ly
Ġmother board
ĠSat an
Ġhum ans
Ġpot ential
HAN OPOUL
ĠMicros ystems
ĠSTEP HANOPOUL
ĠSTEPHANOPOUL OS
( $
) )
0 12
I E
M ac
M icrosoft
S te
b ox
i ant
j et
j oy
m ers
p at
u ins
in er
Ġm id
Ġm ill
Ġd rop
ig ns
ĠF in
Ġr ound
Ġsh owing
ther net
Ġup grade
Ġqu al
Ġthan ks
ĠIn st
Ġact ivity
Ġact ivities
sh ip
ĠPro p
Ġinc ident
ĠAd v
Ġeas ier
Ġexper i
ĠBl ack
ĠPl ay
Ġpat ient
Ġed itor
ĠAn other
Ġimp ossible
nun der
Ġquot ed
( @
D oes
G ary
H H
I O
T hat
W I
k it
n ext
n comm
r ice
t el
w pd
Ġ ult
in f
Ġw itness
Ġb ar
Ġf elt
Ġl ie
ĠT ech
se as
ĠB OS
ĠP ort
ri ll
:\ \
Ġpro duce
Ġus ual
ĠO ut
vers al
ra ig
Ġ4 3
Ġpl ug
ip e
Ġ19 88
Ġcl in
Ġag ency
ne v
.... .\
Ġperson ally
Ġcol our
nn o
Ġconsider ing
ĠBr aves
zer o
Ġlevel s
Ġign or
Ġbur st
ĠEurope an
Ġvers es
ibl ical
> *
B P
U I
e ared
w orks
in sey
Ġm ut
Ġh at
Ġin struct
Ġl ived
ĠT wo
Ġre ar
Ġst ore
Ġr ot
>> >\
ĠL ORD
Ġk nock
ach ine
Ġass ist
Ġbr ain
bert a
Ġarg ue
Ġview er
Ġsmall er
Ġequ al
ĠPr ot
Ġmiss ing
arks on
nsh ould
Ġdocument ation
Ġpict ures
%^%^ %^%^
ĠOtt oman
Ġhyp othes
tam u
ĠVen us
ĠDie go
) ;
< >
B A
E ng
G G
J ames
f ric
g w
n ac
r s
y our
Ġ ..
on der
Ġw elcome
ar o
Ġd im
Ġfor ced
un ning
ĠR ochester
Ġas pect
ĠO nt
Ġv oice
ĠJ ud
ĠJ une
art mouth
gr aph
ĠSt an
Ġ5 5
Ġevery body
Ġfact or
ĠSp irit
Ġdr ag
ĠOr ig
Ġstud ents
Ġteam s
Ġfeel ing
ĠSc ott
97 60
Ġappro x
Ġoffic ers
Ġnear ly
ĠUs enet
Ġshare ware
Ġopt ions
ili ar
# |>
C L
N R
O H
S p
S ome
U D
c am
g ar
g ood
r id
Ġt om
in fo
Ġs em
or rect
Ġb ud
Ġb oy
ic ide
Ġn ation
et c
Ġl ink
Ġl ength
ol ver
pp ing
Ġr am
Ġhe av
ĠL ev
ĠO H
ĠJ apan
Ġ0 5
Ġad just
rib le
ount er
Ġser a
Ġfl ame
Ġprogram ming
Ġro ads
Ġte ac
ĠPro ject
rit er
Ġdirect ion
ĠBl ues
Ġeng ines
Ġconn ection
( \'
R T
V GA
b an
c ord
h as
h aw
n use
Ġ :\
in ated
Ġb ag
Ġp us
le e
Ġth y
Ġh itting
Ġh onest
Ġl atest
ĠS on
ow ers
ĠC y
ad en
ch i
Ġsh if
Ġ4 6
nb ecause
Ġcont rad
ug a
ens ity
Ġsc r
lic ations
Ġcomm itted
Ġass ault
Ġfe ed
Ġro le
Ġte aching
Ġset t
nbe en
Ġdep end
Ġcirc uit
Ġrid ing
rv ine
Ġsat isf
ĠMorm on
1 10
B L
F M
F O
H Z
N C
l oo
r aries
Ġs itting
it imate
es is
Ġc ustom
Ġd ow
ĠI rvine
Ġ\ \\
ut her
ĠA ug
ĠA ccording
ro chester
ĠM B
ĠF ather
ĠD un
ĠD irect
em ory
pp le
ĠL ondon
nM ike
ĠK h
Ġdri ving
Ġgu ilty
Ġatt ention
ok state
ĠOn ly
St ate
ĠII I
Ġsuggest ed
Ġspecific ally
rel ated
Ġmot orcy
ĠAN Y
Ġprint ing
Ġpresent ed
Ġentire ly
Ġload ed
Ġaddition al
kt op
. *
F R
T ur
d m
r as
Ġt ear
in ing
Ġf uel
Ġh our
ot es
Ġl ies
Ġl ists
ĠS en
ay lor
ĠB onds
out s
ir sch
ĠN ich
Ġcon stant
ĠE gypt
Ġab use
res h
ĠJ an
Ġbut ton
Ġwor ry
Ġun it
nc su
Ġcomp on
Ġcl ient
Ġres ol
Ġsc ore
de v
Ġcons ist
AR T
Ġset up
Ġbas ically
Ġreg ion
Ġter rit
Ġtell ing
ĠSun day
Ġsol id
LI P
Ġproper ty
Ġphys ic
des y
wh ile
%*%*%*%* %*%*%*%*
======================================================================== ====
Will iam
utr ition
@ @
P EN
d ri
d cs
e o
i h
r ated
Ġa chie
on ian
Ġw ood
ou ver
en ix
Ġc s
st ation
Ġin j
ĠS ox
ĠC up
ĠR oy
ol f
ol t
ab or
ĠU n
ack ard
nN ew
ex ts
Ġtr ick
omet imes
Ġfl ames
Ġx v
isc uss
Ġkind s
iam ond
Ġocc up
Ġdam n
Ġdraw ing
Ġquick ly
Ġdeb ate
Ġvill age
Ġmist ake
Ġpix el
Ġatmosp here
) ?\
, -
G H
P r
V T
s ig
t em
Ġ ==
Ġt el
er icsson
et her
Ġg ar
ĠS al
us sell
Ġre ve
Ġe at
ĠB ranch
ĠR AN
ĠP sal
)\ \
ĠD ET
em an
Ġst ored
Ġpro fess
nO h
ĠO ld
all s
ast y
ak h
aw a
11 1
ple te
olog ist
Ġmod els
Ġinf lu
Ġ+ \
Ġspe aking
Ġlist en
Ġhigh ly
Ġlight s
Ġopp osed
Ġdist ance
Ġcorrect ly
Ġrespons es
Ġfollow ers
Ġproper ly
Ġign ore
Ġmult i
Ġtot ally
Ġsus p
Ġhor iz
Ġprim ary
Ġemploy er
ĠFran cisco
Ġhistor ical
Ġslight ly
Ġdiscover ed
D o
D isclaimer
E x
I B
b d
b ach
c unix
d oc
n ind
} !
Ġ ****
Ġs up
Ġs ides
Ġs aved
es h
es ley
Ġc dt
ĠI NT
ot ed
Ġl i
ĠS ale
Ġre action
ĠC hem
ro c
ĠF lorida
ĠR ose
ĠD avis
ĠH i
pp er
Ġr aid
ĠG iants
ul ous
ard ner
pr ise
Ġcont ract
per t
nH ello
Ġatt rib
ater loo
sp ace
Ġdiscuss ed
Ġpos itive
Ġfa ult
Ġdoct ors
Ġbur ning
Ġindividual s
Ġsaf ety
ffic ient
Ġinn ocent
Ġ; -
Ġmanufact ur
Ġbat ting
Ġinte gr
iast ate
# @
( /
9 00
A E
A F
P M
_ .
c ore
p re
t c
he st
Ġp aint
Ġm ale
le tt
ĠS ALE
ow ell
ad ra
ĠB u
ĠB UR
ĠP an
ur ches
ag le
ĠG az
ew ish
Ġor ient
ĠN umber
\\ /
ĠJ anet
ĠRe v
hing s
10 1
Ġ7 5
ĠAr ch
nThe se
nl oad
Ġsupp orters
Ġown er
Ġbr ight
Ġ= \
Ġind ust
Ġspe ech
air s
af s
Ġtell s
Ġlist ed
St ephen
anc ouver
ĠĠĠĠĠĠĠĠĠĠĠĠĠĠĠĠĠĠĠĠĠĠĠĠĠĠĠĠĠĠĠĠĠĠĠĠĠĠĠĠ ĠĠĠĠĠ
Ġexist ing
ĠComm unication
Ġchang ing
Ġdist in
Ġpop ular
Ġinvol ve
Ġfollow ed
MH O
nHow ever
++++++++++++++++ ++++++++++++++++
Sc ott
Ġevent ually
Ġpurch ase
ĠPalestin ian
ĠOnt ario
% ,
+ >
C O
D oug
d own
n ec
u a
he ther
re ply
Ġw eren
Ġs ales
Ġs ession
Ġb omb
Ġm er
ĠM ess
un ction
ĠB en
ĠP as
ĠD i
od ay
el lect
el son
ĠG ar
oc aust
ack et
Ġapp lied
cs d
ech o
Ġ/ \
ny x
Ġcomm ands
Ġpar allel
nal so
meric an
Ch rist
Ġthought s
Ġprop osed
Ġsend ing
uh r
car leton
ĠXV iew
Ġtur ns
ĠRad io
uls ion
Ġvehic le
olver ine
" !
K E
O Z
T E
h m
n ell
n int
o it
p ower
w ord
w right
al og
Ġp sych
Ġm al
Ġm isc
st ood
Ġl aser
ĠT R
ent ed
ĠA fric
un s
ĠF e
nt ime
nt ze
ect s
Ġr ates
os lav
ĠE xt
ant is
Ġsh ut
Ġun like
ud es
nc r
Ġen joy
Ġgr ace
Ġback up
Ġrem ain
AR D
Ġfoll ows
Ġsur round
let ter
Ġmiss ed
nes ota
Sc ript
Ġmount ain
ĠPalestin ians
Ġrecogn ize
Ġmus ic
mid way
Ġtou ch
Ġstopp ed
+ =
P D
U ST
V S
l og
m ind
n ab
r ate
Ġ zero
or th
it ob
Ġh urt
Ġh uge
ot hy
ac ement
ĠS E
us alem
ro se
ĠM al
out hern
Ġst reet
Ġr at
Ġr ace
---------------- ------------
ĠU se
Ġpro gress
Ġar rest
Ġde ep
Ġwor st
Ġ4 7
Ġpl ain
Ġ19 89
Ġ/ \\
te k
ĠĠĠĠĠĠĠĠĠĠĠĠĠĠĠĠĠĠĠĠĠĠĠĠĠĠĠĠĠĠĠĠ ĠĠĠ
nB ill
Ġread ers
ock et
ĠHe b
ĠHe alth
Ġdec l
EN D
Ġwhe el
ĠTr ue
nth ink
Ġmen u
Ġelect ric
Ġaut o
Ġjud ge
Ġut ility
ĠMat thew
ugg est
Ġmar riage
Ġaccur acy
ĠCON V
Ġpunish ment
Ġdiag n
itob a
( #
. ]\
S W
b is
c v
n act
r um
Ġn amed
ĠS i
ĠC oll
im al
ĠM AC
ub vms
ĠH a
ew lett
ast ern
ak ers
nw r
Ġcl ipper
ug oslav
the m
12 0
ious ly
Ġdef ault
ah l
Ġmod ern
AN D
pect ive
Ġcr ack
Ġstart s
Ġnum er
su pp
Ġph r
Ġgener ation
ĠTh ose
Ġtrans mission
col orado
Ġorder ed
Ġplan ning
Ġdefin itely
Ġconn ected
Ġmove ment
Ġschool s
Ġann ounce
Ġfore ign
ĠIslam ic
ĠCons ult
Ġconfig uration
Ġneigh bor
Ġbul let
Ġlic ense
ĠSoc iety
B l
I stanbul
J oseph
M D
P hil
S Y
V iew
a o
n ight
r he
s ure
u ation
y ale
re p
re ally
re quest
om ans
Ġp hen
Ġm hz
Ġto ward
ot al
Ġg ain
ĠT IFF
ĠA lex
ĠP age
ur ies
ist or
ĠU nfortunately
Ġpro f
ĠE mail
ud d
Ġsome how
Ġne got
Ġ* /\
Ġ0 6
ip her
nb etween
Ġ6 8
10 2
nC he
nin to
Ġbl ame
Ġfl at
ph a
Ġsec ure
Ġgot ten
Ġmin ute
ĠCon stitution
Ġtest s
.\' \
new ton
Ġrid ic
ĠAg ain
Ġinvestig ation
Ke ith
ĠHEL P
Ġexplan ation
# $
A H
P l
R ob
U V
U X
W D
Y Z
e lect
f id
g est
m os
n Z
w at
| >>
Ġb attle
Ġf rank
Ġp le
ic ial
et t
Ġl atter
ĠT CP
ut oronto
Ġbe aut
ĠF ree
ĠW alker
and al
Ġr ape
ĠL ook
oc ol
Ġsp ent
Ġno body
ĠSt reet
ĠIn str
ach us
aw are
ci ous
Ġcar ried
25 6
Ġfind ing
Ġcur s
ĠSh uttle
no ver
Ġpack ages
IM E
hem atics
Ġdem and
Ġlib ert
ĠComp any
Ġterm inal
ĠMed icine
Ġwait ing
Ġlearn ed
ĠStud y
Ġfight ing
Ġvill ages
pan ix
ĠSwed en
ĠMust ang
! \'
" \'
: /
A t
L C
T ION
b a
b ecause
k in
m cc
n ass
r ational
z en
is ual
ou ston
Ġb other
ing u
---- -\
ĠI L
Ġh all
ĠS GI
od ing
ct r
ort hern
ĠSt and
Ġag reement
Ġ6 1
Ġgr ow
nC ont
Ġrel iable
ĠĠĠĠĠĠĠĠĠĠĠĠĠĠĠĠĠĠĠĠĠĠĠĠĠĠĠĠĠĠĠĠ ĠĠĠĠĠ
Ġrem ains
Ġpower ful
Ġstr ate
br own
Ġaccept able
Ġdep ends
Ġcheck ed
Ġbatter ies
nCh rist
stan ford
Ġaf ford
Ġsomew hat
aud i
dse g
uok nor
ĠMotor ola
Ġhypothes is
* )
1 12
B O
D e
I nf
T A
t V
w hen
Ġ ice
in ity
re he
Ġs n
or f
Ġo l
Ġm o
ar p
ic ation
as i
as y
ĠS uper
ĠM ex
ĠB ar
ĠB ab
ĠB ull
ri x
ĠH it
ill ed
nd ec
ĠN ove
Ġcon sequ
Ġ- >
ĠJ ose
ĠJ ack
ĠJ ones
ian ce
ĠK insey
ra wn
ug hes
ons in
Ġcons istent
Ġrem ind
ph as
ĠPro duct
isc onsin
Ġstat s
Ġfire d
Ch ristian
Ġlead s
ĠQu ick
mp ire
Ġsy mpt
Ġfig ures
ĠRuss ia
ĠDes ign
Ġobserv ations
Ġperfect ly
****** *\
ĠDet roit
resp ond
Ġetern al
. ?
2 14
4 86
> \'
@ $
D R
N ow
N OT
U ser
W S
_ \\
b ec
e very
s ale
w s
Ġ ??
he ll
it che
al aska
Ġp ur
---- \
le ment
Ġth inks
st at
ĠC AL
ay ing
ĠM iss
ig el
se mb
ĠB as
ĠB el
ĠB ook
ol en
ub ble
ĠH onda
ĠH irsch
ĠH ewlett
com ing
com pl
ĠG old
ĠL E
Ġcom fort
ĠE qu
ain ts
res ents
Ġcont ain
Ġgu ar
Ġfe ature
IT H
ĠAl though
Ġph ones
Ġinst it
ĠSp ec
Ġ\\ /
ok es
Ġcop s
Ġdet erm
ger y
Ġcare fully
Ġprop os
IG S
nus ed
Ġsitu ations
Ġcap able
reed om
Ġfund amental
Ġdom ain
Ġneigh b
Ġbecom es
Ġsche me
Ge orge
Ġopportun ity
" ;
. -
. [
@ &
J S
K ey
U s
b al
b us
e ed
e ous
g i
l ook
r us
s omething
u ous
w yer
Ġ ump
Ġt anks
in y
Ġs an
Ġs al
Ġb ull
Ġan cient
Ġg ear
ĠS u
ow a
Ġe ight
ĠM ount
ĠM ars
il ing
ĠR ight
ĠR angers
ect or
Ġdo s
est ine
ap y
ĠO l
th s
th an
Ġex erc
Ġsu icide
ns omething
pl ing
Ġpl aced
Ġcomp are
Ġtr uly
Ġim m
Ġpr inc
np ar
nb ack
Ġback ground
cept ion
ru ce
rit es
stand ing
AC E
tr ans
Ġauthor ities
Ġhold ing
ĠAtt orney
ĠBUR NS
ĠCONV EX
( (
2 12
> ,\
C I
F I
J ust
] .
c alled
j ud
k es
p u
r and
t and
v s
w ere
Ġm ap
Ġm ix
Ġm atch
Ġm oon
Ġd ivision
Ġd aily
st ar
Ġin fer
Ġ( )
et ing
et ts
ĠS l
ut er
ĠF eb
ĠR S
ĠR OM
ĠW IN
ĠW ILL
ĠW isconsin
ĠH uman
ĠH oly
iz z
um ing
ĠL in
th ink
ĠV an
Ġman ner
ne very
net h
Ġ8 5
pe aking
enc ed
ict ed
Ġhard ly
ru ction
ĠThere fore
bit net
Ġstat us
by tes
Ġbo ot
Ġpass es
Ġloc ation
Ġlead ing
Ġsw it
bl ue
Ġfun ctions
AP H
ĠSe attle
Ġexpect ed
Ġrepl ies
II I
Ġprim arily
Cl ayton
Ġtra ffic
Ġthous and
Ġaccur ate
ĠBosni ans
Ġcondem n
ĠJoh nson
ĠGre ece
Ġsatell ite
achus etts
D C
F ree
M atthew
O ne
W M
_ +
c ott
m ax
m icrosoft
p eople
er i
or acle
Ġc atch
Ġc ache
Ġb irth
us erve
ĠA nal
ĠA stronomy
ĠF er
ĠF ile
ĠP ens
ke e
ke ep
if ies
ĠD oug
Ġst eve
od ak
ĠH ave
Ġr ich
Ġany more
ak ed
np h
ov es
oll and
Ġoff ers
Ġrel atively
================================ ================
Ġsl aughter
Ġ24 1
IC E
Ġexam ples
ĠEng land
Ġsuggest ion
ĠPl us
Ġprot ected
Ġcond itions
IG HT
Ġlib raries
Ġrad ar
ĠRE AL
Ġanal og
oint ed
Ġcal c
ĠSab res
Th omas
Ġra ised
Ġcrypt o
Ġrepe ated
Ġjudg ement
Ġbenef it
ĠCanad ian
Ġconvinc ed
- *
H I
K A
M b
N J
T U
Y Y
Z Z
b ar
i ency
m ir
m all
n his
n old
t ies
t echn
v v
Ġt ort
Ġs ad
it is
Ġg amma
ĠC at
ĠA R
im ore
ĠM E
Ġ1 80
nt hen
ĠB oulder
Ġst uck
ĠH al
ĠH ill
ĠL ast
ĠE li
Ġsh it
ort ion
ĠV ideo
Ġpl ans
Ġcl ients
np at
Ġgr and
nh ow
Ġdes pite
Ġcr ow
OR S
Ġthrough out
Ġsur vey
Ġint ent
Ġem ot
Ġconf lict
alt imore
non ly
ĠQu adra
Ġconc ent
Ġdesc ription
Ġcover ed
Ġred uc
Ġleg isl
Ġfil ter
miss ions
Ġstri ke
.\'.\' .\'.\'
ĠRem ember
Ġcrim inals
Ġautomatic ally
ĠNaz is
Ġbroad cast
Ġplayoff s
ictor ia
ĠWilliam s
Ġdeter min
ĠRAN CH
( %
/ -
B H
F T
H O
J F
N U
V I
d oes
e z
f s
r ast
w ers
w ust
z ger
Ġt or
Ġw ave
Ġc ir
al so
Ġp al
Ġp apers
le te
le land
ion e
Ġh am
ĠA ut
il omet
il ton
ĠP oly
if ul
iz er
nS h
ĠG il
os is
Ġcon ce
ĠL im
ĠE X
ĠE ll
ĠE mpire
ry an
Ġup grad
nA ctually
nw here
ax y
Ġ9 5
13 0
nre g
ren ch
nJ im
Ġche aper
min istr
Ġclaim ing
sp ot
Ġtri al
Ġcontro ll
ĠEx press
Ġoper ating
#> #
Ġrepl ace
Ġmov ed
Ġindic ate
Ġweap on
ĠBer keley
ĠSec ret
mont on
Ġconclus ion
Ġstruct ure
Ġprec ise
wust l
& \
/ %
2 15
< &
= "
O X
P G
T I
i os
j p
o oth
w idth
or age
Ġb an
Ġb rake
Ġf if
Ġp p
Ġm os
st ein
ĠI ns
ac su
ut ter
ĠC arl
ĠA ri
Ġe p
ad obe
ĠR GB
ĠP hysics
ĠD an
ĠW on
ag on
ĠG ame
ĠThe ir
Ġcon stitution
ĠE ric
ĠE ISA
Ġse at
Ġv ir
our t
Ġsh aft
art s
cc s
nA t
Ġqu iet
ĠSt anford
Ġ5 3
Ġ5 6
nb l
ov en
lic ation
ĠĠĠĠĠĠĠĠĠĠĠĠĠĠĠĠĠĠĠĠĠĠĠĠĠĠĠĠĠĠĠĠ ĠĠĠĠ
Ġbl ind
Ġdes ire
Ġfl oor
Ġro ll
erv ed
Ġgener ate
Ġrep resents
ĠLe ague
uf fer
ĠMc C
eral d
ĠInd iana
Ġ** *
Ġnorm ally
Ġexter mination
ounc ed
psu vm
|||| ||||
ĠMass achusetts
Ġcircum stances
ĠMont real
ugoslav ia
Ġphen omen
/ "
: >
= $
= &
@ !
@ :
C F
C MU
H Q
M Y
N F
d el
h art
l oop
m un
m ond
r pi
Ġt ight
Ġs ter
Ġs we
Ġb ob
Ġp atch
Ġl it
__ \
Ġ1 000
il ers
il ley
ĠD iamond
ter osexual
ag ers
ag ate
ĠH an
ĠH ay
Ġr ough
op hy
est s
ul k
ĠL og
ĠL ong
Ġar r
ĠJ ays
our ne
ne ven
^^^^ ^^
Ġinter net
Ġfe e
OR E
nG e
Ġte ach
mit tee
ren ce
Ġwar ning
Ġrelig ions
Ch arles
Ġaddress es
po ly
ĠEx p
Ġrepl aced
<< <<
ĠCent ris
Ġinterpret ation
Ġliter ature
Ġeth nic
Ġtick et
ĠAtl anta
Ġclin ical
ĠHeb rew
P h
Q W
R D
T T
W hen
^ ~
_ (
e pt
e gr
n very
p hys
s n
t E
x y
Ġa x
or row
Ġp ark
le ts
ĠI MHO
ĠS orry
ro d
ro om
ĠF uhr
nt ian
ĠB apt
ur b
ĠW ilson
com sa
nd ifferent
Ġ" ...
ĠG T
Ġhe avy
nI nternet
os rhe
nO r
Ġwe ar
ĠRe ad
nM Y
Ġal ive
pl ays
ĠV ol
ure ntian
nA re
Ġcl ar
ne ver
Ġapp s
Ġgr ab
ĠAr t
nre m
af ford
orm al
ertain ly
ĠSci ent
Ġlead er
Ġtest ed
nth ose
IV ID
Ġoper ations
Ġwin ning
Ġdoc uments
Ġposting s
Ġprint ed
Ġcap ital
Ġtw ice
Ġassum ing
ĠMin nesota
:- :-
ĠPost Script
Ġsurpr ised
Ġant ib
Ġestab lish
Ġextreme ly
Ġchem ical
Ġeffic ient
ĠAug ust
ĠHirsch beck
2 20
A ST
C T
F G
F L
H N
H P
S oviet
T hanks
b on
c ons
g el
h ouse
n av
o com
r idge
s peed
in cluding
Ġb order
Ġm ad
st ers
Ġh ang
ĠS et
ĠS anta
ad ley
ad emic
ĠM o
un is
ri er
---------------- \
Ġhe n
Ġdo ll
Ġcon str
Ġpro hib
ess ions
Ġse qu
up iter
ni peg
ns ystem
nc ar
ail s
Ġim ply
Ġim pression
Ġ19 20
ĠSt ep
ĠCh ip
ĠCh allenge
Ġ6 3
aw ay
10 4
nm uch
11 5
Ġsin s
Ġmod er
Ġmod ified
Ġac id
Ġset s
Ġdisc rim
Ġend s
Ġcare er
ĠJust ice
Ġmag azine
ĠCent re
Ġobserv ed
Ġrecomm ended
ĠIR Q
ngo vernment
Ġmir ror
Ġess entially
Ġburn ed
ĠScript ure
Ġsurviv ors
$ \'
4 000
A d
D ate
D aniel
S O
T ime
Y R
c up
i ac
k ind
n read
s uch
w d
w ave
Ġt alks
or por
Ġp g
Ġto ss
Ġh ook
ec es
ĠS UR
ĠT X
ĠT EL
ĠA D
ĠM ake
ĠB E
ke l
ĠD ay
Ġst one
======== ====
Ġch urches
ns uch
Ġapp eared
ob by
nm ake
Ġ# \
Ġmod ems
nof f
30 1
Ġpass age
nr ight
ID E
ID ENT
eng uins
ĠAT I
Ġpos itions
Ġfun ny
Ġvar iety
acks on
nCh ris
Ġexcept ion
Ġpers ons
Ġassum ption
Ġpray er
=*=*=*=* =*=*=*=*
Ġmaint ain
Ġdistrib uted
_* _*
Ġconvers ation
Ġbott om
psy ch
Ġchann el
Ġdeterm ine
^~ ^~
- \'
- +\
4 15
@ \'
_ ?
c it
d g
f irst
h ol
m uch
t hen
Ġt im
Ġt actic
on na
an na
or ter
it a
om a
al ing
Ġm c
Ġd ictionary
st e
Ġh ack
Ġh ole
Ġl if
ĠS up
ĠS audi
ĠT w
ro ad
id den
ĠM en
ĠM ur
ĠM ult
am ple
Ġ1 50
ĠB iblical
ĠD em
ub c
ĠH op
nS orry
Ġr um
nd ef
op in
ct or
nO f
nL et
Ġsh ape
Ġj ournal
nM S
Ġch ain
Ġmy th
nT hen
ak land
Ġpl ate
Ġpl astic
Ġdis put
nA fter
Ġ5 2
ug s
nR eg
OS T
ĠĠĠĠĠĠĠĠĠĠĠĠĠĠĠĠĠĠĠĠĠĠĠĠĠĠĠĠĠĠĠĠ ĠĠĠĠĠĠĠ
Ġour selves
Ġcons um
nG m
ĠCl ark
Ġadv oc
stand ard
ĠCol umbia
65 8
Ġhuman ity
ĠAm es
Ġequ iv
ĠLe afs
npro gram
bur g
Ġvis ible
Ġfam iliar
ĠPR ES
Ġmethod s
gun s
Ġquot es
ounc il
Ġassoci ated
eles c
ĠFr ance
Ġspirit ual
Ġcrim inal
ĠStr atus
ĠRush die
Ġencrypt ed
Ġhen ry
" :
( +
2 000
2 25
@ *
K B
P N
Q R
U K
b oy
c ult
h h
i ate
j o
n quest
r aphics
s im
t is
w w
z z
Ġ ri
Ġ !\
he ld
Ġb ank
om in
Ġf irm
Ġd igital
Ġin h
as hed
ec s
ĠS ure
ĠT in
Ġre levant
im ed
ĠM a
ĠM us
se arch
ch arge
iz es
Ġr ing
nd id
ĠG ulf
ĠN ET
Ġbut t
Ġsh ip
Ġsh ift
ort ed
Ġsu fficient
pl ace
ĠV A
fer ences
Ġ5 9
Ġpr ison
ĠIt s
10 5
10 6
ĠAr my
nP aul
che my
de e
Ġatt acks
Ġmon itors
bo ards
ok ed
ĠSun OS
IL E
nbe fore
ĠII si
bl ing
tI f
AD ME
ling ton
Ġgl ad
Ġport s
Ġoffer ed
bu ild
ĠMary land
Ġcivil ians
Ġmanual s
ĠJer usalem
Ġrock et
ntr ans
Ġdestroy ed
Ġvirt ual
_- _-
Ġspl it
Ġprep ared
ĠFin land
Ġdow nload
# &
# /
1 000
A W
D N
E H
J V
P lease
U Y
b at
b est
b orn
h or
j ones
l arc
r ich
re ason
Ġw ild
Ġs ummary
en ger
Ġp ush
Ġd ry
Ġd atabase
st ations
Ġh oles
as p
Ġl oop
ĠT oy
ĠT imes
ĠM ic
Ġfor ms
ĠB i
ke w
ĠD IVID
ĠW ood
ew is
Ġ2 50
ĠU t
ate ur
ĠL ooking
Ġar my
tic s
Ġch osen
nT om
ns im
ĠK ent
Ġcl oud
Ġev al
Ġpre gn
nm od
ER E
20 2
Ġread s
clud ed
Ġadd ing
Ġdec ent
Ġorig inally
ĠBr own
Ġ... !
reg on
ĠPr ice
cent age
Ġir re
ĠCont act
Ġfix ed
ĠElect ronics
\\\\\\\\\\\\\\\\ \\\\\\\\\\\\\\\\
Ġminor ity
Ġsam ple
Ġeconom ic
ĠDIVID IAN
# *
# ^
( -
: &
> =
@ %
@ ,
@ \
D H
J G
P ackard
S B
S am
Z E
c are
c opy
i ro
k ie
l at
m age
n our
s ni
v ol
Ġt exts
in th
Ġs umm
it an
Ġc aught
Ġp iss
Ġin formed
Ġ\ \\\
ĠS IG
ĠB us
ĠB ure
ect ive
ri al
ĠH or
Ġnot ed
op en
ĠN ov
Ġ2 86
ĠL aser
\\ \'
all ing
all as
Ġgo als
art y
av ity
Ġun ix
ell ed
Ġyour s
ound ed
... "\
Ġad apt
nthe se
Ġ19 86
Ġjust ify
ass in
ble ms
ang el
Ġbelie ves
port al
Ġdec isions
ik ing
Ġhelp ed
Ġcor rupt
EN ET
arch ive
Ġstr ugg
Ġstr nlght
ĠIsrael is
uslim s
Ġmed icine
Ġdeal ing
mm mm
Ġconc rete
Ġinstall ation
Ġbre ast
Ġcontin ued
Ġmot iv
Ġattempt s
Ġsent ence
Ġstrong ly
------------------------------------------------------------------------ -\
Ġscient ists
(* )
Ġrout ine
ograph ic
,`,`,`,` ,`,`,`,`
Ġeduc ation
ĠRep ublic
Ġproceed ed
Ġsett ings
# ,
( ;
( <
- $
: "
< ,
> /
B Y
D M
D O
G Y
K Y
T EK
Z W
a is
e es
f ree
g if
o State
Ġ 00
Ġ icon
Ġw ast
it als
Ġp atter
Ġm outh
Ġm icro
Ġh ospital
Ġn ations
ĠS ub
ĠT or
Ġre nd
ĠA v
se ud
ĠF ore
ri k
Ġst aff
ĠH un
ab y
nS ince
um in
ĠL ie
ĠE m
ant ly
Ġv ision
ĠJ r
ks u
ĠV oice
Ġ4 9
Ġ4 00
cc o
Ġpl ot
pr ing
Ġ0 8
nD ave
Ġdis app
ĠCh ris
ord on
12 9
nR e
nC ould
Ġser ved
ix el
Ġ9 4
ĠĠĠĠĠĠĠĠĠĠĠĠĠĠĠĠĠĠĠĠĠĠĠĠĠĠĠĠĠĠĠĠ ĠĠĠĠĠĠĠĠĠĠĠĠĠĠĠĠĠ
Ġ: )
na fter
nF irst
Ġcomm un
Ġ10 24
Ġcr amer
Ġpar am
AR C
erv ative
cess or
nE d
Ġext ension
Ġpres ident
Ġexpl ained
Ġtalk ed
Ġrefer ring
Ġmind s
cr ay
Ġpit ches
epend ence
Ġdescrib e
Col oState
Ġvol t
olic y
Ġleg itimate
Ġconvert ed
Ġla un
ellig ent
Ġassoci ate
Ġtax es
//////// ////////
Ġrepe at
Ġbab y
ĠQuest ions
Ġcamer a
Ġpriv acy
Ġexperi ences
Ġsympt oms
itche ll
ĠPRES IDENT
L et
N G
N ew
R on
X P
] ;
m w
Ġ ....
or ial
Ġc ate
Ġf lying
---- ---\
as us
ac hes
ĠS in
ĠS il
ĠT hank
ut ing
ĠC amp
Ġ1 93
ĠB aseball
ch ow
ir ty
ist ed
ĠH y
ill s
ĠU T
ĠU UCP
ĠL ewis
ĠJ ets
oc hem
ĠV i
Ġsp ot
Ġpl ays
ex p
ex cept
cl ock
Ġ5 4
Ġen sure
cs u
the ir
10 24
nm on
ang es
Ġdri ven
vel ation
ĠAnd erson
Ġcomm unications
Ġmod es
Ġrem oved
AL L
nG ood
Ġins ert
Ġnews groups
ĠAd obe
Ġsub s
Ġresult ing
Ġequ ally
uh ura
Ġ_/ _/_/
___ \
Ġver se
Ġball s
ĠDes k
Ġfore ver
GR APH
ĠON E
Ġra ise
Ġsil ence
ĠDec ember
Ġconver ting
________________________________________________________________ ____________
urrent ly
nDo D
Ġcred it
Ġtechni ques
Ste ven
Ġhat red
ĠHop kins
! $
? ,
I AL
J C
V E
[ [
b its
e el
i ated
p aper
t ra
u ic
v net
Ġthe e
Ġm cc
Ġd ict
Ġth ou
ĠS Y
Ġre duce
ĠM artin
un m
Ġ1 28
ĠB ush
ĠR ights
ĠD ri
ĠW ANT
op er
um ably
ĠL ost
Ġus age
ĠE thernet
ĠJ F
ĠJ uly
up s
Ġal le
Ġwor ship
ĠK urd
ĠV iew
ĠV ancouver
act or
uc sc
nw ell
Ġad ministration
Ġ19 19
here nt
per im
nm ay
ang ed
Ġdiffer ences
OR T
Ġreg istration
ĠCl ock
Ġcor ner
Ġel im
ok ing
ention al
AM E
Ġconf used
Ġcare ful
Ġdiscuss ions
Ġrefer red
Ġtest ing
ĠPl uto
nk ara
ĠMc G
ĠSe pt
Ġhit ter
ĠPal estine
Ġdescrib es
Ġdest ruction
ĠStud ies
ĠOtt awa
Ġdog ma
Ġsignificant ly
ĠJer sey
Ġtransl ation
Ġmassac re
Ġinstruct ions
Ġnumer ous
ilomet ers
( !
* \'
, "\
? \'
@ <
B U
D wyer
H enry
I ES
J Z
O Y
O s
c oh
h ak
i y
l p
n add
p ass
r un
r ont
w pi
Ġ ;\
in ite
er o
er ard
er ves
Ġs en
is ters
Ġc d
Ġc ore
Ġm ile
le w
et a
ĠS ing
ĠT ry
us band
Ġre nder
Ġre ached
Ġy east
ĠC her
id en
id el
Ġ1 20
ĠB ow
ĠR oger
ĠP eace
Ġst ories
Ġr ub
ĠG un
ew art
ĠN EC
ul ating
ct s
ĠL ives
ĠL OOK
Ġpro ven
ĠO PEN
ust er
Ġex press
Ġsh out
art z
Ġsu d
ns pec
ere k
Ġsp ect
Ġ0 7
Ġad apter
cl h
Ġ5 8
Ġcont rary
net ic
ob al
ond uct
Ġ7 2
nC ol
nP hil
Ġnew er
16 5
IT Y
ho le
Ġwar m
Ġlet ters
Ġstr ict
Ġelse where
Ġview ing
ĠAll en
Ġsever e
Ġprocess or
Ġanswer ed
ĠLab s
bur y
Ġocc urs
OC K
Ġfin ish
gs fc
ĠNY I
Ġsk in
Ġpers ec
ĠWin nipeg
Ġtyp ical
Ġaff ect
Ġdetect or
+- +-
Ġpen alty
Ġsuffer ing
Ġexc use
ĠHol ocaust
Ġwidget s
%%%% %%%%
Ġjo in
ĠTest ament
Ġwiret ap
Ġpoly g
ĠMerc ury
Ġparan oid
Ġmut ual
Ġbud get
ĠInstr uments
& <
) !
. (
/ .
2 30
6 17
: %
> _
@ /
C arl
E SA
I K
I NT
L H
U H
V IV
W A
W h
b os
c ir
c ourse
d id
d avis
d ahl
f nal
m r
n str
n Qu
s ilver
u q
y nam
z ona
Ġa udio
he el
er haps
at l
Ġs aves
Ġs illy
es se
Ġo w
Ġo dd
Ġf ell
ic r
Ġh acker
Ġin form
Ġg ren
ac ters
ĠS olar
ĠT ue
ĠT OR
ĠC ouncil
ĠA Z
ĠA RE
ĠM u
ĠF ederal
ĠB ank
ĠP rivate
ost ate
Ġst yle
ĠH ockey
ab ilities
Ġr ap
est ic
ĠL arson
ĠE ach
ĠJ et
Ġj ack
nM M
oc c
Ġch ose
nN ote
ĠV MS
Ġsp oke
og ether
nD epartment
Ġapp eal
ition al
Ġsc ale
ix on
nh ard
ict ions
Ġpart ners
ific ial
AR Y
ven ue
nK en
ĠZ eal
Ġext ended
ĠAd am
Ġprov iding
Ġent ry
ĠTechn ical
ĠApp lications
AP R
Ġed ge
ĠEd uc
la urentian
Ġimp act
Ġz one
ds comsa
Ġdetect ors
Ġfrequ ency
ĠPol ice
Ġvict ims
Con kie
Ġproduc ed
ĠCro ats
Ġaspect s
ĠGaz a
semb ly
Ġsud den
# "
$ #
$ /
$ \
D K
E B
E AR
F B
L U
M R
O h
R AM
S K
_ &
c u
c at
d os
g ain
n play
r h
u an
v ice
w i
Ġ ^^^^^^^^
re nd
Ġs ink
Ġc as
Ġb ound
Ġp ed
ic an
Ġin comp
ĠS VR
ĠA h
ĠM ad
un ny
ĠF ac
ĠB IT
ĠP ink
ĠD aniel
ĠW W
ir ls
Ġst able
Ġst orage
ĠG A
Ġhe terosexual
ĠN y
os ure
ĠO bs
Ġv ary
nM A
Ġ| "
nT hank
Ġle aving
ĠK arab
for um
nc onsider
Ġso le
Ġdis plays
nw ay
ex us
Ġtr aining
ans wers
here d
ov ic
Ġ6 00
Ġ7 14
ps on
Ġ9 9
han us
ĠHe aven
not t
ific ations
org anization
Ġac qu
Ġbr and
Ġsim pl
nre ally
Ġform ed
Ġhelp ful
Ġstat istics
ues day
45 6
37 7
ĠPer centage
Ġmot ion
Ġcap ac
Ġviol ent
Ġdel iver
duc ed
Ġcarry ing
ĠElect rical
nres p
Ġofficial s
cbnews j
Ġscript ure
Ġassert ion
ĠQuest ion
Ġmechan ism
Ġele ments
~=~= ~=~=
Ġsubsc ribe
Ġprocedu re
Ġmotorcy cle
Ġridic ulous
ĠLives ey
ĠZeal and
% "
) "
> ^
D P
L e
N L
N Z
Q C
Q X
R oger
c ing
c forum
f red
i j
l b
o as
r z
s as
t of
t to
v ia
Ġt aught
Ġs ake
is hing
ing ly
---- --\
Ġth or
st uff
as d
as ks
Ġ( $
et ers
ĠS VGA
id ay
ĠM O
ĠM em
ĠB a
ĠB TW
ĠR et
ĠR yan
od ore
ag an
ĠH enry
ab eth
ĠG M
ĠO regon
qu al
Ġall owing
ns er
Ġun d
Ġun able
Ġun its
ud son
ĠK o
ĠK ey
ra zy
cl arkson
rib ed
oll o
ĠIs land
ĠĠĠĠĠĠĠĠĠĠĠĠĠĠĠĠĠĠĠĠĠĠĠĠĠĠĠĠĠĠĠĠ ĠĠĠĠĠĠ
nH as
Ġbl ess
Ġthr own
Ġdec re
Ġfact ors
ru ary
Ġcol on
Ġsm art
Ġsm ooth
Ġint elligence
Ġhappen ing
Ġrep air
Ġref use
Ġref uge
Ġbig ger
Ġbox es
Ġphys ics
Ġfail ure
UN Y
Ġmov ie
Ġhig hest
Ġdel iber
ĠCont rol
ram sey
Al an
Ar men
Ġcompress ed
Ġenter ed
Ġalgorith ms
Ġpurch ased
Ġsurpr ise
:::::::::::::::: ::::::::::::::::
ĠLa unch
ĠMorm ons
Ġsum mer
Ġshoot ing
spec ially
Ġabs urd
Ġwat ched
ĠBo ard
format ik
Ġcand ida
Ġhop ing
nbelie ve
esley an
ĠMess iah
% .
& %
2 13
> $
> .
F D
G K
N CR
S N
b ag
c ns
d rive
f su
h aust
m ake
p erson
t in
t This
v ation
Ġt on
Ġa st
re c
at on
Ġo d
ing r
---- -
Ġto ler
ĠI D
Ġn uc
ot to
Ġg ri
ĠS ol
ĠS ony
ĠS LIP
Ġre verse
ĠM att
Ġ1 30
ĠW all
Ġst ream
ub s
ct ron
Ġcon ven
\\ $
th ur
res den
Ġby tes
ns ame
Ġun known
act ing
Ġim moral
ans ion
ĠY assin
Ġ19 83
Ġ5 7
Ġ5 12
ĠIn fo
Ġ6 50
Ġcont ent
ng ood
ont s
nf irst
Ġ9 1
iss ions
ĠAnd re
Ġbl ow
ph il
Ġown ed
---------------------------------------------------------------- ----------------\
SI G
SI ON
Ġstand s
------------ ---
ĠAd ams
Ġsol utions
Ġprop ag
Ġexper t
Ġdeal ers
ĠBos well
Ġexp and
arr ow
Ġrese ar
Col or
Ġ{ \
Ġlives ey
aur ora
Ġstep s
Ġconnect or
ĠNews letter
hand held
Ġsuper ior
ĠPH IGS
Ġestab lished
On ly
Am iga
rw ing
nChe ers
Ġcurs or
Ġprinc iple
Ġequiv alent
! #
& ,
) ^
1 80
6 50
7 50
; "
< \'
@ _
B T
B er
G IF
K evin
R L
R V
S ab
S ubject
U ni
V F
W as
] "
b m
b en
d og
j h
o ology
t ron
at in
es ter
ar ia
Ġd ies
Ġd rawn
ll i
ĠS and
ĠT ake
Ġre nt
rom ium
ĠB oy
ĠB ern
ĠW indow
ist ence
Ġas ide
el ix
ĠG L
ĠN EWS
um per
ĠU nder
ĠO p
ĠE V
tic ular
ort on
Ġch ronic
ns ur
Ġle an
ĠV isual
ĠV ictoria
pr int
Ġdis miss
Ġag ent
Ġman aged
Ġ6 10
ng u
te en
ĠCom mittee
ang le
Ġsee k
Ġ9 2
15 4
Ġdef e
nre c
nre l
24 5
60 2
Ġsl ower
?? ??
Ġ\\ _
ĠSh ould
nY our
Ġtrans mit
Ġmor als
col ostate
Ġsub stant
Ġplan ets
ĠAny way
nth ony
ĠAm endment
arn ation
ĠMan ual
Ġdep ending
sol ntze
Ġfield s
Ġlog in
Ġvis it
Ġap art
ĠMor ality
mon ash
Ġpick ed
Ġpitcher s
Ġtool kit
ĠNaz i
Ġbecom ing
ĠAthe ns
Ġcharg es
Ġprin ters
Ġclos er
Ġtele phone
Ġphr ase
ĠMex ico
ĠHit ler
ĠEqu ipment
Ġcrow d
ĠAri zona
chow y
" ...
# [
$ @
) [
) )\
? [
B y
B os
E r
G X
M IT
Q L
T ON
] ^
a ide
i u
m g
n Q
u wo
he nt
-- >
Ġm aster
Ġm ask
ar my
Ġd ust
Ġd ying
\' "
Ġh ous
ĠS k
ĠS outhern
ut y
ĠC ross
ĠA p
im o
ĠM eg
ĠM oses
ig ger
ĠF ly
.. ....\
ĠP ersonal
ol ina
if er
ĠD iv
ri ved
Ġst ret
Ġst ars
ĠH ouston
ĠH ughes
ĠN H
ĠL ead
ard ing
ĠO ct
Ġar rog
ĠJ ournal
Ġsh ared
Ġj ake
Ġsu ck
ra h
Ġcomp rehe
nA m
ĠY am
Ġdon t
Ġjust ice
Ġthan k
ress ian
Ġapp lies
ov an
ont al
nm ost
11 3
Ġsc ored
Ġover all
Ġser vers
han x
Ġcons ent
Ġbu ffer
17 0
Ġcr itic
Ġset tle
Ġreg ards
Ġcor respond
Ġsupport ing
ĠInt el
ĠZ oology
IC K
Ġinc red
Ġmin imum
Ġpass ing
nbe ing
ĠTechn ologies
ĠApp ressian
Ġhead s
Ġed it
Ġhold s
Ġincre asing
ĠMar io
Ġlab or
hel p
Ġrev olution
Ġsuccess ful
ĠMel k
Ġlo ose
ĠDirect or
Ġmanufactur er
Ġindust ry
ĠCher ry
$ %
$ ?
+ &
+ <
- <
2 80
; ;
C M
G J
L arry
M s
N O
P Y
U LL
Z X
[ ]
a ix
b re
b ie
b ourne
d k
d irect
i el
m ons
n gr
Ġ lying
Ġt ill
Ġt ough
Ġt apped
Ġa stronom
he im
re ate
Ġb ed
Ġb ay
ing ton
Ġf uck
ĠI r
Ġh ide
Ġn ative
Ġg al
Ġl ift
ĠT re
ĠT our
Ġbe er
ĠM oh
Ġfor b
ĠB it
ĠB ul
ĠB eck
ĠP B
ub lis
um er
ĠU p
ĠL and
ĠL ind
ĠL iv
Ġex clus
Ġv ast
Ġwe ather
nM ost
Ġ< >
ell y
Ġsp ending
Ġpl enty
act ly
Ġqu it
ĠSt at
ĠSt ewart
Ġman age
ĠCh arles
np oint
Ġ-- >
Ġ6 40
Ġpre m
itt en
11 00
nW hile
nin formation
che ck
Ġob lig
Ġfl ow
Ġcr iter
Ġte lev
Ġsur gery
EN CE
ev a
Ġnet works
ooks on
Ġpres ence
br and
atic a
ĠCon ference
ĠĠĠĠĠĠĠĠĠĠĠĠĠĠĠĠĠĠĠĠĠĠĠĠĠĠĠĠĠĠĠĠĠĠĠĠĠĠĠĠ Ġ
Ġmatter s
Ġdou b
osp el
Ġelect ronic
Ġlog ical
Ġpractic es
nAr men
Ġconv ince
PL AY
Ġden y
ĠGree ks
Ġuni versal
Ġimplement ation
ngo ing
Ġlic ens
Ġbab ies
Ġvehic les
ĠCro at
pol itics
Ġwis dom
Ġking dom
Ġmanip ulation
Ġconcer ning
ĠAdv anced
ĠChem istry
ĠAfric a
ĠProduct s
Ġdetermin ed
oas ys
# ]
# \\
& !
( ,
( \\
- "
4 80
B J
C X
D B
D I
D W
D r
G V
G o
I H
K ent
S U
g reg
h cf
l ink
n ost
o ac
o ks
o enix
p ack
t te
u able
Ġa ud
Ġw ax
Ġw ise
or ation
it ect
it zer
ou lu
ar us
ĠI owa
\' \\
Ġh usband
Ġn utrition
ĠS ho
ĠT ool
ĠC LI
ĠA ctually
ĠM oon
rom dee
il ies
ĠP ers
ur day
ost er
ost ed
if i
ĠW D
ĠW at
Ġst age
ub in
ĠG EN
ĠThe ory
ĠU pd
Ġpro duction
Ġus eless
ĠO s
Ġar ray
Ġwe aring
nM W
nM X
nM aybe
nc ol
nthe s
ĠSt ar
Ġam azing
Ġen emy
Ġev olution
ass ette
Ġgr ad
Ġinter view
Ġinter rupt
nB TW
sh all
16 0
ĠDe e
Ġro ot
ĠAs k
Ġsm oke
Ġgovernment s
Ġreason ing
Ġbit map
ai i
EL L
Ġexpl os
Ġref used
Ġexist ed
ĠMc Conkie
nV olume
go ing
Ġrepl acement
ĠNor way
ĠOF F
Ġfan atic
Ġdetail ed
Ġindic ates
ĠMon itors
nag ainst
Ġwarrant y
miss ouri
ĠCH I
Ġesc aped
onest ar
................ ................
pir acy
Ġcell s
avi our
adel ph
ĠINT ER
Ġconsequ ences
Ġpropos al
ĠSUR VIV
ĠJF IF
coh ol
# _
& *
B K
G T
H i
K K
L P
M c
T or
[ \
d c
d ata
d isk
e or
f ire
h ad
m our
m antis
p hysics
u ary
es k
es pecially
Ġb illion
Ġb esides
om y
ar ly
Ġh ar
.\ \
as u
Ġl iver
ĠS her
ĠS uch
ĠC ourt
Ġbe ast
ay er
ĠM il
ĠM ah
Ġfor th
ĠW A
ir a
Ġnot es
Ġr ul
nd irect
ĠG amma
ĠE nc
Ġcan on
ind ing
Ġv ag
ĠJ o
Ġj h
nM Q
end a
end ig
pt s
nT im
ĠV oy
ĠV ERY
... )
ĠY an
Ġag reed
ult ane
Ġres ource
per ating
10 9
ond ay
Ġper formed
12 5
app y
Ġbet a
Ġsc hed
oll owing
nW ill
Ġ9 00
nB rian
Ġpart ies
Ġfl u
Ġrec ords
clud es
Ġac compl
ĠAl t
Ġro b
ator ies
ĠSh arks
Ġtri es
Ġrep ent
EC T
Ġexper ts
LI B
Ġpack et
=* =-
Ġappear ance
npro blem
ĠCar ter
Ġappro ved
---------------------------------------------------------------------------- -\
nCh ristian
Ġserv ices
Ġincre ased
ald is
Ġut ilities
ĠMod el
Ġther apy
Ġpix els
ĠSec urity
Ġfavor ite
AV E
Ġord ers
ĠAnn ual
cunix b
ĠBull ock
Ġneighb ors
cir ca
ĠSURVIV ORS
) $
+ ,
. !
> &
@ ^
A ctually
F BI
H OME
L a
N e
T ony
U Q
W N
W IN
W AY
Y I
Z H
^ [
h omosexual
j i
j sc
k nock
l ast
m h
m t
n ecess
n acc
p ot
s at
t op
v os
Ġt ired
Ġt ires
in ating
er r
re ll
Ġs om
Ġs ig
an ne
or ig
is p
es p
Ġc ast
Ġb iz
Ġo xy
ic ations
ac ific
ĠS earch
ĠS inger
ĠS andvik
ĠT en
ĠT ek
** *\
ut ive
us l
ĠC aps
Ġe ating
Ġit ems
ĠF ull
ĠF urther
ĠF aith
ĠP urdue
ce l
ur ally
ĠW al
ĠW right
ĠW ITH
ĠH omosexuality
Ġnot ion
ĠJ on
ĠJ ac
Ġsh ame
nT r
ns aid
Ġle ts
nc he
ĠV er
ĠV al
ĠV ill
ĠV LB
ĠV olume
pr ot
pr inceton
19 5
Ġdis p
ile y
ress ed
ĠIn vest
Ġ-- -\
Ġ8 8
Ġ8 9
Ġ7 8
20 6
nP eter
erson ally
Ġbl ank
13 9
ah ak
ific ally
AL T
nre ason
bo eing
Ġint ellect
Ġem b
ĠPh ill
Ġsuggest s
ĠUS ENET
Ġprot ocol
Ġenc ounter
nwith out
Ġcontin ues
Ġanal y
Ġpers pective
Ġchar acters
ĠUs ing
Ġest im
urs day
Ġdom estic
Ġrequire ments
Ġimpl ies
Ġcy cle
Ġconclus ions
ĠBro ok
IND OW
Ġprin ciples
ĠTart ar
aden a
Ġ;- )\
fid onet
Ġvolt age
( [
. ]
2 40
7 13
: <
@ ;
B aker
C B
C ER
G F
I BM
J H
J o
M F
M OS
S F
W H
W W
^ \'
d l
f aq
k h
l onestar
n now
o ard
r if
r ts
w b
x ic
Ġ iron
er ly
re qu
es ign
Ġc amp
Ġb ik
Ġo h
Ġf asc
Ġf ocus
Ġh ur
Ġg onna
ac a
Ġl oud
ĠT ri
ĠT oday
ĠC NN
ĠM ission
ĠF L
ĠB ag
ĠR oman
ĠP enguins
ur rection
ch ing
ch inet
if iable
ĠD od
ĠD uring
ĠD isk
ri e
Ġst eal
ist ing
od ed
nS ource
ject ive
Ġk ilometers
ant ee
Ġse ven
Ġsh op
nM B
nM J
art ed
ib ilities
iv an
Ġle ar
ĠUni vers
Ġup set
Ġcomp ile
nw u
ans ing
ĠY ugoslavia
Ġ19 87
cl ark
Ġcl ue
Ġam pl
ms c
ms on
ens us
12 3
ple ase
Ġsc en
Ġright eous
str nlght
Ġsin ful
nH IC
14 0
ise ase
Ġgu ide
ĠQ UE
Ġthr owing
Ġatt ached
ik ed
Ġsure ly
stit utes
min ster
Ġext ent
Ġconf usion
hys ical
ĠCon c
alt ies
bl ack
IV E
ĠSe ems
ĠPer ry
Ġfail s
Ġbur den
Ġstrong er
Ġcaus ing
76 8
Ġcent ral
ram id
ĠAzer i
Ġamount s
Ġid le
ae ger
Ġgoal ie
****** \
ĠLib rary
ĠZion ist
ĠAssoci ation
rock et
sr l
Ġsport s
Ġtap es
ĠStan ley
ĠOrig inal
iscuss ion
Ġinflu ence
Ġdisput e
elesc ope
ĠToy ota
ĠFore ign
rts g
nHIC Net
! \\
" &
" -
% !
* "
3 50
4 16
? &
? @
A n
D ER
H ING
J ason
J oe
M N
N X
P Q
P X
Q A
R O
V P
W ith
W ayne
] $
] [
a fter
d artmouth
i ye
j ack
j peg
m ber
r ot
w ide
y et
y ers
Ġa in
at ical
Ġw est
is ms
es are
om ic
al gary
al chemy
Ġp et
le vel
Ġh on
ĠT uesday
ĠF reedom
ĠB UF
ĠR ober
ol k
od er
ĠH E
ĠH ulk
Ġr is
ĠG E
ĠN un
ĠU P
Ġus enet
Ġar sen
Ġj im
oc ument
ni k
pt y
pt ions
av ares
iv ism
ĠK el
nA d
Ġpr b
ms us
11 4
oll ow
Ġwork station
Ġunder stood
Ġsin ner
nh im
40 4
be en
AR E
ĠCl ass
Ġcol lege
cess ing
ĠTh u
ĠInt elligence
uck y
Ġlet ting
ok oit
ty pe
Ġsol ve
comp userve
Ġbig gest
ĠPL AY
ĠBe ing
Ġed ition
Ġaut om
Ġcap ability
Ġregard less
Ġir rational
>>>> >>>>
Ġpri est
Ġpercent age
ĠChe ck
nne ed
Ġrout ines
Ġsuffer ed
Ġfrequ ently
Ġther mal
ĠEv ans
Ġmeet ing
Ġanim ation
Ġbal ance
Ġder ived
Ġbapt ism
ĠĠĠĠĠĠĠĠĠĠĠĠĠĠĠĠĠĠĠĠĠĠĠĠĠĠĠĠĠĠĠĠĠĠĠĠĠĠĠĠĠĠĠĠĠĠĠĠĠĠĠĠĠĠĠĠĠĠĠĠĠĠĠĠĠĠĠĠĠĠĠĠ ĠĠĠĠ
Ġtre ated
ĠTart ars
Ġdream s
Ġpure ly
cord ia
Ġcontrad ict
Ġcompon ents
Ġstrate gy
ĠLin ux
Ġprecise ly
Ġdoll ars
ĠBure au
Ġrend ering
ĠMelk onian
ĠLiv ni
ĠUpd ate
=*=- =*=-
% ;
% @
+ (
- \\
. #
/ &
: \'
F J
K H
N ick
O A
R ead
S ahak
T Y
V J
W O
Z R
Z Y
] ?
b as
b ird
e os
g ill
h ub
l ist
n ap
p arent
s ub
x ford
Ġt ask
he astern
re nder
Ġf ellow
al estin
Ġp c
Ġm ent
Ġm ike
st ad
Ġh int
Ġ\ \\\\
Ġn om
Ġn ine
ac er
ac cept
ĠS ound
ĠT x
ĠT ell
ĠC ook
ĠC obb
ĠA cc
ĠM iddle
ĠB all
ol is
ĠD ick
ter nal
ir s
ĠH and
com puter
nd if
ĠG ener
ĠN ight
um s
ul a
ul us
Ġar bit
Ġex change
nM P
oc ation
Ġsp okes
to oth
uc davis
ĠSt ill
Ġhad n
ne ff
Ġ6 2
Ġcont aining
Ġpre t
Ġ8 4
nW ith
omet er
Ġrel at
nB y
du le
nh app
Ġcomm unication
13 5
Ġfl aw
Ġcr imes
Ġatt ract
Ġbr own
ĠAl berta
Ġinf ections
Ġco ach
Ġcor rel
Ġhand led
Ġshe l
Ġadv anced
IC AL
Ġinc orrect
by te
Ġexpl icit
Ġplan ned
por ary
ĠBe fore
Ġopp osite
ĠEngine er
ĠNot hing
ĠNe XT
Ġgl ass
Ġpay ing
ĠRE ADME
Ġ40 8
Ġclass ified
Ġsupposed ly
king ston
Ġhor rible
Al so
Ġprefer red
def ine
def ault
ĠStud ent
Ġang els
Ġdemonstr ated
Ġorganization s
pin ions
Ġcompar able
ĠTe am
/\\/\\/\\/\\/\\/\\/\\/\\ /\\/\\/\\/\\/\\/\\/\\/\\
ĠDel aware
ĠGal ile
ĠProt est
Ġapprox imately
Ġheav ily
ĠPsal ms
Ġexerc ise
ĠFeb ruary
Ġantib iot
ĠNET COM
Ġalle ged
! <
! [
) @
- ?
- [
0 30
6 000
; ,
= <
? \\
B E
C ent
E ASE
F S
K Q
K T
M en
M att
M ENT
Q B
Q E
Q Y
R H
V C
f aces
h i
h us
i ens
n ndet
s ystem
~ \
Ġ ........
Ġt ied
in son
re tooth
ed es
Ġb ikes
Ġo m
Ġp ins
Ġd irt
ion ed
ĠI C
ĠI mp
Ġh al
Ġh ung
Ġn ic
ĠC IA
ro ads
ĠM AN
ĠF il
il ater
ĠB esides
ĠB eyer
ĠP acket
ĠP olicy
ch a
her ic
od a
ab i
nS erdar
Ġr aster
Ġdo gs
Ġpro s
Ġcom ics
ĠE L
\\ ,
Ġk it
Ġse ats
Ġex haust
Ġv ac
ĠJ ackson
nM L
nM Z
ns et
pl an
nc ons
ĠV AN
nw h
Ġad opt
Ġjust ification
ĠX Free
12 7
12 00
OS Y
50 8
igh ter
uk y
oy al
Ġsec re
Ġx dm
Ġind ex
nn ews
Ġstr ing
ĠGr ant
AM ES
Ġfire arms
col m
Ġdiscuss ing
ĠCon ner
ĠII ci
ti us
ĠComm and
npro v
Ġsy mb
ĠEd monton
Ġ? ?\
Ġengine ering
ze us
Ġjob s
Ġprevious ly
------------------------------------------------------------------------ \
Ġreturn ed
Ġcitiz en
Ġselect ed
Ġstupid ity
cal poly
math s
Ġdiv ine
Ġluck y
nman y
################ ################
ĠHall am
ĠLED s
Ġcharg ed
ĠRel igion
ĠRichard son
ĠInst ead
ĠProp ulsion
Ġannounce ment
Ġbeaut iful
nav ailable
orpor ated
Ġinh abit
adelph ia
ĠNun tius
! ^
+ ]
3 10
7 00
: )
> |>\
A J
F P
F V
I W
J M
M r
N ote
T L
[ ...]\
^ !
^ /
a a
b oth
b su
d ate
g t
h q
k ay
l ah
m ch
p ace
p ret
u er
Ġa id
at z
Ġw ounds
Ġc am
Ġc ables
Ġb inary
Ġm ath
Ġm ental
le high
Ġd avid
st one
\' :
== *
Ġg if
ĠS W
ĠS peed
ĠT avares
ĠC B
ĠC ore
ĠC rypt
__ _/
Ġe gg
ro ller
ĠM ach
ĠM ason
am med
ĠF ra
ĠB ay
ĠD MA
ĠD uo
and on
ĠG S
ĠG iven
ate ful
ĠL ine
ĠE C
Ġj oe
Ġal arm
ns ince
Ġun us
ak y
ĠK a
nA nother
ber lin
Ġad ults
nm ark
Ġ/ |
Ġper pet
Ġwork ers
port ion
iss ue
nB ob
14 1
Ġdes ktop
Ġfl o
Ġcr ash
Ġac know
Ġhard er
60 4
Ġter min
Ġreason ably
Ġstand ing
Ġlist ening
uman itoba
pro v
ĠCor nell
Ġem phas
AC K
Ġkeep s
Ġfr ames
Ġent ertain
Ġplan e
nth rough
And y
nus ing
Ġdem o
Ġspeed s
Ġocc asion
Ġlib eral
Ġopen ed
Ġopen ing
ĠSer ver
Ġport ion
Ġpractic al
irt ual
nes day
Ġattack ed
Ġassum ed
Ġann oy
Ġfil m
ĠLabor atories
Ġemploy ees
Ġuni versity
Ġobt ained
Ed ward
ĠBru ce
Ġresist ance
Jon athan
Ġhundred s
Ġcomb ination
och rome
Ġdig it
Ġtechni que
Ġrare ly
Ġplat forms
Ġneg ative
Ġignor ant
Ġswit ches
ĠAnal ysis
strnlght C
! /
" )\
# <
# ?
$ "
$ &
$ ,
& &
( >
( ?
) *
) <
+ !
2 17
5 10
5 50
> ;
@ "
F W
G N
G Q
G W
I nt
J ewish
M ar
O hanus
S oft
V Y
X C
^ \\
b ing
c ps
e atures
f eller
g ap
l ot
m aster
n ear
t it
w ick
z one
Ġ ought
is ation
al er
al ex
Ġan ger
st ud
Ġh air
Ġh oly
as ure
Ġn ut
ac pub
ĠS L
ĠS O
ĠS ud
ĠC T
ĠA ve
ro id
id o
Ġbe ings
ad ed
ĠF air
ĠF orm
ĠF rench
nt wo
ĠR ussell
ke feller
ĠH end
iz abeth
ab hak
Ġdo ors
ul se
Ġcon struct
ĠL ang
00 3
ĠO L
ĠO ort
ĠO ilers
nM H
nM U
nM any
Ġle aves
ĠK n
ge on
act ually
19 92
nA aron
Ġ19 85
Ġ19 82
cl ass
Ġen h
np art
ial ity
Ġapp le
ord ers
ci um
ons ense
Ġ8 2
Ġsc ott
Ġoff ensive
nP h
enc ing
14 4
sh ould
Ġcons ult
Ġadd s
urn er
Ġdifferent ly
******************************** ****************
AC O
Ġpass ages
Ġpass word
ĠĠĠĠĠĠĠĠĠĠĠĠĠĠĠĠĠĠĠĠĠĠĠĠĠĠĠĠĠĠĠĠĠĠĠĠĠĠĠĠ ĠĠĠĠĠĠĠ
Ġhead er
Ġimport ance
ĠArab ia
ION S
Ġsy nd
---------------------------------------------------------------------------- \
fr ame
Ġlab el
ĠCent ral
nany thing
Ġtur ning
Ġident ify
Ġselect ion
ĠYOU R
Ġcondem ned
Ġpi eces
Ġdro pped
Ġwide ly
Ġphilos opher
Ġreject ed
Ġstre ng
Ġkid ney
Ġpus hed
uggest ions
Ġfif th
Ġphenomen on
(*) (*)
okoit ai
Ġinhabit ants
/ ,
5 12
: =
= ;
= \\
A dd
G C
G U
I Z
J PEG
K P
N E
N P
P ATH
R M
S G
T HE
T CP
V W
W in
] _
c as
c ould
d w
f it
k odak
m organ
m aybe
n u
n ov
p apers
s port
z c
Ġ ----------------
Ġt ube
or p
or se
is is
it ter
Ġb ucks
Ġf av
Ġf lex
Ġf ulf
Ġd an
Ġd ump
st sci
Ġin ches
Ġg t
Ġg opher
Ġl an
ĠT oo
ĠC able
am dahl
un te
ĠF eds
il ink
ke p
ĠW ave
ĠW ere
Ġas ks
Ġr ain
ĠG reg
ĠN M
>> (
ul owell
ĠL u
Ġpro be
Ġk ne
tic ip
Ġv an
ĠJ upiter
ort s
nM C
oc a
Ġch allenge
Ġmy ster
ns wer
Ġsp ring
cc u
Ġdis charge
nA n
Ġad s
Ġad equ
ĠSt e
ne ither
np ower
Ġapp arent
Ġ6 7
Ġ6 80
ci ence
ug ene
Ġinter active
Ġinter course
ĠX T
20 7
we go
Ġdes ert
ĠQ ur
Ġrec on
AN CE
Ġcr ap
Ġcr itical
ĠHow ard
ĠDe ath
AR N
22 3
ever al
Ġbas es
nJ ames
nJ eff
Ġcor rection
Ġint elligent
90 8
pro ve
iven ess
RE E
Ġcomput ing
nj it
ĠTr uth
ĠAny body
ĠDavid ian
oe ing
Ġdevelop ing
Ġsell s
ĠAn at
oid s
ĠEd itor
Ġoffic er
rel igion
ĠComp u
Ġattempt ing
with out
Ġcult ural
Ġign ored
Ġweek end
Ġfour th
ds inc
Ġap olog
ĠSupp ose
Ġid iot
athe ism
Ġimplement ed
cast le
Ġsil ver
ĠGu ide
ĠHam ilton
inst all
~~~~~~~~~~~~~~~~~~~~~~~~~~~~~~~~ ~~~~~~~~~~~~~~~~~~~~~~~~~~~~~~~~
Ġcoll ision
ĠWH AT
tl anta
Ġeduc ational
Ġbug s
ĠIraq i
Ġvari able
Ġharm ful
ĠDev ils
Ġband width
ndoes n
ĠOb viously
Ġmax imum
Ġachie ve
tem ple
Ġhoriz ontal
ĠBu ild
Ġump ire
ĠMur ray
Ġirre levant
ĠWANT ED
! _
$ +
% \'
* &
3 60
: ]
< #
> ?
> --\
@ ?
A Z
A dam
B F
B Q
J erry
T X
U RE
[ (*
] \\
^ <
b out
b ison
c ut
f riend
g ory
i at
i ology
j w
m at
m ust
s v
s ay
s econd
t ext
Ġ ou
Ġ ##
Ġt ong
Ġt ree
er k
Ġs and
Ġs ight
it led
Ġc er
Ġc ampaign
Ġc pu
Ġb in
---- ;
Ġd ave
ic ious
st ill
ĠI g
Ġg irls
ĠS port
ĠT ype
ent h
ĠC re
ĠC ivil
ad v
ĠM Hz
ĠM bytes
am ing
Ġfor t
ĠB ad
ĠB ak
ĠB altimore
ĠR am
ĠP acific
ol as
ol ics
Ġst ood
Ġst ones
ag a
ĠH o
ĠH ospital
el se
ĠG ardner
ĠN ame
ĠN ext
nI nter
ĠU ser
ĠL em
ĠL ight
ĠL ove
ap es
ant ic
Ġwor ried
ĠK im
pl ain
ĠV ESA
Ġout s
cc up
93 04
19 2
Ġqu arter
Ġag gress
Ġ7 3
Ġ7 50
20 1
Ġ9 6
nB e
nin st
ON G
Ġcons ervative
Ġgu ilt
Ġrem aining
ft p
ĠAl bert
Ġav ail
sc ill
Ġsur ve
Ġide al
Ġinc idents
Ġear s
atch ing
Ġins ult
Ġconf ir
arl ie
Ġret ur
hip s
umb us
alth ough
Ġopp osing
Ġelect ed
Ġelect ronics
Ġdep artment
Ġsubject ive
Ġmark ed
Ġbre aking
IR S
ĠRE P
ĠSome one
Ġsold er
Ġcommon ly
ĠNet com
nse e
ĠPR O
itch ing
Ġpub lis
gorith m
Ġtrad ed
nAny way
------------------------------------------------ --------
ĠKing ston
ruct ure
ĠSP ARC
nel se
Ġimmedi ate
OUL D
Ġterror ists
nar ound
!!!!!!!! !!!!!!!!
Ġcompar ison
Ġele ment
nem ail
ĠQue bec
py ramid
_\'_\' _\'_\'
Ġinstr ument
ĠSerb ian
ĠDef ense
%^%^%^%^ %^%^%^%^
Ġdistin ction
ĠPas adena
Ġhall am
ĠMount ain
ĠSecret ary
Ġpiss ed
Ġpatter n
Ġnuc lear
Ber keley
rif ice
ĠRober ts
! ;
! =
# .
% &
* ?
- %
- (
- /
= [
> ...
@ [
@ \\
A re
C LA
D G
D J
J O
N OW
P Z
Q S
S e
S er
T D
T F
V X
Y A
^ ,
c ity
c ms
d ed
e is
g ener
j c
l en
l ines
l man
l ove
m ic
n ak
n enc
o ia
p op
t ed
t ut
w esleyan
Ġ --------
Ġt aste
in ol
in ters
in ja
Ġthe ists
Ġw ins
Ġs andvik
ou b
Ġp air
Ġm ic
Ġm ob
ar med
\' ?
Ġin et
Ġre ly
__ /
ĠA P
ĠA ir
ig s
se x
ĠF IR
nt hings
ĠB L
ĠB re
ĠB or
ĠB ed
ĠR ick
ĠR ock
ce ived
ch arg
ĠD or
ĠD om
ĠW ACO
ĠH z
ill ing
ĠG a
ĠG ib
ĠG erard
um ass
ĠU nless
Ġby te
nM ac
Ġ< <
ni an
ns ub
ell ar
ip er
nD id
nw rites
ĠSt ation
cl utch
np ut
aw n
Ġpre jud
Ġ8 3
Ġper man
12 2
oft en
Ġbelie ving
nf l
nf ind
aid a
omet ry
nin c
nH ope
Ġob s
13 1
Ġpoint ing
Ġrem ark
nre al
az e
24 1
23 2
nJ on
Ġcor por
Ġhand ling
af e
ĠTh ursday
Ġint ention
IC O
inc ol
inc oll
Ġem pty
Ġtri p
Ġloc ated
ĠOr thodox
Ġsw ap
EC H
mm m
ille an
nth ought
ĠPl an
ĠCal gary
ĠPr int
ĠGe ico
urp hy
Ġmot or
Ġbro ke
Ġmiss ions
Ġissu ed
Ġcho ices
oop er
ĠMat hematics
Ġmet al
EM P
cont rib
Ġtur bo
yl van
Ġconver ter
belie ve
Ġrac ism
beck man
ĠGen ocide
ĠInf ante
Ġgraph ic
Ġexperim ent
adel aide
Ġforgot ten
Ġignor ance
ĠNich ols
Ġunlike ly
Ġguar antee
Ġinfer ior
Ġreduc ed
hol m
ĠSup reme
ĠLie feld
itzer land
! ,
) (
- |
. &
/ (
: #
: [
< _
= %
= (
= ,
H R
K C
K M
N H
O f
R X
S im
U W
W C
W PI
Z J
] (
b h
c ern
d al
g as
g ement
h ir
i very
m ate
m ik
m ips
n ant
n here
r m
t z
t ech
t In
u ug
v estig
w v
w ing
Ġ >>>
Ġw u
Ġc ry
Ġc ities
Ġc ares
Ġb acter
ar ke
ar ren
Ġd ynam
st u
st ates
Ġh ay
Ġin sp
ot is
ot ry
Ġg irl
Ġl osing
ĠS S
ĠC ount
ĠA IX
Ġe mer
ad er
ĠM OT
ĠM essage
ig her
ĠF ort
ĠF light
ĠF elix
ĠP MS
ol in
ĠD os
ĠW il
ri or
Ġst olen
ĠH ome
com put
nS cott
ĠG ill
ul man
ul ator
ĠL ake
ĠL IST
ap ollo
ĠE ner
\\ _
ant um
ust el
res ident
ĠJ O
Ġsu it
ĠK ir
nN et
ĠV ery
Ġ0 9
19 0
Ġcomp at
nA merican
Ġcl one
Ġgr owing
nm ight
Ġ7 1
Ġsc re
nl ook
Ġrel ative
nB l
nin f
14 5
Ġdef ic
IT E
Ġstart up
ik h
80 1
Ġinf inite
Ġsl ot
ĠSp an
Ġext ensive
pro bably
ĠRes ource
Ġpass enger
Ġval uable
ĠMS G
Ġview ers
tI t
!!!! \
ask ing
Ġdem ocr
nex p
Ġdisplay ed
Ġmass ive
ole c
IP S
Ġincre ases
Ġregard ed
Ġmain ly
Ġcompl ain
Ġcompl icated
Ġmar ried
ĠSat urn
Ġinn ings
ĠHar vard
Ġstri kes
Ġphot ograph
ĠFr iday
Ġ____ _/
hib ition
EV ER
ĠLib ert
sequ ent
Ġwall s
Ġcat alog
she ll
Ġaw ful
ĠKr illean
ĠZion ism
Ġupd ate
Ġscrew ed
Ġconcer ns
Ġassist ance
Ġteac her
Pr inceton
Ġreve aled
Ġrat io
ĠColl ins
ĠNove mber
Ġemot ional
nReg ards
nquest ion
Ġparam eters
nresp ons
Ġarbit rary
[(* ]
incol n
! ]
& +
* %
* (
* /
- ;
: (
: +
; &
= #
= +
@ )
@ +
I ng
L ink
M ot
M ag
M AN
S M
S at
S mith
V L
W B
[ <
^ "
^ ?
c act
d i
f ast
g ame
l bl
l ouis
l ocal
m other
p ipe
r to
t b
t v
u io
Ġ q
Ġ ic
Ġ ug
Ġt one
Ġt iny
he nson
-- +
re f
Ġthe ories
at hy
Ġw estern
or al
Ġc age
Ġc yl
Ġc razy
Ġp uck
Ġp ump
Ġto wer
le ading
Ġd aughter
st ance
Ġh ab
as m
ll o
ot ics
ac her
ĠS ometimes
ĠT odd
us er
Ġre ct
ĠC auc
Ġbe le
ĠM ut
ĠF ri
ĠB ib
ĠR ider
ĠP ass
ĠD ouble
ĠW anted
em ale
ab led
ĠN RA
____ _
Ġcon clude
ĠL ow
ĠL uke
ĠL uther
nO K
ĠO w
ĠRe lease
ie ux
Ġsu c
Ġde pt
Ġal ter
Ġch apter
ns ay
ns oftware
ĠK ore
og us
uc algary
nw ant
ĠSt ein
Ġag enda
Ġman agement
np ol
np lease
Ġ> |>
ms dos
aw rence
Ġcont em
Ġgr ant
ob ody
Ġinter ference
nm ed
Ġper mission
11 6
Ġmay nard
Ġsupp lies
Ġ9 8
han e
ĠHe y
ys u
Ġbl ah
nF rank
Ġcons piracy
13 7
17 4
Ġfind s
Ġatt end
men i
ĠAl an
Ġsim ultane
att ed
Ġinf ant
Ġinf ants
ĠCl ayton
bo ost
Ġput s
orm ap
Ġint end
ĠRes ources
Ġend ed
Ġconf irm
Ġfr ust
EL Y
riv ing
________________________________ ________________
70 7
Ġeffect ively
ĠMay nard
nst ill
hem atica
ĠST L
osp itals
Ġdist ingu
uw aterloo
nch ron
Ġinvol ves
urope an
ĠCar olina
nhe lp
MA IL
ĠIm ake
ĠWin field
Ġguy d
Ġtw enty
Ġleg ally
nan other
Ġuni que
ĠON LY
load image
anet ary
Ġcollect ion
Ġhom es
ĠSam uel
mc gill
Ġvirt ually
ĠAnt i
hard ware
Ġknock ed
Ġphysic ian
Ġprofess ional
Ġorient ation
wat son
ĠQuick Time
Ġvir us
ĠHay es
Ġstrict ly
Ġconven ient
Ġresear chers
tron ix
Ġcriter ia
mch p
cact us
) ]
* !
. +
0 10
1 93
7 37
: $
< $
> +
A merican
E J
F X
I J
O r
P AK
W X
X N
X Q
Y K
Y W
^ &
^ (
a ire
f ax
g v
g le
g ent
h r
k j
l on
m us
m em
m athew
n msu
p ers
p ublic
s ps
t g
t alk
w hy
y ork
z o
Ġt ail
in formatik
on ica
re search
Ġw alks
Ġs aving
ou ds
ed e
Ġf ro
al ter
Ġm athew
le an
le ads
Ġd raft
st ep
as hing
Ġn ose
et ary
Ġl es
ĠS F
ĠS ir
ĠS um
Ġre duction
ĠC ec
ĠA st
ĠA HL
ĠM id
ĠM ain
ĠM ON
ĠM onday
Ġit em
ĠF ound
nt oo
ĠR un
ĠP y
ĠP enn
ĠP ublis
ĠD ur
ĠD are
ĠH ope
ĠG host
ĠG raham
ew are
nI nc
ĠO UT
ĠE ve
\\ ?
ain wright
th ose
all ow
all eng
nM I
nM atthew
Ġal ot
ĠV L
Ġne ut
ail ed
Ġsp are
Ġwho ever
uc la
Ġcomp iled
ip es
Ġ19 80
Ġcl ip
Ġen han
Ġev ol
Ġwhen ever
Ġgr avity
ick ing
ĠX m
Ġ8 1
hy l
ish i
nC on
20 5
nW here
ix ie
Ġsin ners
14 8
Ġcons cious
30 3
Ġpost script
atter ed
Ġdec e
au f
nK ent
Ġcle ansing
Ġtrans form
OU S
Ġem issions
Ġconsider ation
tr ue
tr incoll
Ġ12 80
RE AT
Ġsw ing
Ġprot est
upp er
Ġcopy right
Ġwonder ful
arr as
uw ec
nch ildren
Ġgl ory
OL D
go vernment
Ġlim its
Ġfig ured
Ġperiod s
Ġvol unte
Ġprom ise
aged y
Ġut ter
Ġmeaning less
Ġarch ives
ĠMon itor
ĠDen ning
cont rol
ĠMark eting
ĠTH IS
alle g
Ġinn ov
Ġaff ected
sf u
Ġflopp ies
ĠProgram ming
Ġsurpr ising
Ġimpl ied
Ġregular ly
ĠEl izabeth
nknow n
Ġcoll abor
Ġterror ism
aver ford
Ġfill ed
ouri er
Ġpitch ing
Ken neth
Ġdial og
ĠHaw ks
Tr ans
ĠPen ns
Ġintro duced
Ġcand id
Ġregister ed
Ġcapt ure
Ġcomfort able
ĠSu ite
techn ic
ministr ator
ĠScient ific
Ġdiscrim ination
ĠKurd s
ĠEduc ation
cns vax
Ġpropag anda
ĠTek tronix
ilater al
alex ia
! ?
" #
" %
# +
) \'
- !
- )
- ,
. _
/ [
/ _
: :\
; <
> ]
A nkara
D IS
D raw
E ast
F N
G O
I nter
J et
L Z
M K
M V
S J
V B
V G
W olverine
^ ;
b any
c os
c acs
e ither
l ie
n ect
r x
v y
w estern
x el
y m
z ur
Ġ ^^^^^^^^^^^^^^^^^^^^^^^^^^^^^^^^
Ġt ub
Ġt our
Ġa stronomy
Ġw ires
Ġc f
Ġc os
Ġb a
Ġb aud
Ġf ish
Ġm sd
Ġm ilit
Ġm jones
ĠI P
ĠI rg
\' )
Ġh p
Ġh its
Ġh abit
ot ally
Ġl augh
ĠS end
ĠS ilver
ĠS uther
ĠC L
ĠA uto
Ġe ast
Ġbe ep
Ġon line
ĠM itchell
ig ious
ĠF inally
nt e
ĠB A
ĠB est
ĠR ice
ch bach
if orm
ĠW elcome
ist ant
ĠH R
ĠH arry
nS econd
Ġr aw
Ġr ings
Ġr ider
Ġ" \
ĠG ary
ĠG UI
Ġhe ight
ĠN ONE
Ġ2 40
Ġcon gress
Ġpro ved
nL ast
qu id
ĠE inst
nM D
nM N
nM V
are ware
nT ur
ĠK ings
ell s
nc o
Ġout come
uc su
Ġ0 1
nD r
ans wer
ĠSt ephen
ĠCh air
Ġgr ounds
ob s
ob lin
hy dro
Ġ7 6
nf tp
Ġsupp lement
nP ower
sh ot
Ġrun ner
Ġ# |>
Ġcr us
Ġcr uc
old er
AL S
ĠDe ad
nG u
az i
Ġgot ta
18 3
Ġspec s
uth ors
Ġ24 00
nn umber
Ġpol itics
ĠCol or
Ġdr am
Ġext ract
pro p
EG A
OU T
ĠGr and
no pp
Ġpres c
AS S
Ġorig in
Ġsign als
ĠApp arently
cr amer
And i
li ver
#> #>
Ġmass es
94 9
Ġlog o
Ġnor th
Ġproper ties
Ġfin ished
ĠIm ag
Ġfam ilies
nat ural
ĠSw itzerland
Ġaccount s
Ġrequest ed
Ġec zc
GR AM
Ġu unet
Ġmarket ing
ĠSim ple
ĠElect ronic
npr ot
Ġmaterial s
Ġang le
ĠEast ern
Ġess ential
ĠAL ink
uz z
Ġvict im
Ġphilos ophy
nen ough
Ġok ay
ĠLy me
Ġorgan ized
Ġprob es
Ġplat form
dri ves
ĠUn ion
Ġsan ct
izz ou
ĠPoly technic
Ġgren ades
ĠOct ober
ĠYam aha
Ġsynd rome
ĠAnat ol
ĠIrg un
Ġeczc aw
! :
# ;
$ !
$ )
, )
- =
/ ;
0 40
0 70
4 93
= ]
> )
B rad
B ruce
C UNY
H as
H ey
J ack
J osh
K R
Q H
Q N
T O
T ed
T ype
U VM
Y C
Y T
Y our
Z in
[ +
[ \'
] .\
^ ]
b ad
c ase
c ause
c ision
d ra
f n
f iles
g su
h l
h ab
l X
l ar
l ation
m ade
n ick
s mith
t aylor
x m
z ek
on ents
er ed
is y
Ġc ite
Ġc ited
Ġc esare
Ġb ible
Ġo s
al id
ar le
ar ians
ar aj
Ġan ten
Ġd umb
ec d
Ġl iked
ĠS ex
ĠS OC
ĠT ime
Ġy e
ĠC ost
ĠC ru
ver al
ĠA MA
Ġe h
Ġe green
ro x
id ers
ĠM art
ĠM aster
ĠF ar
ĠF ire
nt ry
ĠB IG
ĠB oeing
ĠP ut
ĠP EX
ri ot
com fort
nS p
ĠN ever
ines e
ht ra
Ġpro sec
nO R
ard en
ĠE ver
ĠE specially
ĠRe al
Ġj oke
nM R
ich ols
Ġch rist
Ġch ris
ack ed
Ġun iform
ĠK ub
ĠK evin
oo oo
Ġsp elling
og en
uc r
so ever
nD oug
nA ccording
nw hile
-------------------------------- --------
Ġtr avel
ans chbach
Ġ19 14
Ġen cl
np ossible
man li
cs i
Ġgr anted
ens es
nm ean
Ġ/ *
Ġ7 4
nR ob
nC PU
20 4
ath ic
Ġsc ream
50 3
nP rice
nP erhaps
Ġ[ ...]\
Ġrel i
iss an
nH ave
Ġcar l
Ġdes k
be fore
uss ian
Ġhel met
Ġrem oving
Ġfe els
ik a
ik t
nG o
Ġ& \
nre f
nre lig
ĠPro blem
nJ esus
Ġspec ulation
Ġdisc ount
ĠSp arc
ĠTh ought
sp am
pro gram
nY eah
Ġlaw yer
Ġmin imal
Ġbo ost
Ġtri als
ĠOr acle
Ġes p
Ġsub mit
UC H
Ġent itled
Ġbook let
ĠSC O
Ġprop ri
Ġsign ed
nth ough
ux h
ĠAt ari
Ġbus y
ĠST AT
irc raft
Ġrad iation
Ġsort s
Ġrece iving
Ġinstall ing
Ġcirc ular
Ġcent uries
Ġmag netic
Ġtrad itions
des ire
wh ite
wh atever
nany one
aur us
gen eva
Ġbring ing
Ġinit ially
ĠBD s
OB E
======================================================================== ===\
Ġimpro ved
Ġeffort s
opy right
Ġrecogn ized
ĠRem ote
Ġpull ed
-------------------------------------------------------------------- --\
------------------------------------------------------------ --\
************************************************************************ *******\
Ġaccident al
ĠPhot ography
ĠJeff erson
Ġprocedu res
ĠDun n
ĠJan uary
Ġcompon ent
ĠPsal m
ubvms b
ĠConsult ing
ĠSpec ial
Ġrough ly
Ph ill
Ġstrugg le
ĠAv ailable
ĠHun ter
Ġcomprehe ns
clark u
==* ==*
Ġunus ual
ylvan ia
louis ville
Ġmsd os
ĠSuther land
% )
, _
. <
. ,\
. ).
/ #
/ :
/ <
/ ]
2 11
4 29
: !
< [
= @
? ),
F K
G erald
I nternet
I mage
J E
J ay
K Z
L V
L X
M I
M X
M ad
T J
W E
W R
^ )
^ *
^ @
a fer
f p
f onts
m ain
n ide
n its
r r
r ite
s b
s ur
s sd
t K
t im
t ri
v ine
Ġ }\
in ner
at ural
Ġs av
or st
it arian
en a
Ġc ipher
Ġp ir
Ġd ensity
Ġd uty
ic ity
ic ian
ic key
st ream
ĠI mm
\' !
Ġh idden
Ġin eff
Ġ( )\
et e
ec utive
Ġg ld
Ġg ift
Ġl apt
ĠS m
ĠT IME
ent ry
ĠC ur
Ġe ld
Ġbe ating
ad min
ĠM other
ĠM ets
am pling
Ġ1 27
nt il
nt ake
nt hanks
rom ise
ĠB arry
ĠP S
ĠP DS
ol er
ol ation
em ies
od om
el and
el ine
Ġr if
Ġor thodox
ĠN av
ĠN ick
est roy
ĠL ittle
ĠL arry
ĠL ocal
Ġpro claim
Ġat oms
Ġab andon
one hole
Ġsh ad
ort heastern
Ġwrit ers
nM G
nM O
nM ay
ns l
ns ign
ĠK id
pl us
nc dt
Ġcomp iler
nD ept
Ġqu ack
ĠSt afford
Ġpr oud
np ass
np ublic
per ate
the less
nm in
nm ade
ĠX XX
ny ear
ny ears
12 6
rist ol
Ġ9 7
ting ly
nH ey
nF ree
Ġet her
Ġfl ight
Ġfl esh
17 7
ox y
ĠDe an
ĠCl in
nJ PEG
ten ance
Ġsur render
ĠSp ider
nn ew
ok en
ok cforum
Ġgreat est
OU SE
AC T
ĠPC s
ĠMy rto
ĠPh D
ĠBr and
anc ing
ĠLe g
arg est
OP EN
Ġopp ress
npro bably
Ġocc as
lin ed
Ġoper ational
Ġgl obal
UR N
Ġcontin uing
ncon f
MA INE
Ġnear by
Ġfall s
Ġ** \
Ġviol ated
Ġver ify
Ġdescrib ing
Ġap ost
Ġap artment
Ġclose ly
Ġpeace ful
oz onehole
nAny one
Ġcivil ian
Ġmembers hip
Com m
Ġscient ist
Ġuni vers
Ġrecord ed
oph ical
Ġpen alties
Ġbeg ins
Ġrout e
oom er
ĠAc ademic
ĠMail ing
Ġcreat es
vi ews
ĠKe ith
ĠAdd ress
Ġparticip ate
Mac intosh
pat itis
Ġmill ions
nev idence
Ġsem i
Ġconstant ly
Ġterrit ory
Ġdistin ct
Ġlibert y
Ġlegisl ation
Ġtoss ed
Ġcapac ity
Ġsched uled
ĠInvest ors
lah oma
Ġenh ance
ccup ied
Ing res
Ġbele ive
ĠPenns ylvania
Ġdram atic
Zin aida
! +
" $
" (
# >\
& (
& )
+ [
/ !
9 19
: .
= .
B X
F H
F irst
H C
I sa
J K
J P
L D
L S
N M
P O
Q Z
T B
U G
U Z
W ho
X Y
Y P
_ "
_ [
_ ]
b ra
c ard
c rypt
d em
f an
k l
l pl
l atech
m ay
m ight
m achine
n her
n est
s us
s ave
t an
t wo
z al
z ech
Ġt ag
Ġt ire
in ers
Ġs ou
Ġs oft
Ġs igns
Ġs ocket
or ient
ou cher
Ġc ro
Ġc obb
Ġb ow
Ġb one
Ġp il
Ġp illion
Ġp seud
ar ious
Ġh ol
Ġin qu
as hes
Ġn asty
Ġn arrow
Ġl oving
Ġre actions
Ġy eah
ĠA ud
ĠA uthor
Ġe lev
Ġfor g
se i
ĠF act
ĠF PU
nt hing
il k
ĠB ooks
ĠR os
ĠR og
ĠR ES
ĠP s
ce an
ĠD am
ĠD raw
em e
em ail
ist ance
ill a
op hil
ĠN ear
Ġ2 10
os ip
ĠO xford
Ġv otes
nM an
Ġal cohol
Ġch ances
nT ry
ns ec
ak i
ĠV FR
ink i
ire t
pr actic
Ġdis aster
Ġtr ave
eop les
Ġ19 78
ĠIt aly
ov al
aw s
NT ON
Ġpre ced
Ġper mit
nW ho
nf act
port ant
Ġact ing
Ġ9 50
ĠĠĠĠĠĠĠĠĠĠĠĠĠĠĠĠĠĠĠĠĠĠĠĠĠĠĠĠĠĠĠĠ ĠĠĠĠĠĠĠĠĠĠĠĠĠĠĠĠĠĠĠ
ĠĠĠĠĠĠĠĠĠĠĠĠĠĠĠĠĠĠĠĠĠĠĠĠĠĠĠĠĠĠĠĠ ĠĠĠĠĠĠĠĠĠĠĠĠĠĠĠĠĠĠ
Ġcar bon
AT T
Ġdef ines
Ġdef ending
ĠQ U
Ġhel a
pect ed
ĠDe ir
nG raphics
ĠPro be
Ġ= +=
Ġco inc
Ġcol ours
ĠInc orporated
28 9
Ġdr ink
Ġext ensions
ĠMac s
ness es
Ġhigh way
no on
ĠOr bit
Ġmor ally
IS H
Ġsol vent
ĠPL EASE
aus ible
!!!! !\
ward ed
arg a
ĠBe a
opp y
hem atical
Ġed iting
Ġopp osition
May be
Ġve ctor
Ġnight s
Ġport able
cy on
Ġcap abilities
ĠCD C
Ġviol ation
Ġver tical
Ġsk ate
Ġattack ing
ĠMin ister
Ġann ounced
Ġcal cium
EST ER
nag ain
Is rael
Ġimag ing
ĠSat urday
ĠCam aro
Ġmeas ures
Ġinit i
ened ikt
Ġident ical
ĠSab o
Ġpain ful
For ce
Ġmir rors
ĠAzerbaij ani
bell core
Ġbul lets
alent ine
ĠEvery one
ĠLC III
ĠMet zger
ĠMag azine
Ġwis hes
Ġupd ated
ĠAct s
ĠUl f
ĠUl tra
natt empt
Ġterrit ories
plete ly
roc kefeller
Ġsal vation
ĠLim ited
Ġcontroll ed
ĠArt ificial
Ġtactic s
ĠSIG GRAPH
ĠDri ver
Ġmile age
Ġrap id
ĠNy x
ĠKarab akh
ĠFIR ST
ĠSpan ish
# (
$ ;
+ *
, \\
2 16
= !
? .
? >\
A pple
B rent
D et
F Y
K L
P F
R ick
S ub
T N
b el
b ons
b elt
e ecs
h ou
m ks
m und
p read
r ants
s oc
u its
v d
w f
Ġ ing
Ġ ll
Ġt alent
on ic
er als
at ism
is a
is i
Ġc e
Ġc ook
Ġc raft
Ġc assette
Ġb le
Ġb are
Ġm ph
ar am
Ġin ject
Ġin ning
Ġ( *
ot o
Ġg all
ac ies
ĠT ext
ĠT aylor
ver e
__ |
ad i
im ens
ĠM and
ĠM ove
ĠM ember
am ber
ĠR od
ĠP e
ĠP ot
ĠD ig
ĠD ays
ĠW ing
ĠW OR
em ens
em ember
Ġst im
Ġst ores
and ida
Ġr ail
ĠN ation
>> >>>
ul ates
ĠL ady
00 00
qu ality
Ġk l
Ġar rived
Ġv ent
Ġwrit ings
nM T
oc is
Ġde lete
Ġall erg
Ġch romium
for sale
Ġpl aint
so e
nD ate
Ġad am
Ġtr ained
Ġtr agedy
Ġim pressed
ĠY eah
np erson
Ġ6 9
cs a
cs c
Ġcont ained
Ġ8 7
Ġshould er
Ġpo ol
ER A
ays h
Ġsc oring
Ġsc ores
pe ak
nf ile
Ġover time
nP at
Ġrel ief
Ġfl ed
Ġfl ash
ific ance
Ġprogram mer
nG O
az ines
Ġhelp ing
au er
23 4
Ġsl ave
sc reen
Ġposs ess
ĠTh ink
nE ric
rit ing
Ġ15 00
ĠFor ce
ret z
Ġnews paper
ĠAd ministration
44 6
Ġfr ight
Ġline ar
riv al
ĠBr un
Ġref ers
Ġfeel ings
ĠĠĠĠĠĠĠĠĠĠĠĠĠĠĠĠĠĠĠĠĠĠĠĠĠĠĠĠĠĠĠĠĠĠĠĠĠĠĠĠ ĠĠĠĠ
con cordia
Ġret inol
ĠComm unity
Ġcontrol s
ĠWh it
Ġexp osed
Ġtop ics
uw m
Ġsy nc
OL L
Ġdoct r
Ġimp ose
Ġattempt ed
ĠInd ust
Ġrese mb
Ġclass es
Ġfall ing
ploy ment
aut o
Ġdocument ed
Ġhor se
Ġcal m
ĠTH AT
Ġclean ing
Ġident ified
ĠOther wise
Ġinterpret ations
Ġmist akes
nthem selves
nne ver
ATION AL
ĠMod ern
Ġcontrib ute
ĠAb out
Ġleaders hip
she arson
Ġanim al
Ġanim als
Ġvict ory
belie f
ĠFre qu
ĠFre eman
Ġbenef its
ĠPhil adelphia
Ġproduc es
Ġprophe t
Ġfoot ball
Ġunf ortunately
Ġsatell ites
ĠMos lem
Ġcamer as
Ġpus hing
Ġoccup ied
Christ opher
ĠSi emon
every one
npar ticular
nph one
ste ering
reason able
care lli
ĠBow man
ĠFac ility
Ġtelev ision
default s
Cent ral
nNet work
ĠAnatol ia
$ :
% ?
( _
* $
- @
- ]
2 10
2 86
3 80
< \\
B Z
B TW
E A
F E
F Z
G D
G ay
G ill
H W
J D
J J
K O
K W
M AP
M essage
R ay
S ean
V Q
W indow
b uffer
c ec
c pr
e X
e agle
h op
i est
j y
l ad
l enn
m aps
n ge
s ince
t ur
t oo
t ape
t You
v o
w hel
z ak
Ġ vel
in ch
on ard
er ox
Ġs ys
is ons
ou ch
ed ience
Ġb il
Ġb oring
Ġo vers
Ġo scill
Ġf inger
al colm
Ġm m
Ġm and
ar ath
ic ting
\' %
\' &
Ġin ch
Ġin cl
Ġin ner
Ġn sm
ĠT T
ĠT op
ut able
Ġre put
Ġy a
ĠC oving
Ġbe ll
ad ette
ĠM arc
Ġfor um
Ġ1 60
ĠB ry
ĠR iver
ĠD og
ĠD allas
ĠW ard
Ġst ead
ĠH aving
**** *\
el iot
nS an
nd own
nd rive
um ps
ap l
ĠO pt
ĠO per
ĠE T
Ġk icked
th rough
Ġse aled
nM emory
Ġ< ?>\
ĠK ot
Ġsp in
to ol
nD isk
ber ry
ex e
ĠSt uff
Ġen emies
rib es
ass ion
nb u
nb oth
Ġ8 6
ond em
Ġ7 7
ath olic
ĠAr ts
Ġsc ene
other s
Ġwork stations
nl ittle
han a
Ġeven ing
ĠHe ad
nh omosexuality
14 2
15 3
Ġback ed
Ġcons ists
13 2
Ġfl ag
Ġrec ording
Ġthr u
ph oenix
alk ing
ik ato
Ġbr ings
Ġafter noon
nJ oseph
OT E
Ġsl c
18 5
Ġel abor
35 8
ĠInc l
nE ven
Ġwar s
Ġpol itic
ĠCol umbus
ĠTur bo
me g
Ġconf ront
tr w
Ġexpl ains
ott le
Ġent ity
Ġfree ly
off icial
nU nfortunately
ides pread
Ġbeh aviour
Ġsoc iet
ĠSe lect
nv ironment
ĠEd ition
Ġcheck ing
Ġbatter s
Ġpractic ed
ĠInd ian
rig el
Ġrese m
Ġmov es
Ġprom pt
nle ast
rem end
Ġmurder ed
Ġben ch
met ic
Ġmount ed
oving t
organ pipe
hu ji
Ġaltern atives
Ġmaint ained
Ġdro ve
Ġtransl ated
Ġcreat ing
Ġadvant ages
ĠLouis iana
Ġrac ist
UB L
ĠMel bourne
ĠBur sters
Ġeconom y
Ġprophe cy
ĠKe ep
Ġsche dule
ĠTele com
ĠTem p
irl ian
Ġbrother s
Ġtom orrow
Ġshif ting
Ġbomb ing
Ġsurround ing
Ġdecl ared
Ġelectric ity
Ġgrow th
ĠNove ll
ĠREAL LY
ione er
imed ia
Ġcate gory
Ġmcc all
ĠSY ST
ĠSept ember
Ġton ight
Ġstret ch
ĠCLI NTON
Ġlear ning
ĠEner gy
Ġsuc ceed
Ġsimultane ously
CUNY VM
ophil us
Ġnsm ca
ĠCoving ton
! .
# )
% [
( ^
- ^
4 60
: ,
< ]
> @
? ).
C V
D ev
G Z
G re
J R
L R
M ax
M arc
Q ue
R N
S et
S ee
U O
W idget
b ate
c all
c raft
d ep
f x
f il
f ers
h ist
h ome
h ockey
i que
l ooking
n ent
n arg
p res
p ossible
s ign
t j
t for
t pl
t ex
t mp
u ine
v ision
w an
Ġ ???\
Ġt ed
he id
er ch
Ġs ie
or ris
it ically
es ome
Ġc ant
Ġc ele
Ġb ib
Ġb ure
Ġb atch
al a
al ke
Ġp aul
Ġp owers
Ġm aj
Ġd ot
ic he
\' /
Ġh un
as a
Ġn eck
ot ic
ly nn
Ġg ather
Ġl ately
Ġl oved
Ġl ikes
Ġl argest
ĠS ix
us htra
ĠA SC
im at
ĠM ec
ĠM arl
un ar
ĠF M
ĠF red
ĠF ield
il a
ĠB S
ĠB Y
ĠB EST
ĠR d
ĠR ich
ĠP E
ĠP o
ĠP OV
Ġwh it
ch id
ĠD ro
ĠD ame
ĠD aw
ĠW ide
ĠW ade
ĠW heel
em ark
Ġst ress
ub er
ĠH udson
ĠH AVE
el le
ab et
nd ata
ĠG opher
ĠN ixon
Ġ2 75
ul ian
ĠL ife
nO ther
nO perating
ap on
ĠO st
ĠE nter
\\ ]
Ġk n
ust ed
Ġex cess
tic k
Ġv acc
Ġv endor
nM ar
ni h
Ġgo ld
Ġgo vt
Ġde als
end ors
Ġall ies
iv al
Ġun c
ak in
nc all
og h
19 90
ip se
nA zer
Ġtr an
Ġ19 67
Ġcl othes
Ġam ateur
nb est
Ġcont rast
ng reat
Ġpre v
Ġbelie vers
lic op
nW as
nW indows
ĠIs n
Ġsin us
nh uman
Ġbl inking
16 4
Ġdec om
nG reg
az ed
~~~~~~~~ ~~~~
Ġco ord
Ġmon ochrome
sc ale
Ġinv asion
orm ally
Ġtrans mitted
Ġdirect ed
Ġbo ys
Ġconf idence
44 1
AS U
els inki
ĠOr der
IL ES
Ch ampaign
nbe h
Ġsw im
Ġrep ublic
_/ \
Ġobject ively
Ġdefin itions
Ġtest im
Ġret ri
AD A
Ġpat ent
Ġsy nthes
Ġsubject s
Ġ_/ _/
Ġappro val
ĠNet her
ĠMed ia
96 15
ĠInd eed
Ġfam ous
ried man
Ġcut ting
clus ion
Ġmis under
nother s
stitution al
Ġfil ters
tm c
car son
Ġfund s
nIs rael
medi ate
Ġsuccess fully
sf asu
PP ER
Ġstri p
Ġsexual ity
Ġmist aken
itic us
Ġwalk ing
ĠMod em
nCom puter
Ġowners hip
Ġoption al
SL AC
VV VV
Ġsqu are
ĠMIT RE
Ġtradition al
Ġvari ables
Ġmassac res
emic onduct
Ġsac rifice
Ġcompet ition
Ġintro duction
ĠTem ple
ĠWed nesday
Ġtre nd
hal cyon
Ġconduct ed
ĠSIM Ms
Ġadvert ising
Ġencour age
Ġteaching s
Ġsatisf ied
%*%*%*%*%*%*%*%* %*%*%*%*%*%*%*%*
rep resent
ĠAlex ander
Ġnegot i
ĠMo ore
ndid n
Ġsumm ar
Ġpolyg on
Ġsole ly
ĠIsland ers
Ġarrog ant
ĠVoy ager
ĠBrook line
ĠFra ering
ĠOL IT
Ġstreng th
Ġapolog ize
ĠBak u
! %
* <
* \\
+ \\
, $
, &
/ @
7 14
8 18
@ ]
A pp
B ook
B ATF
C o
D F
D Q
F A
F Q
G en
H D
J X
K J
R P
R andy
U niversity
V K
W Q
W T
W here
W orld
W riter
_ $
b ooks
c ony
d et
f are
g oblin
k ent
l ife
n ode
o akland
p ic
p ad
r l
s it
s co
t x
t St
t What
v able
x view
z ed
{ \
Ġ ________
Ġ >>\
Ġ ^^^^^^^^^^^^^^^^
Ġt ie
Ġa er
Ġa uthors
he tic
he art
Ġw icked
Ġc ens
Ġo missions
om ination
Ġf ires
Ġp ad
Ġp eoples
Ġm g
Ġm s
Ġm ol
Ġto w
Ġd ed
Ġd uct
Ġn onsense
et ime
Ġg ospel
ĠS ay
ĠS pect
ĠS mall
ĠT urner
Ġthat s
ĠC ole
ĠA A
ĠA sh
ĠA post
ĠM I
ĠM un
ĠM ir
ĠM ouse
ĠM HZ
ĠM UCH
am ous
ig c
se m
un l
un less
==== \
ĠB J
ĠB UT
ĠB uy
ĠR eds
ĠR omans
ĠP M
ĠP op
ĠP OM
ĠP oint
ĠD E
ĠW orks
Ġst raw
ag ainst
ĠH olland
Ġnot eb
Ġas sembly
ab in
Ġr ise
nd r
ĠG ent
ĠG ur
Ġhe patitis
ĠN orthern
Ġdo cs
Ġdo zen
Ġab ortion
Ġse es
Ġex ceed
Ġ3 000
nM ore
nM ouse
are n
Ġch ristian
ns ure
Ġun cle
ĠV EN
Ġwhat soever
uc son
Ġdis s
Ġad ult
Ġtr uck
Ġim press
Ġ19 94
Ġ19 72
Ġam p
================ \
Ġres urrection
ord an
net c
ob ra
ob goblin
ng ame
per ience
10 8
ĠX t
12 4
Ġ7 00
Ġpo inters
11 7
20 3
OS E
Ġsc hem
nW hich
nf ree
nl ast
nP l
iss er
Ġsin c
Ġread er
nh aving
sh it
Ġbl ast
Ġdef ensive
Ġ# >
be ing
17 5
tt i
30 5
Ġfe as
Ġte en
co very
ern el
nre qu
ĠPro cessing
Ġform ation
Ġco in
Ġco oper
Ġspec ified
Ġter rible
ĠCan cer
Ġgener ated
Ġdet ection
Ġstat ist
arch y
ty ou
ĠCor inth
ĠGr aph
Ġcount s
Ġconsider ably
Ġprov ing
tr l
IL LI
70 3
nj on
Ġbig otry
ĠCA D
con fig
Ġaccept ance
.) ;
ĠSc ot
Ġexp ansion
Ġhope fully
Ġrece iver
Ġfriend ly
tA l
lam ic
arth more
Ġserv icing
ĠAre a
ched uled
Ġfall acy
roy al
Ġprom isc
aff i
EE E
ĠMat tingly
Ġassum ptions
Ġrespond ing
tes la
cor rect
met zger
MU G
ncont in
load ed
sf su
Ġphot o
ĠProgram mer
Ġang el
Ġang ry
Ġmir ac
Ġslow ly
ĠSP ACE
nTh omas
Ġnat urally
Ġswitch ing
Ġdro ps
=-=-=-=-=-=-=-=-=-=-=-=-=-=-=-=- =-=-=-=-=-=-=-=-=-=-=-=-=-=-=-=-
Ġterror ist
-------------------------------------------------------------------- -\
spec ific
Re illy
All en
ĠOk lahoma
ĠSIM MS
Ġtarget s
ĠJapan ese
Ġachie ved
mind ed
ĠStand ard
ĠBas ically
_+ _+
Ġrepeated ly
vv vv
:-:- :-:-
_*_* _*_*
^~^~ ^~^~
ĠUt ah
Ġlaun ched
Ġhous es
WAY S
INDOW S
Ġcorrel ation
ĠGalile o
Ġwu archive
Ġscre ens
ĠFound ation
ĠRog ers
Gay ane
! (
! ).
# %
$ [
% /
* >
+ ------------------------------------------------------------------------
, +
, ]
- .
. %
/ ^
3 27
3 75
4 12
6 10
6 13
: ?
; [
< "
< /
= ?
@ #
A tlanta
C G
D ale
H G
I Y
J ake
J esus
L illey
M Q
M AY
O pen
O FF
P s
Q Q
R oad
U J
W Z
X A
X F
d su
e as
f ere
f reenet
g reat
g ardner
i ol
j r
m es
m ens
m ph
m itting
n net
o of
p os
p ixel
r ider
t n
u v
u um
v ron
Ġ 000
Ġ echo
Ġa gr
Ġa str
he ed
re acting
Ġw ed
Ġw idespread
an ch
or i
or ion
is un
it ative
ed a
ed ing
Ġc up
Ġb om
Ġb ast
ing ers
om er
Ġp m
Ġm arch
Ġm apping
Ġth rew
st rom
ĠI A
Ġh ath
Ġh olland
Ġn ull
Ġ( +
Ġis land
ĠS ER
ĠS OME
ĠS uggestions
ĠT B
ĠT enn
** \
ut or
ĠA S
ĠA SA
ĠA CC
im ov
ĠM ill
ĠM uch
Ġfor sale
.. /
ĠR F
ĠR ome
ĠR aw
ĠR IGHT
ĠP O
ĠP IC
ĠP ersonally
ch ip
ĠD AT
ĠD ON
ĠW hether
em en
ag or
ĠH ot
Ġas sh
nS ystem
Ġr x
Ġr ig
nd ev
ĠN on
ĠN OR
um es
ĠL oss
ĠL az
ĠL OV
ĠE E
ĠE st
ĠE ugene
Ġk en
ant her
th or
Ġex it
art ing
Ġde leg
Ġal leg
ns mall
Ġle af
nc alled
to al
Ġdis claimer
... ]
Ġad hes
Ġad mitted
ĠCh amp
ne ach
ical s
Ġres et
ob ile
ont aine
nm achine
.... ..
ĠAr ticle
nl ong
oss ibly
nh igh
na ut
ict ures
nF tp
Ġcons ensus
Ġdes erve
25 5
ĠQ ual
Ġrec over
be h
Ġcr uel
Ġbr akes
az da
ru it
Ġsl ip
18 9
Ġhand les
ĠCan ucks
ee k
Ġfew er
af low
nE very
nn on
sp d
inc in
Ġlaw yers
AC H
ars en
Ġval ve
Ġarg uing
Ġdiscuss es
ĠBr adley
ari el
Ġless on
ĠApp lied
ĠPL O
li os
li ography
ĠBe aver
Ġlarge ly
npro blems
ĠServ icing
OW ER
uw a
ĠNot re
ĠSer ies
Ġpay load
___ |
ana o
nAnd y
ung a
Ġterm inals
ĠAust ria
Ġmult it
tD o
Ġindic ation
Ġindic ated
Ġdel ay
row ave
nes ium
Ġ! =
AA AA
ĠIS BN
Ġpred iction
Ġbi as
Ġbi ology
Ġbi ased
ĠWith out
Ġfund ed
Ġnational ism
ĠCons ider
Ġassoci ation
****** *
nsome one
hib it
tH e
ĠCAN CER
Ġwalk ed
ĠDec ision
Ġprotect ing
ĠPol itical
Ġjudg ment
ĠCath olics
Ġrac ial
ĠPart y
Ġcommit tee
Ġtick ets
ĠGen esis
Ġdiag ram
roll ed
Ġcart ridge
Ġpan el
Ġparan oia
Ġburst s
nac cept
haw k
Ġshif ter
Ġsusp ension
roc ities
Ġorient ed
Ġsurround ed
Ġguar ante
ĠDoug las
Ġcir cle
ccs vax
Ġster eo
Ġarr ays
ĠStep henson
Ġbutt ons
Ġgri ps
Ġvag inal
Ġacknow led
Ġbacter ia
arras so
whel ming
# >>
* .\
, ?
- #
- &
6 19
: ^
; -
< :
@ .
A lex
D IR
F AX
G reen
G PS
H Y
I d
L K
N orthern
P B
P V
R ed
S orry
U FF
W K
W V
X H
X K
Y S
[ "
] %
_ <
` @
a uthor
b ro
d raw
d eck
e ases
f acts
f unction
g ment
h in
h aus
i op
i qu
m ine
m tu
n ment
n ra
p ica
r ace
s x
s oftware
s son
s orry
s andvik
t if
t xt
t How
u in
v c
w au
w its
er os
Ġw ounded
Ġs now
Ġs outh
ou bt
Ġc ock
Ġc ash
Ġc odes
Ġc rying
Ġb ait
Ġf its
Ġf resh
Ġp ill
Ġp ra
Ġan ecd
le ans
ic ate
ic ient
st yle
ĠI V
Ġin k
as ive
Ġn ec
ot er
Ġg ro
ĠS ource
ĠT ucson
Ġre act
Ġre bo
Ġy ellow
ĠC are
ĠC raig
Ġe ll
ro of
im m
ĠM ack
ĠM echan
ĠF inal
ĠF ox
ĠB MUG
ĠR W
ĠP ope
ĠP sych
ith metic
ur sa
ch ildren
if est
if ier
ĠD iet
ĠD TR
ĠW idget
em r
ub a
ist ure
el p
nS e
nS im
nS end
nS ure
Ġr ab
nd es
nd iv
op es
Ġhe nce
Ġhe licop
ĠN elson
ĠN SW
nI nd
um ph
ĠL CD
00 1
ap c
ĠO pinions
qu er
ĠE N
ant age
Ġab str
Ġv oting
Ġv endors
our age
nM E
nM F
Ġde alt
Ġch ief
ns andvik
ak ota
ud ge
pl ess
nN f
hen ry
nc ap
ĠV x
ĠV on
ĠV RAM
ail ing
Ġpl ant
Ġpl ates
ear ing
nA gain
nw orld
ex po
Ġtr ash
ans as
Ġ19 75
Ġ19 84
np s
np rop
Ġ6 17
ree k
^^^^ \
ond ition
Ġper ry
ER AL
.... ...
Ġsc ared
Ġbelie ver
reat ment
nl ist
mer l
SA ND
nin s
nF eatures
Ġcomm unic
Ġacc us
Ġrem ained
ph ot
Ġcr u
Ġwhere as
AR L
Ġbr ains
nre p
Ġph ase
ĠAs king
ĠAs kew
23 7
Ġind irect
Ġinterest s
less ly
27 5
ris on
nE thernet
Ġcur ve
HE AD
Ġpres ume
Ġbest iality
tr acing
Ch uck
Ġsign ificance
bl ock
gal axy
ĠPl ace
Ġaddress ed
nU ni
Ġdev il
ĠMan itoba
ĠEx perim
ĠPr ime
irc um
Ġdem ands
Ġelect ion
Ġcover ing
OL OG
nV endor
Ġexcept ed
Ġfan atics
Ġproduct ive
Ġsk ill
ĠGo al
fess ional
ĠMar shall
nat i
Ġdel ivery
tT hanks
acc ur
Ġassum es
Ġinterp re
Ġden ied
Ġrequest s
Ġpray ers
Ġprevent ed
Ġobserv ation
cor p
ander by
nres ult
Ġcrypt ography
Ġsurv ived
Ġsens ible
Mail er
Ġste ering
ncl aim
wr ite
atell ite
ĠPat rick
ĠGreen belt
Ġexc iting
Ġexec ution
Ġquant ization
Ġinput s
don ald
Ġliter ally
ĠEvery thing
Ġoccur red
ĠPet ers
ĠMet eor
Ġscan ner
nad v
Ġcomb ined
Ġconvers ations
utk vx
Ġexperim ents
Ġinstr uments
Ġacceler ator
Ġinj ury
Ġprofess ion
Ġattrib uted
Ġmanufactur ers
Inf o
Ġol wm
ĠEli as
Ġconcent rate
Ġtor que
ĠGil mour
oven ant
_-_- _-_-
Ġmotiv ated
ĠSil icon
ĠObs erv
Ġthor ough
Ġdeliber ately
--------------- +\
nost ic
itect ure
ĠYan kee
WIN HOME
necess ary
Ġoxy gen
Ġarsen okoitai
Ġinsp ired
ĠImag ine
zek iel
Ġcomprehens ive
ĠASC II
ĠWheel ies
Ġadhes ive
incin nati
wau kee
! ),
" ),
$ .
& $
& ^
) _
+ "
+ %
, .
, [
. ),
6 14
< (
? (
@ >
B en
B us
C N
C Z
F IN
G et
H ello
J ews
K U
M G
O Q
O ut
Q D
S he
T ech
_ ;
b es
b ow
b io
b acks
b etter
f und
g ic
h ut
h uman
j en
k g
k m
k ato
l ance
m ike
n view
n keep
n ormal
p se
p age
r ays
s ic
s um
s ources
t re
u ity
v p
v ironment
Ġ ie
in ct
in itely
-- +\
Ġthe ore
Ġw cs
Ġw idth
Ġs ect
Ġs gi
an other
it ation
Ġb ot
Ġb ath
Ġb ps
Ġb orders
Ġb anschbach
al ph
al ways
al ifornia
Ġp ounds
Ġm ast
Ġm int
ar ound
Ġto xic
Ġd il
ĠI stanbul
Ġin herent
ll ing
Ġg arb
Ġl ut
Ġl ur
ĠS ign
ĠS UN
ĠS cheduled
ĠT an
ĠT al
ĠT erm
us west
Ġre velation
ĠC a
ĠA G
ĠA udio
ĠA venue
ro be
ro duction
im i
im ent
ĠM ajor
ĠM urphy
am an
am bridge
ig er
Ġ1 35
ĠF O
==== =
ĠB on
ĠB ra
ĠB eth
ĠB etter
ĠB iden
ĠR oss
ĠR SA
ĠR ather
ĠP UBL
her st
her ri
ĠD ate
ĠD isclaimer
ĠD isease
ĠW C
ĠW E
ĠW M
ĠW ind
ĠW aterloo
ri el
em bers
ĠH at
ĠH en
ĠH ence
nS er
nS un
nS ee
nd el
nd eal
ĠN u
ĠN EW
ĠN orton
ĠN inja
ĠN issan
um ed
ul ky
ĠU m
os ky
nL atest
ap se
\\ %
\\ *
\\ @
th ought
Ġse a
ight ing
ome ini
tic ally
Ġv ide
ĠJ ag
ĠRe ference
Ġsh ock
Ġj e
ort mund
ie ved
end ar
Ġch alleng
nT ony
ns econd
ud ed
ĠK l
ĠK ar
ĠK SAND
ra ut
nc ourse
Ġout r
Ġsp ying
ue a
Ġcomp osite
ip al
Ġdis pro
Ġim per
ĠY EAR
eop athic
Ġ19 70
Ġjust ified
ĠCh ap
ual berta
ult b
np ost
Ġapp ar
ng ive
the se
nm ust
Ġ8 05
nR obert
Ġoff ense
oh nson
Ġ9 40
str ong
ock lington
nh omosexual
sh ock
ason ic
Ġevery where
ES PN
igh s
AL LY
Ġpar ad
AR I
Ġte eth
22 1
22 8
co le
23 5
ĠCl arkson
Ġperson nel
?? ??\
Ġinv est
isc rim
28 5
gg s
Ġtrans port
Ġins ist
ĠAd apt
hys ic
nr un
Ġ12 9
ĠOr leans
Ġer a
eng ine
Ġprop ane
anc ial
bl ind
Ġeng aged
nst ud
Ġprocess es
riend s
empt ed
po op
Ġ26 00
Ġelect ron
elf are
ilar ly
Ġdep art
Ġpast e
Ġinvol ving
ye ast
eb ay
Ġengine er
ĠPal mer
ĠNY C
EX T
Ġjud ged
ĠSch ne
Ġconv entional
Ġwait ed
Ġcompl aining
nwould n
LA GS
------------------------------------------------------------------------ --\
sl ip
Ġrespond ed
Ġstep hen
Ġdom in
ĠKing dom
Ġconnect ions
TH ER
Ġpolic ies
oles ter
Ġsil icon
Ġsurv ive
Ġsearch ing
________________________________________________________________ ____
************************************************************************ ***\
Ġabs ence
Ġbal cony
nde ed
ĠHEL L
ĠIran ian
ĠAssoci ate
ĠHim self
ĠPhot o
ĠLev iticus
Ġthy roid
Ġfeed back
Ġcustom ers
ĠKh omeini
ĠNich olas
Ġconsist ently
Ġtel net
Ġarrest ed
nact ually
nCont ent
Ġmos que
<<<< <<<<
Ġclar ify
Ġpg f
ĠMult i
open win
Ġsudden ly
Ġcas ual
Ġincred ibly
Ġlicens ed
esk imo
ĠEnc ryption
Ġflu id
Ġbik er
Ġcontradict ory
ĠProtest ant
Ġsecre cy
Ġprejud ice
Ġperman ent
Ġdefic iency
Mot if
Ġenhan ced
Ġcesare an
Ġether net
retz ky
arath ushtra
Ġsie ge
Ġcele br
ĠOst eopathic
ĠCorinth ians
Atlanta GA
osky ns
! *
! @
" _
$ \\
& :
+ \'
, %
/ )
3 12
4 36
7 16
8 86
< @
= /
? %
B e
C K
C ALT
D en
E rik
G uy
H V
H er
H ere
I ns
J U
L ook
M e
N B
N I
N Q
N ED
O E
P AC
P osted
Q G
S Z
S ender
T Q
T able
T wo
V ER
W Y
X B
Z K
[ %
] &
] /
^ -
_ !
a ired
c ru
c ats
d ney
d ifferent
f d
f ar
g ames
g ins
m el
n ro
n ist
n ection
n ected
o qu
s ubject
s pl
t Y
w c
y n
y ne
Ġ ________________
Ġt remend
Ġa ircraft
in form
on al
er ver
Ġw ake
Ġs ections
an j
it ro
it ual
en way
Ġc m
Ġc ert
Ġc ros
Ġc oding
Ġb ogus
Ġf o
Ġf aces
al ysis
Ġm att
Ġan ni
Ġin ev
Ġand rew
Ġ( -
Ġ( .
ac on
ac re
ac co
Ġl az
ĠS B
ĠS M
ĠS qu
ĠS oft
ĠS ys
ĠS und
ĠT I
ĠT ed
ĠT ape
ut sa
us se
ĠC R
ĠC op
ĠC ourier
ĠA ge
ĠA part
ĠA nswer
id y
ad or
ĠM er
ĠM organ
ĠF an
ĠF ast
nt on
ol ated
ĠD ream
ĠW ang
em a
ĠH ello
ab lo
nd esc
ĠG ames
ĠN one
um ption
os ystems
ĠL uc
rg an
Ġat omic
ĠO ff
ĠO BP
ĠE s
ĠE nd
ĠE DT
ain er
ind a
ĠRe port
Ġme gs
Ġj unk
Ġj umper
nM K
oc ity
art u
Ġsu itable
Ġde pression
Ġ| *
ack ing
ns it
ns end
now n
ĠK IND
pl ate
nc orrect
ĠV ir
Ġsp ark
og gs
gr ace
19 91
nA pp
-------------------------------- ------------
ĠY ale
ĠSt ock
Ġcl ub
ĠCh inese
Ġam b
rib ly
ass ing
ass uming
Ġcont ents
ont real
Ġinter ior
Ġ/ _
ny u
ark in
ors hip
nR on
nR el
nR ichard
form a
oll a
Ġsee king
nW ould
Ġact iv
The se
olog ists
nh and
lect ion
read ing
Ġet hic
13 4
Ġass ign
17 2
Ġplay back
22 4
22 6
ST R
urn ed
nre t
// /
nJ oe
Ġsl ide
18 7
sw arthmore
Ġhand y
Ġshe ep
Ġposs ibilities
SI C
ĠTh rough
nn ecess
Ġint ake
Ġdet ected
Ġdifferent ial
IC H
Ġ14 6
Ġmin ister
Ġem m
Ġpres erve
Ġpres umably
AS H
Ġloc ks
Ġsol ved
Ġsub stance
Ġmed ium
Ġsw ord
ĠBr ad
ky ou
ĠTr inity
Ġdefin ing
cr ash
cle mson
Ġbeh ave
Ġret ail
reg n
arg o
ĠSe agate
Ġaut hent
Ġve get
55 289
cent ral
31 50
ona ut
enn ifer
yp ical
Ġspeak ers
Ġign oring
ĠRuss ians
ĠMar iner
Ġmain stream
Ġindic ator
ucs b
Ġir vine
ugg ing
ĠUs ers
tM y
rem ember
Ġhealth y
ĠNews groups
Cl ass
Ġorbit al
ĠSim tel
Ġhost age
Ġinterpret ed
Ġcondem ning
Ġ__ /
Ġmaint aining
mosp heric
ĠLA W
Ġ---- \
Ġproduc ing
law s
ĠAthe ists
ĠJoh ns
Ġbapt ized
Ġbeat en
Ġwiret aps
rid ges
Ġresol ve
============================================================================ =\
Ġgar age
doc ument
Ġinvolve ment
Ġneighbor hood
Ġprof it
nCont act
Ġpur su
Ġtort ure
.\'.\'.\'.\' .\'.\'.\'.\'
|||||||| ||||||||
nGe orge
Ġmc ovingt
Ġpregn ancy
Ġcommun ities
ĠCamp bell
ĠSing le
Ġshout ing
icr uc
ĠPink as
ĠWW II
ovan ovic
Ġastronom ers
ĠINTER NET
Ġaccompl ish
Ġpret end
************************************************ ********
Ġflex ible
Ġrecon c
ĠPRO GRAM
ĠCount y
ĠCec carelli
Ġanten na
Ġchrist ians
Ġelabor ate
ĠTemp est
nAzer baij
CALT ECH
" *
$ _
& #
+ $
+ ;
, !
, :
, >
3 13
9 000
< .
? #
? ;
? ).\
@ (
@ =
A aron
B row
B igel
C J
C U
F OR
M artin
M alcolm
Q O
R K
R es
R uss
S OL
W G
W ould
W ainwright
Y V
Z T
[ *
[ ;
[ ^
] =
b ps
c ow
c hen
f oot
g oth
h d
j v
j on
j ian
j ah
m ount
n ke
n self
n answer
n ortheastern
s ing
s bc
t ion
t est
t ake
t ue
z i
z m
Ġ ================
Ġ ####
Ġt ends
Ġa a
Ġa ids
in ich
re ements
Ġs oph
an on
or er
it ivity
om pson
Ġf t
Ġf ed
Ġf ate
Ġf als
Ġf eds
Ġf emale
Ġm om
Ġm ig
st art
st aff
Ġh i
Ġh ospitals
Ġin her
ot r
Ġl aug
ĠS A
ĠS a
ĠS ig
ĠS tern
ĠS essions
ĠS everal
ĠC el
ĠC HE
ĠC BC
ĠA ff
ĠA bu
ĠA nthony
Ġbe gun
ad vt
im ize
ĠM ull
am unga
ig e
un x
Ġ1 10
ĠF our
ĠF resh
ĠF ILE
==== =\
ĠB R
ĠB AT
ĠP AR
ol ves
ol ars
ch ar
ĠD ir
ĠD aily
ĠD artmouth
Ġst om
Ġst ating
Ġst orm
ist a
ag ain
ag ment
Ġas c
iz ens
Ġr ow
Ġr uled
ĠG ov
---------------- ----
ĠN EVER
est y
ul u
os ity
Ġcon greg
ĠL W
ĠL PT
nO ur
ap olis
Ġat rocities
ĠO MS
qu is
ĠE RA
ĠE nvironment
ization s
\\ #
\\ ;
\\ ^
ust ing
ind e
Ġv oid
ĠJ erry
Ġsh ar
Ġj oint
Ġj bh
ort al
nM e
Ġgo v
Ġ| |\
nT wo
ns ays
Ġle gs
ĠK al
ĠK endig
ĠK aldis
ĠK irlian
nc re
nc ount
ĠV V
ĠV andal
Ġsp y
Ġsp ir
Ġ4 32
Ġ* .
19 88
Ġdis ciples
ber ra
nw hy
Ġqu e
Ġ19 74
ĠSt ory
ne ed
ass es
ach man
Ġ> :
Ġres c
ng ot
nm ls
ER IC
ĠAr m
oll y
ĠIs les
Ġover l
Ġser ves
nB oth
Ġbl ocks
15 1
13 8
13 28
Ġgu ard
Ġfl ies
org et
Ġrem oval
17 3
Ġfe ver
AR S
Ġro cks
Ġsec ession
ĠCl arke
Ġcol ormap
60 5
60 7
Ġx loadimage
Ġspec ies
Ġspec ify
Ġmean ings
Ġ20 2
ĠCan on
ee z
ĠTh or
Ġadv ise
enter prise
ev ent
Ġrequ iring
ĠSh aft
nis n
Ġconf using
nr ather
Ġwhe els
Ġkind a
ott ed
Ġplace bo
ĠApp lication
%* %
Ġresult ed
32 9
ĠAm ong
Ġequ ipped
ĠLe ban
ĠInter graph
Ġed ited
nk ind
nex pl
Ġdist urb
Ġrest ore
urd och
Ġoper ate
arry ing
nch ange
tA ny
nnot hing
ĠShe ikh
Ġoffer ing
epend ing
ĠIm aging
ĠInd ependent
Ġna ive
Ġfall en
nse veral
ĠIN ST
har ris
Ġpers istent
tD on
ann el
================================================================ ================\
aff e
ĠDr ug
Ġconvert ible
ĠGIF s
idd ing
urs or
do ing
ĠMin or
Ġid ol
**************************************************************** ****************
Ġprevent ing
Ġhyp oc
Ġenvironment al
hand ed
cd ac
ninter pret
Ġdiet ary
ĠWork ing
Ġdemonstr ation
Ġmus cle
Ġdistrib ute
Ġfood s
Ġsam ples
ĠJim my
Ġabs or
ĠCO NT
nqu ite
Ġrecommend ations
Ġsafe ly
Ġdial ing
mark et
ĠMax ima
ĠCap ital
Ġconvinc ing
Ġpoll ution
ĠDIS PLAY
auc r
Ġchann els
ĠProp he
gw u
ĠOrig in
ĠSen ate
ĠExt ra
ĠMatthew s
Ġbeaut y
ĠOl chowy
Ġanalog y
Ġpal ette
Ġupgrad ed
ios ity
CMU VM
Ġsequ ence
Ġhack ers
ĠHor ne
Ġwast ed
ochem istry
exp ensive
csu ohio
ĠSolar is
Ġbless ed
Ġdecre ase
Ġrefuge es
Ġtransmit ter
ĠWat son
Read er
Ġhint s
Ġadequ ate
Ġlapt op
Ġshad ow
OPEN WINHOME
ĠPot vin
Ġresemb les
Ġtestim ony
anch or
`@ ("
HEAD ER
ĠPUBL IC
ulky vx
Brow ard
Bigel ow
advt ech
ĠFresh man
ĠVandal izing
" /
$ *
) %
* =
+ #
+ .
, /
/ \'
4 50
5 23
6 21
; (
< -
E Z
H F
H arry
J L
K I
L M
M uslim
M hz
P J
P K
P ol
Q J
R G
R J
T odd
W U
X G
Y D
[ $
] ]
_ ^
_ .\
` `
b ank
b anks
c amp
c onsider
d ir
d sd
f ed
f ather
g m
g ency
g eneral
h usc
i i
j b
j ion
k u
k er
l ater
l ared
m is
m as
m pr
m oment
n ut
n form
p ed
r ap
r ance
r ather
s ky
w ent
y r
z ar
Ġ upper
Ġt v
Ġt ar
Ġt un
Ġt clock
in coming
on ent
re v
at ches
is man
it age
ou n
ou red
Ġc ab
Ġc ord
Ġb att
Ġb ranch
Ġf ant
Ġf oc
al m
Ġp ulse
Ġm u
Ġm apped
Ġm olec
ar re
le in
st own
\' -
\' ;
as ant
Ġ( (
et z
Ġg ol
Ġg ang
Ġg ays
ac ns
Ġl am
Ġl obby
ĠS U
ĠS ant
ĠS OL
ĠS ports
ĠT ob
ĠT ari
ĠC ome
ĠC ass
ĠC IS
ver ter
ay on
ĠM og
ĠM LB
ĠM UST
ĠF ed
ĠF if
ĠF riedman
nt echn
ĠB arl
ĠB rett
ĠR uth
ĠP D
ĠP ont
ĠP AN
ur artu
ch opin
ĠD oc
ĠD ep
ĠD isc
ĠD raft
ĠD ayton
ĠW S
ĠW ayne
Ġst y
Ġst amp
ĠH upp
ĠH aven
and ed
el ve
Ġr uins
Ġr itual
ĠG ET
ĠG retzky
op eration
Ġhe ated
ĠN L
ĠN at
ĠN OW
Ġ2 15
>> "
Ġdo se
um cc
ĠL AN
ĠL OT
ĠO W
ĠO ri
ĠE ither
ĠE SD
\\ &
ant h
th ree
Ġar ithmetic
ust r
ind ex
Ġsh aring
vers ary
nM r
oc ial
Ġ< =
are mont
Ġsu cks
pt on
Ġch ap
Ġun belie
ĠK now
ĠK uo
nN ational
Ġthere by
nc ase
og sci
ase y
Ġpl ausible
Ġcomp leted
Ġdis g
Ġdis claim
Ġ19 48
Ġ19 77
Ġ19 76
Ġag es
ary l
ĠCh amps
Ġam endment
Ġpr act
ne qu
Ġev ident
ult ure
np op
nb ec
nb us
Ġ6 02
man kato
Ġres ign
ms s
10 7
ER B
11 13
ĠAr nold
Ġsc attered
pe ace
nf ound
nf ull
nf eel
ĠIs a
ull ou
nP r
Ġrel ating
ĠĠĠĠĠĠĠĠĠĠĠĠĠĠĠĠĠĠĠĠĠĠĠĠĠĠĠĠĠĠĠĠ ĠĠĠĠĠĠĠĠĠĠĠĠĠĠĠĠ
ca e
nB ecause
nin cluding
ĠHe aly
ĠChrist opher
Ġob ey
ĠAnd y
ON D
igh ters
13 3
Ġdef ence
Ġmod ify
Ġmod ule
40 3
ran jion
16 3
oy le
Ġsec ular
Ġhard disk
ĠPro bably
Ġreg ions
Ġcol umn
Ġspe aks
nK e
nK evin
Ġreal ized
sc ott
Ġche cks
>< =-
nE mail
Ġwar n
Ġwar ned
Ġwar rants
let in
let ion
ĠInt egr
Ġint r
med raut
28 3
Ġinc ons
inc ent
inc arnation
Ġdr unk
ler c
33 3
AC AD
Ġexam ine
Ġfound ed
br adley
Ġexpl oration
Ġsol ntze
75 5
ĠMS W
Ġent ries
Ġent hus
nfor ce
Ġansw ering
off s
Ġobject ion
Ġpartic les
vert ed
Ġbad ly
ĠĠĠĠĠĠĠĠĠĠĠĠĠĠĠĠĠĠĠĠĠĠĠĠĠĠĠĠĠĠĠĠĠĠĠĠĠĠĠĠ ĠĠĠ
Ġpublic ly
nU S
ĠAt mospheric
li est
ĠBe ach
Ġpat ches
ĠEx pl
opp er
ĠMc K
Ġdep os
Ġpe ak
Ġexpect ing
ĠCr ay
Ġfield er
Ġrepl acing
nAnd rew
ĠShe a
Ġnice ly
Ġamong st
Ġland ed
Ġtem p
Ġcho oses
Ġtreat ments
Ġut il
ĠCont in
Ġpick ing
fe it
bi h
:- )\
ĠCle mens
nim age
Ġproject s
ncom puter
ĠHar vey
Ġmount ains
Ġstick ing
Sh az
cover ed
Ġphot ography
ĠRob inson
ocal yp
Ġconcept s
ninter ested
nNews groups
Ġscript ures
Ġdiv ided
nop er
dis play
Ġthreat ened
ĠPH ONE
Ġeth ics
atab ases
Ġbelong s
Ġfool s
Ġeffic iency
Ġsac red
Ġgraph ical
-+ --------------------------------
ĠQue en
Ġclos est
ĠCall ison
Ġimprove ment
war wick
Ġult imate
Ġinj uries
++++++++++++++++++++++++++++++++ ++++++++++++++++++++++++++++++++
log ic
ubvms d
nwr ong
ĠAlex and
elect ronics
nChrist ians
Ġinstit utions
Ġcir cles
ĠGil bert
ĠEll ison
mun ition
Ġswe ep
dg bt
Ġeval u
%%%%%%%% %%%%%%%%
qual comm
ĠBern adette
ĠTour ist
ĠCroat ia
ĠGEN OC
Ġexplos ion
ĠFurther more
ĠCook amunga
ndif ficult
Ġhal at
Ġadopt ed
Ġannoy ing
abhak ar
ĠSte alth
ĠOw en
york u
ASU ACAD
ĠNether lands
aflow itz
shock wave
! -
# \'
% -
& "
( :
) =
) >
+ ^
, *
, @
3 000
: ;
< ^
C reate
D ef
G r
H B
H U
H ER
J T
L F
L T
L awrence
M ost
M IL
T K
T hen
V Z
X L
Y G
Y Q
Y X
Z U
_ %
_ :
a ism
a uk
b ster
d ing
d ell
d ays
d avid
f u
g te
h it
i pl
k ish
l ights
m cs
m arks
m izzou
n end
n ail
n able
n ident
n xt
o is
o ose
o ided
q v
r ific
s uper
t one
u vm
v ale
x b
x v
y k
y fn
Ġ ********
Ġt ons
Ġt ony
Ġt asks
at i
Ġw ond
Ġw inter
Ġs izes
it i
it o
it ives
it udes
es a
es sel
es see
en k
en kyou
Ġc ure
Ġb rian
Ġf el
Ġf ier
Ġf ash
Ġp ipes
Ġm art
Ġm ales
Ġm asks
ar in
ar ters
ic d
Ġin ability
Ġn elson
ot he
et ition
Ġg est
ac ad
Ġl oves
ĠS pr
ĠS OU
ĠS elf
ĠS pring
ĠT s
us enkyou
Ġre form
ĠC ip
ĠC apt
ĠC MOS
ĠA F
ĠA x
ation ally
Ġyou th
ĠM ean
am my
am city
ig are
ĠF le
ĠF iles
nt rying
ĠB EL
ĠB MP
ĠR ow
ĠR ous
ĠR US
ĠR osen
ĠP ixel
ce p
ke es
ur g
ĠD R
ĠD atabase
ter ian
ĠW a
Ġst ations
Ġst ein
ag h
ag ner
ĠH og
el anne
nS he
Ġr j
Ġr us
ĠG I
ĠN ev
ĠN agor
nI nt
ul ter
ĠL ater
ĠL atin
nO kay
ĠO pp
qu ite
Ġk ick
Ġse vent
ĠJ e
ĠRe ason
nM in
Ġgo alt
art on
Ġde grad
end ers
ns he
Ġun ity
Ġle ak
~~ ~
ĠK ol
pl ed
nc or
nc lear
ĠV I
ĠV HS
ĠV alentine
ĠUni verse
ire ments
ue h
so le
19 4
19 87
nD an
nD en
ber to
nw ar
Ġtr ag
Ġtr ace
Ġtr icks
ĠY ours
ĠSt olen
Ġcl im
Ġcl ick
Ġcl ouds
ress ion
Ġgr ay
ng ener
Ġpre vention
ĠX term
uch aine
Ġ/ ____
=- \
ĠCom mercial
Ġ7 9
nR es
ER N
ath s
ĠAr romdee
nf iles
Ġ9 600
nin vol
14 6
ys b
15 2
Ġdes erves
Ġfl ights
Ġmod ules
Ġmod ifications
40 7
Ġacc used
uss otto
pect s
Ġcr isis
Ġpost ers
erv ing
24 9
land er
ĠAs ia
au x
23 8
Ġperson ality
Ġsm oking
Ġreal istic
Ġinv ented
Ġinv alid
Ġgener ic
Ġgener ator
af ety
ĠTh ree
ĠZ arathushtra
90 4
ĠSh aw
pro cessor
88 2
Ġmin i
Ġmin istry
Ġconf ident
ror ism
Ġbad en
News groups
arl iam
con c
Ġaccept ing
LI BS
ĠLe high
reg ular
IM ER
ĠMan agement
Ġpit ched
ĠSe a
ĠNe WS
arry l
Ġbre aks
Ġpress ed
Ġbox er
sun ysb
UT H
Ġfan atism
Ġfin ancial
Ġdam aged
ald o
Ġprom ises
nAl an
aut os
Ġut zoo
Ġcompl aints
Ġarch ie
do or
def ined
ĠCle ment
ĠTH e
Ġdom inated
Ġemploy ed
Ġalt itude
Ġident ity
Ġfunction ality
Sh ave
force ment
organ ized
ĠFr ont
Ġsil ent
Ġsens or
wr ong
ĠRad ar
ĠEr ror
ĠEr icsson
nCan ada
arb ase
ĠAc celer
ĠFre der
Ġdestroy ing
Ġjump ers
ĠReg ional
ĠBro ad
Ġfac ility
Ġmat hematical
west minster
NY R
ĠĠĠĠĠĠĠĠĠĠĠĠĠĠĠĠĠĠĠĠĠĠĠĠĠĠĠĠĠĠĠĠĠĠĠĠĠĠĠĠĠĠĠĠĠĠĠĠĠĠĠĠĠĠĠĠĠĠĠĠĠĠĠĠĠĠĠĠĠĠĠĠ Ġ
><><><><><><><>< ><><><><
Ġupd ates
Ġexperim ental
Ġinstr uction
BD IR
ĠGet ting
Ġencour aged
ĠPort land
Ġhonest ly
Ġresol utions
Ġmal aria
ĠConsult ants
fid o
TION S
ĠMiss ouri
ĠBapt ism
Ġconstr uction
opin ion
Ġcate gor
Ġsubs id
uic vm
Ġelim inate
Os manli
Ġpersec ution
Ġow ns
Ġincomp et
ĠBIT MAP
Uni x
ĠEV ERY
Ġsubstant ial
Ġaud ience
ĠJac ob
Ġintellect ual
Ġencounter ed
Ġvac ation
ĠCore l
stud ent
Ġconfir med
Ġcompat ibility
Ġphotograph s
Ġic ons
ĠDur ham
Ġpropri etary
429 8
Ġsou ls
Ġiniti ative
Ġdoctr ines
jy usenkyou
ĠStuff It
ĠDaw son
Ġgarb age
olester ol
goth amcity
" [
" ^
# -
$ >
% >
& @
* ^
+ ------------------------
, ;
2 92
= \'
= ><=-
? -
? /
? :
A O
B G
C Q
C ont
C ON
D id
D OM
E very
G raphics
G ordon
H ave
H elp
K arab
M J
M uslims
N K
O ri
Q P
R W
R eg
R oyal
S an
S em
S erve
S igned
T EMP
V oice
X e
Y N
Z A
Z I
[ =
a er
a un
b ian
b mp
d one
g od
g ang
g toal
h ate
i ews
k r
m urdoch
n ote
n issue
p her
p ersonal
q mind
r ong
r ubin
u ot
u els
v ir
Ġ ================================================================
Ġt ips
Ġt rees
Ġa rose
in qmind
re ak
Ġthe ology
at hered
Ġw al
Ġw il
Ġs ons
Ġs alt
is her
is ible
is play
ed it
Ġc c
Ġc ovenant
Ġb es
Ġb ars
Ġb ands
Ġb arb
Ġf old
Ġf aced
al cor
Ġp ow
Ġm b
Ġm st
Ġm ss
ar is
ar os
le feld
st ra
st ellar
Ġn f
ot ype
ly n
Ġg rey
Ġg iant
ĠS av
ĠS omething
ĠS odom
ĠT K
ĠT ax
ĠT hings
ĠT elescope
ĠT aurus
us a
us m
Ġre pro
ĠC amer
ĠC urrent
ĠC urrently
ĠC opyright
ĠC andida
ĠA er
ĠA IU
Ġe g
Ġe z
ad ers
ad ium
ad alle
ĠM N
ĠM AT
ĠM ID
ĠM eyer
am o
am ine
am ination
am ples
Ġfor cing
se ason
ĠF at
ĠF IN
ĠB NR
ĠB udd
ĠR an
ĠR ac
ĠP ath
ost ack
ĠD SI
ĠD uke
Ġst ove
ag ent
ĠH ans
el in
el ow
ĠG ra
ew ey
ĠN ye
>> :
ct ors
os f
os ophy
Ġcon j
ĠL ock
Ġpro portion
00 4
nL e
nL ook
ĠO wn
ĠE au
\\ +
\\ <
\\ >
th ird
th anks
Ġar c
Ġv o
ĠJ am
ĠJ PL
Ġsh ield
Ġsh arp
Ġme at
Ġj oy
Ġgo vern
are st
ie gel
Ġsu e
Ġde ar
Ġde eply
iv a
nT HE
nT hanx
ack age
ns y
ns aying
Ġun t
Ġun ion
ak a
ĠK er
ĠK or
ĠK elly
ĠV iking
Ġne at
uc f
19 7
19 9
Ġcomp ens
nD K
Ġdis eases
nA dam
Ġtr ain
Ġtr ucks
Ġtr igger
Ġtr acer
ĠY ES
Ġ19 2
Ġ19 18
ĠCh ain
ĠCh ronic
ĠCh ief
Ġpre ach
nm ot
nm aking
hy dr
Ġper t
Ġper ceived
IN FO
Ġact ed
ade k
nP S
Ġ[ ]
Ġrel ation
nB R
nB as
nB ruce
14 3
ict ure
sh ire
Ġbl o
Ġsystem ic
de leted
Ġnow here
25 4
ah n
40 1
way ne
30 2
Ġpar se
red ible
ik en
Ġro se
nre port
ident ally
24 6
ext all
Ġav oided
au ge
Ġco operation
ĠCl aire
60 3
Ġind ependence
35 3
Ġ24 5
Ġchild hood
isc her
Ġpower ed
ev idence
ĠSh ostack
Ġdr inking
Ġext rem
Ġem pir
Ġconf use
Ġpass ion
tern ative
Ġloc ally
Ġ12 00
UC SC
Ġsuggest ing
Ġview point
Ġsend s
ĠBl acks
Ġreport ing
mm c
nth ree
cr d
.\' \'
66 6
nor ig
nor der
nst at
LI BDIR
arn es
ĠBe gin
ĠPr inceton
Ġbuild ings
36 1
--- +\
US CR
onom y
Ġsy mp
Ġtext ure
Ġgl or
sd pa
:::::::: ::::
IR A
Ġpress ing
Ġoffic ially
rel igious
Ġcult s
Ġred irect
OO OO
Ġ** *\
Ġmov ies
CS D
erm ans
Ġprom ised
Ġtw ist
Ġball oon
Ġmag azines
lor al
fr ont
ĠDes ktop
ss es
ĠMat hematica
angu ages
vm cms
bor ough
Ġden ying
Ġann ounc
Ġgen uine
Ġsoon er
nOrig inal
ĠMR I
Th ose
ĠSim on
ĠProgram s
ĠGu y
Ġste el
Ġpoor ly
Ġsch olar
ĠAc id
sci ent
ĠSH AR
nop en
orcy cles
-------------------------------------------------------------------- ---\
Ġaw esome
Jeff rey
ĠFl ames
Ġpin ch
Ġfac ilities
Ġlock ing
ĠHart ung
Tim othy
Ġord inary
ĠOver acker
init i
ĠOb ject
UU UU
esc ription
Ġstock p
bb n
Ġvisual ization
Ġult imately
Ġwitness es
Ġbar rel
Ġdim ensions
============================================================================ ==\
Ġhoriz on
Ġ**** *\
Ġli quid
ĠAfric an
Ġdiagn osed
Ġdiagn osis
Ġsn ail
Ġmo ons
Ġmo isture
phas is
trans fer
nsim ilar
umin osity
ĠCamp us
idel ines
Ġrub ber
Ġspect rum
~=~=~=~= ~=~=~=~=
ĠSol utions
Sab retooth
Ġfuck ing
ĠBeck man
sat urn
Ġexplicit ly
Ġantibiot ic
Ġentertain ing
Ġoccasion ally
ĠKn ox
ARN ING
Ġou ter
CLA IMER
ĠBed ford
ĠDor othy
Ġobs erve
comput ers
Ġdemocr acy
Ġneut ral
Ġcruc ial
070 5
ĠKub ota
Ġoccas ions
mks ol
imens ional
Ġallerg ic
emiconduct or
Ġsummar ize
=-=-=-=-=-=-=-=-=-=-=-=-=-=-=-=-=-=-=-=-=-=-=-=-=-=-=-=-=-=-=-=- =-=-=-=-
ĠTenn essee
ĠBeaver ton
ĠAdapt ec
Ġreconc ile
Ġgol chowy
Ġdisclaim ers
arliam ent
><><><><><><><><><><><>< ><><
USCR PAC
$ -
$ =
% $
+ /
. ^
; %
; )
; \'
? _
A meric
B r
B rett
C raig
F ILE
H J
H am
I Q
L O
L ean
L uke
M in
N one
P er
P ath
S hell
U A
W J
W P
X D
X J
Y B
Z C
] -
^ $
b etween
c est
c ica
c ube
d as
e ach
g on
g om
g ra
g opher
h ire
h itting
h averford
j e
m n
m ps
m ask
n hy
n come
p wd
r ics
t that
t cd
u enc
w ind
w indow
Ġa ster
he tor
in ria
re nc
re xel
Ġw aves
Ġs arc
Ġs aints
Ġs kep
it d
Ġc a
Ġc ow
Ġc rew
Ġb er
Ġb ind
Ġo ct
ing ham
Ġf et
Ġf lee
al ers
Ġp ac
Ġm ere
Ġm erc
Ġan th
Ġan cest
Ġth in
ic hel
ĠI F
ĠI d
\' =
\' _
Ġis lands
Ġg host
ĠS ad
ĠS ite
ĠS my
ĠS ounds
ĠS UM
ut a
Ġre play
Ġre build
ĠC ertainly
ĠC OSY
ĠA BC
ro at
ld orf
ĠM C
ĠM ind
un ge
Ġ1 18
ĠF REE
nt t
ĠB B
ĠB al
ĠB alk
ĠB urn
ĠB RE
ĠB oomer
ĠR X
ĠR ind
ĠR anger
ĠP RE
ĠP anther
ch arles
ĠD ash
out ing
ist o
ĠH ad
ĠH OW
ĠH usse
ill o
el ch
nS VR
Ġr ag
Ġr ank
nd eter
nd ocument
ĠG REAT
Ġhe ro
ĠN ULL
ĠN obody
ĠN anao
os c
ĠL I
Ġpro ves
rg ate
nL ike
ap ana
ĠO il
qu ake
\\ "
\\ )
Ġk m
th aca
Ġse ar
Ġex pression
Ġwe alth
our ay
ort ions
nM c
nM ax
ie ve
end if
Ġal ien
ies el
ns u
ns ubject
Ġun prov
pl aced
nN ame
ĠV eal
ong s
Ġcomp aring
nD e
nD ear
nA pple
ber nard
nw onder
nw hether
ĠY ear
Ġ19 15
ĠSt rip
Ġ5 25
Ġhad es
Ġam er
ne lect
nb ased
nb etter
Ġres ort
ng iven
per i
Ġinter act
Ġpre view
Ġpre ference
Ġbel t
ĠX lib
Ġper ception
nR ec
nR ight
Ġwant ing
Ġpo ison
11 8
20 8
Ġsc are
Ġsc roll
Ġover whelming
ull ivan
nl ow
Ġsupp lied
nP C
iss ues
ĠĠĠĠĠĠĠĠĠĠĠĠĠĠĠĠĠĠĠĠĠĠĠĠĠĠĠĠĠĠĠĠ ĠĠĠĠĠĠĠĠĠĠĠĠĠĠĠĠĠĠĠĠĠĠĠĠĠĠĠĠĠĠĠĠ
nB os
ert j
Ġ_ |
nF inally
15 5
Ġdes ired
Ġpart ial
Ġpart ially
Ġfl ood
Ġac comp
ĠDe uter
Ġdec ay
Ġro of
any one
Ġinf lict
ĠAs imov
ĠWe iss
Ġsur faces
ipp y
ris y
nit ed
26 9
nn ame
rit ish
rit ories
Ġlist ing
IC S
Ġext end
me ga
AM P
Ġins ight
ĠAd ol
Ġexam ined
gov ina
br aska
75 8
Ġarg u
Ġarg ued
Ġunderstand s
off ee
ĠBr inich
Ġview ed
comp aq
Ġsign ature
Ġ... .\
AD ERS
And re
ĠInter face
nwith in
IV ERS
ĠNOT E
ĠPr abhakar
Ġexp osure
arr ing
\\\\\\\\ \\\\
Ġelect rical
US E
Ġrad ical
ortun ate
ĠCr ow
ncon fig
Ġz oom
ĠInd ians
Ġtechn ologies
ece ived
nse em
nse ems
Ġpers u
ĠSch a
arks ide
istic ated
oop s
Ġstudy ing
tC ont
Ġcivil ization
ĠUs ually
Ġcut s
Ġlab s
ĠAzer is
Ġden ial
ĠMin istry
Ġpray ing
Ġquot ing
ĠCOM M
Ġrespect ively
peg asus
Ġmir acle
ĠCAN ADA
sequ ently
Ġrepresent ed
Ġsch olars
Ġcollect ed
SR C
Ġpot entially
Ġdiv or
sal m
Ġconver ts
ĠSH O
Ġdemonstr ate
ocr atic
ndis play
Ġtou ched
ĠAzerbaijan is
dy nam
odes k
amm ad
Tr ac
Ġrestr icted
Ġrestr ictions
Ġspread ing
Ġarm ored
ĠMos cow
Ġcapt ured
Ġprob ability
nCl ayton
ĠAtl antic
Don ald
Ġhy dro
ĠDis play
Ġadvert is
ĠLev ine
Ġteac hers
Ġscr atch
Ġresol ved
Ġoccup ation
Ġattrib ute
Ġintegr ity
ĠArch ives
log in
orth y
Ġdecl are
nwr ote
ĠBel gel
Ġinstit ution
Ġintent ions
hart ung
Ġbob be
^^^^^^ ^\
ĠBapt ist
ĠTw ins
cult ure
hor us
ĠKent ucky
Ġplot ting
Ġdict ators
Ġpolyg ons
Wh ales
Ġtoler ance
jh unix
rah ul
ĠBit net
ĠBul letin
orig inal
Ġestim ated
ĠUnivers ita
Ġris ks
alestin ian
Ġnom inal
accept able
neff ect
hq x
Ġflo ating
ĠHend erson
ninc re
Ġug ly
Ġcyl inder
ĠEinst ein
Ġplaint ext
aysh ade
Ġpolitic ians
Ġbure aucr
Ġded icated
Ġschem es
Ġstatist ical
Road s
ĠPsych ology
ĠObserv atory
Ġoutr age
Ġinev itable
******************************************************************************** \
ĠHusse in
# !
$ <
% _
& .
& =
& \'
) &
* #
/ $
2 19
6 29
; !
; @
< ;
> %
> \\
? $
@ -
A gent
B eck
F red
F ontaine
H M
H ell
H aw
K N
K urt
L ANCE
M ore
M IN
M any
Q F
Q M
Q V
T Z
V EN
W est
W hich
X E
X V
Y L
Y M
Z P
[ !
[ (
[ @
] +
] @
^ )\
b p
b ase
b urn
c ale
d ark
d arkside
f at
i up
k ar
l t
l ate
m oh
n od
p ool
r unning
s end
s peaking
u ow
v all
w ang
w riter
x a
x on
y ll
y cl
Ġt elescope
Ġa ap
he a
he ard
at ers
is ler
Ġc me
Ġb reat
om ed
Ġf ancy
al uma
Ġp ic
Ġp icks
Ġm js
le ments
Ġd b
Ġd at
Ġd ress
Ġd bd
st op
\' >
Ġh uh
Ġin accur
as kew
ll y
Ġg ent
Ġg ut
ĠS em
ĠS AS
ĠT ig
ĠT hy
ĠT erry
ĠT EST
ĠT WO
ut ors
us an
us ask
ĠC zech
ver ting
Ġe uropean
ro ach
im ag
ĠM es
ĠM am
ĠM its
ĠM ORE
un it
ĠF und
ĠF iction
ĠF ROM
ĠB in
ĠB ase
ĠP arliament
if ax
ĠD I
ĠD ar
ĠD ry
ĠD ID
ĠD EP
ĠW I
ir k
ir is
ab il
nS at
Ġr le
Ġr ounds
ĠG ive
ĠG OD
ĠG ordon
Ġhe y
Ġhe res
Ġhe ck
ĠN ations
Ġ2 80
est ion
est ination
ĠU M
ĠU PD
ĠL i
ĠL ou
ĠL as
ĠL ot
ĠL DS
ĠL incoln
ap or
ap ore
ard less
Ġcom et
ĠO OBE
ĠO THER
ĠO rgan
\\ !
\\ -
Ġk o
Ġex ch
Ġ- $
Ġ- .
Ġv ib
Ġv ague
all ax
ĠJ aeger
Ġ3 60
ĠRe form
ĠRe isman
Ġsh alt
Ġj ail
Ġwrit er
nM ake
oc anon
ni es
ast ron
Ġ| \\
pt une
ns ent
Ġun dec
ĠK ay
ĠK NOW
pl acement
hen g
ĠV irgin
og gin
Ġ4 000
cc c
uc ar
Ġ0 17
nw ard
Ġtr act
Ġ19 60
Ġ19 69
Ġcl ause
use k
use um
ĠCh ang
ĠCh ange
Ġam munition
ne k
ult y
np ub
nb ig
man y
man ager
NT ER
Ġgr ateful
ob ject
ob oda
Ġinter vention
ish ment
ĠCom ics
ors che
nR equ
Ġpo inter
ple x
oll ins
nW olverine
nf ield
Ġover head
Ġoff ices
nl im
nl ife
nl arge
ps es
han na
str uction
nB oston
ote in
14 9
Ġcar pet
Ġob sc
Ġbl owing
Ġcomm itting
Ġprogram med
Ġthr ows
16 1
Ġrem ed
Ġcr ashes
ft i
AL O
Ġac ad
Ġac ademic
men iler
AR F
nG uy
22 2
ern ame
Ġform atted
Ġreg ret
Ġco ast
ĠCl ub
Ġsl ots
Ġter ribly
ipp old
ĠTh ompson
by u
ĠSh ow
21 10
ĠRes olution
ĠGr ad
ĠGr iff
33 33
88 8
Ġtri v
Ġnews papers
EL F
br ight
UC TION
riv acy
Ġkey map
ĠBr other
Ġref uses
Ġprop hes
comm unications
Ġobject ions
ĠTr aining
vert ex
ille g
95 5
cle an
Ġlight ing
actic e
LI PPER
Ġprocess ors
ball s
ĠEx ecutive
Ġdevelop er
npro duct
ĠSe an
--- +
Ġdist r
Ġcorrect ed
ĠNe ither
Ġrad i
Ġfre eware
osh op
Ġmove ments
tA ll
urp ose
nCh icago
epend s
OC AL
arth y
Ġspeak er
ĠTurk iye
UN IX
Ġign ores
Ġvis ited
Ġclass ic
OO D
Ġtechn ically
Ġmonitor ing
Ġsk ull
EX E
Ġ) ;\
row an
Ġcompl iant
Ġworth y
des c
Ġload ing
ĠBy ler
735 5
------------------------------------------------------------------------ ---\
reet ings
Ġann ual
cell ar
Ġenter ing
aur ie
Com puter
Ġmeas ured
How ever
Ġorbit ing
Ġalt ogether
ander b
ĠOther s
Ġcontrib utions
Ġrepresent ative
Ġminor ities
Ġfrequ encies
Ġfather s
Ġpull ing
Ġquant um
Ġge ometry
Ġvalid ity
ĠSouth western
------------------------------------------------------------ --
db stu
mid t
ĠBob by
Any way
Ġwat ts
ĠDev il
_| /
nde velop
Ġstruct ures
Ġcell ular
nget ting
Ġmeasure ments
nob ject
ĠGay a
Ġregister ing
Ġcart ridges
ĠPar is
Ġperform ing
war f
Sp ace
Ġlink ed
Ġteac hes
ĠEgypt ian
ĠRoy al
Ġsup ern
User agent
User Agent
Ġswit ched
Ġtort ured
Ġemot ion
VI EW
does n
Ġconstitution al
nbl om
ĠHan over
ĠLog ic
unis her
Ġadapt or
,`,`,`,`,`,`,`,` ,`,`,`,`,`,`,`,`
ĠHy per
ĠUT exas
+-+- +-+-
ĠOp el
Ġexclus ive
brand eis
nArmen ian
Ġanaly ze
alestin ians
Ġsymb ol
ĠFair banks
Ġtong ue
ĠCre ps
ĠLem ieux
vestig ation
Ġdynam ic
ĠCauc asus
Ġcollabor ation
comfort able
Ġreli ability
Ġsav ings
Ġeld erly
ĠAud i
ĠBea uchaine
Ġvel ocity
Ġincl ined
ĠBry ce
ĠOper ations
Gre gg
3150 101
Ġlaug hed
Ġstom ach
ĠNagor no
Shave The
=><=- =><=-
Royal Roads
TEMP LE
" >
" ).
# =
, (
3 90
5 97
6 35
< =
< ?
= _
A fter
A nthony
C Y
D U
D Z
D resden
E ven
F AQ
H X
H ai
J B
L Q
L es
M oh
N V
O ur
O ther
P W
P erry
R B
R Q
R ec
R EL
S tr
T ext
W L
Y H
Z F
Z S
[ -
[ >
] )
a eh
b ch
b ill
b md
b irth
b aseball
d ale
d isclaimer
d allas
g ian
g iven
h ay
i it
i ri
i em
i ots
l ins
m ates
m ichael
n ice
n red
n let
n key
n echo
p ires
q l
r at
s ight
s age
s ame
s ite
s pect
s afe
t No
v ma
w aine
w artz
x ide
y oy
Ġ illeg
Ġa z
Ġa im
he lios
re ston
Ġw ier
Ġs ir
Ġs hed
Ġs ister
Ġs outhern
an ic
ou st
en gin
en berg
ed ge
Ġc unix
Ġb on
Ġb read
Ġb mw
Ġf acing
Ġf iring
al str
Ġp ipe
Ġm arg
Ġm arry
Ġm amm
Ġm ilk
le ms
Ġd ps
ic z
ic ts
st raight
ĠI de
ĠI RA
ĠI thaca
\' $
\' +
\' [
Ġin ten
et ri
ec on
Ġg rew
ac id
Ġl unch
Ġl anguages
ĠS R
ĠS ET
ĠS EC
ĠS peaking
ĠT ag
ĠC ut
ĠC ry
ĠC urt
ĠC TS
ĠA I
ĠA min
Ġe astern
ĠM K
ĠM is
ĠM as
ĠM IN
am ong
ig o
se z
ĠF arm
nt u
nt rad
rom ised
ĠB at
ĠB rew
ĠB ased
ĠB arb
ĠR T
ĠR EL
ĠR osp
ĠR uns
ĠP ent
ĠP ap
ĠP ix
ĠP ocklington
ol an
ol ate
ur ry
if ics
ĠD SP
ĠD IB
ĠW ars
ĠW AY
ri ages
ag ger
ĠH ull
ill on
Ġr ush
Ġr hetor
nd ay
nd ays
nd iscussion
ĠG U
op ed
op sy
ĠN ic
ul ators
ĠU nknown
ĠU ntil
ct rine
Ġcon stitutes
ap ien
ard on
Ġcom ets
ĠO ption
ĠE p
ant ages
Ġar ise
Ġse al
res pect
ĠJ un
Ġwe ird
Ġ3 38
ĠRe view
Ġsh ipped
Ġj oh
Ġ| /
Ġch uq
^^ \
ib a
iv ist
nT echn
******** *******\
ns ide
ns uggest
ak im
ud icr
ĠK ari
ĠK EY
pl er
nc ost
nc ient
ĠV irtual
ĠV iper
ĠV EGA
Ġout field
Ġsp r
Ġsp oken
ep er
hat ing
og urt
ound ing
ong ong
19 80
Ġcomp osition
nD ean
Ġdis gu
nA g
nA pr
Ġqu ery
Ġad min
Ġtr aces
Ġ5 000
Ġ5 75
Ġen able
np resent
nb as
Ġres erve
ms fc
net t
ug o
Ġgr ade
per atures
ens on
ont in
Ġpre par
nm ail
IN I
nC all
nC ambridge
.... ...\
sel ess
nf c
nf ew
reat ing
nl ot
nl ove
________________ \
Ġ9 27
nP resident
ĠĠĠĠĠĠĠĠĠĠĠĠĠĠĠĠĠĠĠĠĠĠĠĠĠĠĠĠĠĠĠĠ ĠĠĠĠĠĠĠĠĠĠĠĠĠĠĠĠĠĠĠĠĠĠĠ
vel ope
we ek
nH ome
14 7
Ġob edience
Ġbl own
not hing
Ġhere in
Ġacc idents
Ġprogram mers
Ġbu ff
Ġhel pless
nof fer
ph ones
30 6
Ġbr ut
OR Y
nG K
nG ary
nG erald
any thing
Ġmight y
80 5
24 4
ĠPro blems
Ġinf ante
Ġreg ulations
Ġreg isters
Ġco vers
ĠWe apon
get t
Ġx pert
Ġhand ed
sc ar
Ġter rain
Ġ20 4
Ġ20 5
35 5
---------------------------------------------------------------- -\
nal ways
rit vax
Ġbit zm
ĠRes p
Ġkill s
Ġdirect ories
Ġfar m
ĠAd apter
Ġconf isc
Ġexam ination
Ġconsider able
Ġconsider ations
Ġloc ate
IS C
ott om
UC K
ĠMS DOS
Ġsecond ary
ef lon
Ġless er
eng ers
comp atible
ĠBl oom
bs ol
cr ayton
ĠLe onard
ĠInter esting
ĠBe h
OP S
Ġdesc ript
Ġnecess ity
npro cess
ĠAn im
Ġdist ances
ling er
ĠEd ward
reci ated
Ġbre ath
ĠCr ayton
UT ION
ncon cern
nun til
ĠInd ependence
ring e
ĠOS U
Ġmult ip
but t
ds g
serv ice
ploy ed
Ġmain tenance
Ġpub lish
Ġprom ote
add am
Ġmag ic
Ġbi ological
Ġenter poop
Com p
Ġpun ished
Ġdifficult y
Ġbill board
Ġbill boards
oul os
dom ain
vin h
si el
mac alstr
Ġ____ _
Ġconfig ure
ĠBer lin
ATION S
wr l
ĠFran cis
ograph ical
ĠSter eo
ĠEr meni
ĠSy dney
dr ug
Ġquant ity
ĠLouis ville
cles un
Ġlay out
Ġresist or
Ġjo ined
Ġprophe ts
Ġcommit ment
ĠPet aluma
Ġmassac red
Ġmat hematics
Ġlock ed
Ge off
ĠHaw aii
tf m
Ġchem istry
ĠMax tor
Ġunf ortunate
Ġstre ets
ĠNE ED
Ġparticip ants
ĠSwed ish
Ġcool er
xx x
Ġacceler ation
nCl inton
Ġqual ify
ĠPlay er
ĠPort al
Ġknock ing
nind ividual
Ġ**** \
supp ort
istor ical
ĠBab yl
Ġremind s
ĠGold en
ĠLE ADERS
Ġpropos als
Ġbull pen
Ġcondemn ation
ĠHal ifax
ĠEli jah
Ġconce aled
Ġmos ques
^^^^^^ \
Ġmad man
Ġhook ed
nquest ions
\\\\\\\\\\\\\\\\\\\\\\\\\\\\\\\\ \\\\\\\\\\\\\\\\\\\\\\\\\\\\\\\\
ais un
Ġwast ing
//////////////// ////////////////
Ġshout ed
ĠRet urn
Armen ia
ĠBern ard
Ġdefe ated
Ġcritic ism
ĠTre k
ĠTool kit
Ġjh upp
ĠWal sh
Ġestim ates
Ġscen ario
Ġshel f
Ġantibiot ics
Ġegg ertj
Ġbin aries
nBe fore
hir am
Ġvolunte er
DIS PLAY
Ġsupplement ation
Ġrif les
orient ed
ĠMove ment
ĠDig est
ĠOpt ilink
ĠSYST EM
nWas hington
Ġswim ming
Ġsinc ere
Ġbom bs
Ġbast ard
eros ene
ĠSchne ider
itro gen
++++++++++++++++++++++++++++++++++++++++++++++++++++++++++++++++ ++++++++
auk uni
Ġnf otis
Ġblo oms
ĠSUM M
ĠUPD ATE
anderb ilt
yoy o
ĠRosp ach
apien za
" =
% (
* ]
+ :
, =
, ^
3 16
4 10
: @
; +
< *
= ^
? !\
A ss
B ox
B ern
B LE
B ecause
B enedikt
C han
F l
G ER
G rad
J A
J N
J AN
K D
L ine
L AM
L INE
M ake
O I
O ccupied
R ad
R eceived
S herri
T er
T alk
U PI
V ersion
X I
X U
Y U
Z O
Z V
[ &
[ ?
] *
] \'
_ @
c ost
c op
c ap
c ies
c ript
d oug
d resden
f ew
f ind
f act
h c
h ia
h onest
j m
l ots
m ouse
n stand
n UC
n group
n action
p it
p aid
r er
r andom
s is
s es
s rv
u ar
u us
v oice
v cd
v wm
w p
w ilson
Ġ }
Ġ ly
Ġ rib
Ġ ics
Ġ ------------
he it
in ates
in formation
on ia
er ated
re ck
re land
Ġthe ist
Ġs ector
it ate
Ġc ease
Ġb orrow
al in
al ian
Ġp k
Ġp y
Ġp add
Ġm aps
Ġm eter
Ġd bernard
Ġth ir
Ġth ier
Ġth umb
st al
st ock
\' @
Ġh iding
as ian
ve tte
Ġ( \
et ric
ec st
Ġg cc
Ġg ull
Ġg olf
Ġg athered
ac ular
Ġl un
Ġl ux
ĠS J
ĠS ore
ĠS utter
ĠT UR
ow ed
ow ards
us k
us ers
ĠC d
ĠC arr
ĠC incinnati
ĠA V
ĠA th
Ġe go
ro ke
ay ed
im ages
ĠM ap
ĠM uh
ĠM byte
am i
un ner
un cher
Ġ1 16
ĠF ah
ĠF CC
==== ==
il ny
ĠB att
ĠB arrasso
ĠB oggs
ĠR and
ĠR BI
ĠR ule
ĠR andy
ĠP in
ĠP ER
ĠP AL
ĠP alo
ĠP ackard
ol ine
ce eds
ur er
ur us
ĠD A
ĠD B
ĠD W
ĠD ale
ĠD akota
ĠW ild
Ġst ance
ub ishi
ist an
od us
ag i
ĠH unt
ĠH ARD
ĠH igher
ĠH elsinki
**** *
com mercial
ab ane
ab riel
nS am
nS te
Ġr pm
nd uring
ĠN ap
ĠN ice
um ni
um bs
est ruct
os er
Ġcon cluded
ĠL am
ĠL ef
ore an
Ġus ername
ess ing
ĠO m
ĠO PT
ĠO VER
ĠE sc
ĠE arl
ĠE GA
ĠE mb
ĠE FF
ĠE TC
Ġse asons
ind y
ĠJ EK
Ġ3 50
ĠRe velation
Ġsh aped
Ġsh orter
Ġj et
Ġj md
Ġj ewish
nM att
ich o
ie fer
Ġ| ____
Ġal ike
Ġch air
ĠK iefer
ĠV F
ĠV iet
Ġsp ons
________ __
cc i
93 0
Ġpl ots
nIn stitute
Ġcomp osed
nD et
nA h
nA bout
ex pl
ex pected
Ġ19 81
cl ipper
Ġman agers
Ġen for
Ġen light
Ġpr on
ass y
np ri
ial i
ov a
cs uch
net news
ci pl
ob jective
ng ames
ng eneral
ens ed
ick er
Ġinter stellar
nm t
nm essage
ĠX hibition
ond itions
ny der
ny vale
=- =\
nC arl
nf ollowing
ps ilink
Ġke l
nP eace
Ġrel ate
enc ryption
nB en
Ġread ily
nh old
14 600
Ġcar son
de akin
Ġcomm ission
Ġdes igns
cept ions
13 00
Ġpart ition
Ġpart ner
25 3
25 9
Ġ10 1
iew icz
Ġworld wide
Ġass ured
ft ms
ey ond
ĠHow ell
Ġdec rypt
ĠAl gorithm
Ġsim ulation
Ġfact ory
Ġro d
Ġro ger
Ġte a
22 9
Ġafter wards
nre st
nre comm
ins ki
az z
Ġreg ime
Ġco erc
23 9
nJ ason
Ġind epend
Ġdisc on
27 9
26 2
nn ational
rit ical
Ġbit maps
ĠSh ap
me an
Ġtrans parent
BI G
88 1
Ġbo ots
Ġconf lic
Ġpres ents
Ġfr action
nr h
nr unning
Ġfire arm
ID AL
Ġexpl aining
work ing
Ġplan es
RE W
Ġer up
Ġsw allow
ari us
ĠPL AN
Ġpublic ation
Ġpublic ations
Ġ:- ).
Ġexist ance
ĠPl anetary
Ġaddress ing
con f
ĠQu antum
66 7
ING S
nst ate
Ġcopy ing
Ġwonder full
ĠComm ission
29 6
vent ually
Ġdesc end
34 8
mp rgate
nex ample
Ġcou nc
ĠNot ice
ĠUN IVERS
87 2
Ġdep th
Ġmark ets
OL S
osh iba
tA s
iron ments
Ġdead ly
Ġz ip
Ġfail ing
Ġlow est
Ġcirc uits
Ġengine ers
Ġclass ical
ister ed
ĠNY R
ze govina
Ġland ing
oz art
Ġcho ke
Ġtyp ing
acc ording
Ġvers us
bor o
bor ne
Ġmis leading
ĠLet ter
Al berto
mon th
735 4
napp ear
bi ochem
nle vel
nle ft
nag og
OV E
Ġrequire ment
Ġconnect ors
TH ING
ĠHar ris
ncan not
Ġoutput s
cor a
ĠPost script
Ġnational ity
ĠSab retooth
Ġtra il
Ġaccur ately
Ġsens itive
XX Date
Ġloss less
Ġste ven
Ġcontrib uted
Ġrepresent ation
sm all
Ġcharacter istic
Ġfrequ ent
Ġrele ases
ĠPol itics
________________________________________________________________ ________________\
Ġshell ing
Ġexec ute
Ġmanufact ured
,\' \'
Ġquant ities
ĠHer z
nme ans
nar ticle
************************************************************************ ******\
Ġjump ing
ĠAthe ism
Ġran ch
ĠBro oks
Ġphilos ophical
Ġmat rix
Ġcred ibility
Ġscan ning
------------------------ --\
ĠHaw k
Ġrestr ict
Ġpredict ed
Ġprior ity
npre tty
ĠAssoci ates
resp ons
-+ --------------------------------------------------------------
Ġhop es
ĠSur vey
ĠMos lems
nsc ott
ĠDO ES
nsupp ort
psy gate
ĠSerb ia
nunder stand
Ġintegr ated
pre fer
ĠRev olution
Ġindust rial
ĠGar rett
Ġpsych ological
ncr atl
Ġdemand ing
bal ance
Ġban ned
ĠIns ide
sn ark
ĠScient ist
=*=*=*=*=*=*=*=* =*=*=*=*=*=*=*=*
Ġrum ors
Ġconsum ption
Ġadvoc ate
Ġdownload ed
bat man
Ġpregn ant
ĠVi ews
bos co
Ġsmooth ly
Ġdies els
Ġcorrespond ing
Ġgal axy
Ġexclus ively
ĠStat istics
nChristian ity
Jo el
ĠBag ged
Ġscen es
ĠConc rete
=*=-=*=- =*=-=*=-
Ġdigit ized
nov a
Ġfulf ill
ĠLu is
Ġkne e
Ġaggress ion
Ġretur ns
Ġretur ning
oub les
Ġmic rowave
ĠLibert arian
Ġfrust rated
gv g
ĠAst rop
nGu ide
ĠThought s
ĠNav al
Ġapost les
Ġunivers ities
Ġrapid ly
Ġreput ation
Ġresem bl
abet es
~~~~~~~~~~~~ ~\
Ġpromisc uous
Ġassh ole
ĠMechan ical
ĠUm um
ĠApart heid
nsit uation
ĠBAT SE
later an
-+-------------------------------- ---------------+\
igare tte
Ġtrag ic
+------------------------ -+-----------------------------------------------+\
scient ific
><><><><><><><><><><><><><>< >\
gom ery
ĠAdol fo
csuch ico
-+-------------------------------------------------------------- +-
" @
& -
& >
) +
) ...\
* @
, <
- =-=-=-=-=-=-=-=-=-=-=-=-=-=-=-=-
/ ?
0 94
2 104
3 40
6 12
: *
; ^
< !
? *
? =
? ]
C ar
E nd
I an
I ED
J I
K V
M on
M ed
M EN
P ER
P TS
Q K
R F
R ich
R oy
R ev
S ince
S peed
T eX
U nfortunately
V al
V AC
X Z
X x
Z G
Z N
Z IP
] !
] <
^ .
b up
c p
c zak
d if
d ue
f k
f ound
h pl
h ous
h sc
h appy
h ulman
j ohn
k il
l ers
m able
m ass
n ann
n organization
n often
p il
p osition
r t
r ons
s ad
t U
t ry
t CH
t but
u art
v use
v anderbilt
z r
z v
z ing
Ġ um
Ġ !!\
Ġt am
Ġt une
Ġa k
Ġa ka
he res
er rit
-- =
at c
Ġw a
Ġw iring
Ġw anna
Ġs ed
Ġs essions
Ġs csi
or ous
is d
en ame
Ġb id
Ġb ored
Ġp ig
Ġp ist
Ġp enet
ar at
ar ain
ar ise
Ġd t
Ġd ar
Ġd ivid
st ones
st arbase
ĠI MO
\' ^
Ġh m
Ġh ire
as ia
ll nl
Ġn inth
Ġg p
Ġg rief
Ġl aid
Ġl ands
ĠS ullivan
ut dallas
us u
-------- --\
Ġre b
Ġre bell
ĠC ox
ĠC OD
ĠC RT
ĠC ubs
ĠA aron
Ġe mit
ro e
ro st
Ġbe ats
Ġbe aring
Ġyou ths
ĠM achine
ĠM emory
ĠM antis
ĠF ollowing
ĠF ischer
rom ulus
ĠB C
ĠB et
ĠB art
ĠB less
ĠB uck
ĠB ristol
ĠR C
ĠR ubin
ĠR abin
ĠP ATH
ĠP ioneer
ur c
ch ran
ĠD al
ĠD im
ĠD istribution
ĠD ewey
ĠW ay
ĠW ater
ĠW ARNING
od ge
ĠH IS
ill ance
**** \
com pressed
ab ol
Ġr acing
nd ead
Ġ" [
ĠG W
op oly
ĠN ik
ĠN CR
Ġ2 30
ul in
ĠU C
Ġcon vex
Ġwas h
ĠO akland
ĠO zone
ĠE EE
ant ing
ant om
th omas
Ġar rival
ust y
Ġse gment
Ġv irgin
ĠJ ay
ĠJ ordan
ĠRe ally
Ġsh r
Ġsh red
Ġj ames
Ġj ohn
Ġj eff
ort ium
oc s
oc ry
Ġ| __
Ġal pha
oug b
Ġun con
ĠK it
ra eme
ĠV ar
Ġhas s
ous ands
so lete
19 89
Ġcomp romise
ip edes
nD escription
Ġno isy
nA dd
nw ords
ex ec
ĠSt art
cl ose
cl aremont
Ġman kind
Ġpr ime
Ġev angel
ass ador
nb ook
Ġcont end
ci i
ci ally
Ġinter ven
nm or
nm ar
nm ain
nm atter
app ear
nR ick
nC alifornia
oll s
ax is
nf ire
50 1
nl aw
nl ooking
oh r
Ġke ith
Ġact ively
Ġrel atives
str ual
ert ino
Ġdri ll
ock ets
nH is
na uthor
ĠGod d
sh ow
nF red
Ġrun ners
cept ible
aph or
Ġ10 5
ran us
ran ny
uss ion
Ġass ess
Ġass ass
nof fic
IT S
Ġdec ade
22 7
ST O
ST ATE
ute ly
ven ge
ren heit
Ġinf rast
Ġform al
Ġfoll y
Ġcor ners
Ġcor related
ho pper
35 7
ier czak
ĠInt roduction
Ġcop ied
28 2
90 9
IC HA
und ancy
Ġbit ch
ĠSh ack
ĠIsrael ites
me gate
pro of
Ġcount ed
Ġins pect
ĠSun nyvale
Ġloc ations
br un
Ġmor ons
Ġarg ues
________________________________ ____
70 8
ĠCon vention
alt a
alt ed
Ġbook st
eth nic
tp re
nj ud
EC E
Ġref ute
Ġname ly
65 3
ĠLe z
arn ate
den ly
li able
ane ous
Ġpat ented
IM HO
29 9
OP E
OP LE
ĠPer formance
Ġcorrect ions
lin us
nch ar
sd su
Ġauthor ized
ĠCr ary
ĠCr ime
ĠCr uncher
ĠDoes n
ser vers
yp es
erc ules
lu ent
Ġstop s
ĠPR OB
CC I
ann ers
add y
IA STATE
Ġmag nit
Ġmag nesium
ĠWar f
No D
Ġest imate
Ġload s
Ar thur
sl ack
napp lication
rem us
def ense
Ġmurder ing
ceed ings
Ġimag ination
rup ts
Ġfix es
Ġheart s
ga uss
ĠSim ilarly
Ġplanet ary
npr int
Ġhost ile
Ġcrypt osystems
ĠRob otics
Ġpen ev
Ġproof s
Ġimpl ications
ĠCON F
ndo ing
Ġconcept ion
Ġopt im
cal vin
Ġcontrib ution
nTh ose
Ġtend ency
Ġcharacter istics
Ġcoll apse
will ing
Ġcreat ure
nop in
nNot es
Ġge orge
-------------------------------------------------------------------- \
nOn ly
Ġcompar isons
Any one
ĠSoc ial
AI JAN
Ġmac ro
ĠNC I
>| >>
Ġcomplex ity
Ġcounter part
ĠTele phone
ĠScript ures
Ġgraph s
Ġweak ness
Ġsubsc ription
utk vm
nEx pires
ĠPhot oshop
lock heed
ĠSatan ic
Ġeditor ial
next work
tel xon
Ġrot ation
ĠJud aism
Ġbag s
Ġdepend ent
Ġmotorcy cles
Ġphysic ians
ĠSal onica
Ġli ar
Doug las
Ġbackup s
nab ove
ĠSi emens
Bl aine
Ġple ased
Ġimm une
nold s
Ġupgrad ing
ministr ative
Ġcontroll ers
ĠMcC ull
ĠMcC arthy
Ġphenomen a
Ġster e
Ġestablish ment
Ġprohib ition
kind a
Ġlif etime
ww c
Ġeval uate
ĠBus iness
Ġdisapp ointed
Ġ_/_/_/ _/
____________________________________________________________________________ ___\
IAL IST
:::::::::::::::::::::::::::::::: ::::::::::::
ĠID LE
phil ips
Ġexpand ed
Ġdies el
ĠSk ip
Ġsettle ment
Ġincred ible
bre ak
Ġrul ing
ĠVill ager
Ġment ions
ndif ference
Ġspokes man
Ġtermin ology
ĠBuild ing
Ġsurve illance
ĠBor land
ĠMut ants
Ġdistingu ish
nInc redible
auf man
Ġinnov ative
hab ra
ĠCru z
ĠOrbit er
ESTER M
Ġoscill ator
Ġsociet ies
Ġsucceed ed
Ġmol est
ĠLaz arus
ĠLOV ING
Ġanecd otal
Ġanni hil
ĠGov t
ĠLeban on
`@(" `@("
ERB AIJAN
Ġfash ion
usm ierczak
Ġunprov oked
ĠBelgel eri
Ġundec lared
ShaveThe Whales
14600 8
Xx date
bup hy
Ġinfrast ructure
megate k
" ]
% :
& ?
( ?)
* :
, #
. $
. >
. @
5 000
: _
; #
< ><><><><><><><><
= )
> *\
? <
? ^
A gain
B V
C all
D ec
D erek
E O
E MS
F U
F eb
G reat
G ood
H K
H ans
I ENT
K G
K ING
L J
L ines
L ast
L ike
L ance
M eg
N or
N ASA
O ICE
Q T
Q view
R os
R AP
S Q
S ER
W are
W hile
X defaults
Y F
Y eah
Z Q
_ #
c se
c ri
c ount
d at
d iv
d isc
d pi
d orf
d imensional
f ly
g b
g f
g mu
h ite
j amin
j ione
k usmierczak
l c
l ia
l ittle
m cl
m ult
m ach
m atter
m atic
m ajor
m ola
n format
r ating
s in
s ize
t they
u ously
v u
v idence
y nn
Ġt a
Ġt ears
Ġa as
Ġa imed
in uk
on z
at form
Ġw ives
Ġw elfare
Ġs ust
Ġs cep
an w
is hes
it ech
it ism
Ġb lew
om ain
al c
Ġp ocket
Ġm un
Ġm our
Ġm uc
Ġm icrosoft
ar ity
le ast
le ft
Ġd ip
Ġd ual
Ġd pi
Ġd atabases
\' (
\' *
as se
ot ion
ot ers
ly mp
Ġg s
Ġg ate
ĠS ac
ĠS addam
ĠT U
ĠT hanx
us gi
-------- \
Ġre vers
Ġre venue
Ġy ield
ĠC AR
ĠC ode
ver a
ĠA ld
Ġe ase
ro cessor
ld er
im ail
ĠM ak
ĠM ade
am mer
am ph
am ily
se bd
Ġ1 14
Ġ1 40
ĠF ors
ĠB ond
ĠB oll
ĠP it
ĠP PM
ĠP OST
ch ive
ĠD CE
ĠD erek
ter bury
ĠW R
ĠW or
ĠW atch
ĠW olverine
em iah
em phasis
ĠH ost
ĠH obgoblin
ĠH oskyns
and ers
iz za
el er
nS ounds
nS ean
Ġr c
Ġr ays
nd iscuss
ĠG oss
ĠG ermans
ĠN ie
Ġ2 20
Ġ2 26
nI ndeed
Ġdo ck
um en
ject ed
Ġcon cludes
ĠL an
ĠL ar
ĠL uck
ĠL anc
ĠL iving
ĠL illey
ĠL exus
ĠL arkin
nO b
nO k
nL arry
ard ed
Ġus able
ĠO cc
Ġk ar
Ġse perate
tic a
Ġv ice
Ġv ms
Ġv ital
Ġv ga
ĠJ AMES
Ġ3 20
ĠRe y
ĠRe ply
Ġj th
Ġj peg
vers ial
Ġ< ><><><><><><><><><><><><><><>\
are ne
ie g
Ġsu its
Ġde em
end en
Ġal ert
ns in
ud o
ra q
ĠV T
ĠV el
ĠV III
Ġsp ray
________ \
og g
og any
Ġso vere
93 111
uc b
Ġno vel
nA T
nA ust
nw orks
ĠSt ars
Ġ5 10
ĠIn qu
np res
np osition
Ġapp ropri
Ġapp ointed
nb it
ov ax
man ac
cs l
Ġ\' \'
Ġgr asp
ob el
per ation
per ty
the ism
Ġinter s
Ġinter views
Ġinter fere
nm akes
nm athew
Ġ/ //
Ġper ipher
te es
12 1
nR ep
nR emember
ED S
form erly
ĠAr bor
Ġsc al
oll ars
Ġsee ks
ps i
omet ric
ĠĠĠĠĠĠĠĠĠĠĠĠĠĠĠĠĠĠĠĠĠĠĠĠĠĠĠĠĠĠĠĠ ĠĠĠĠĠĠĠĠĠĠĠĠĠĠĠĠĠĠĠĠĠĠĠĠĠĠĠĠĠĠĠ
vel a
we et
nh istory
lect ed
ĠChrist mas
Ġcar ries
Ġour s
io let
Ġsystem atic
de an
ES SION
Ġseem ingly
ah ah
Ġmod ification
40 9
Ġass igned
17 8
AL TH
Ġac et
Ġac ooper
Ġwhere ver
Ġdec ades
Ġbr u
ĠAl most
ĠAl aska
nG iven
co ol
80 4
Ġinf ield
Ġform ula
23 1
nJ une
ron x
Ġ+ /-
Ġnever theless
Ġspec ifics
Ġcor pses
ET E
Ġinv ited
Ġposs ession
Ġcour ts
nal though
ĠTh ough
Ġadv is
26 1
26 7
rit is
Ġint ensive
Ġpol itically
nas k
Ġear n
inc erely
Ġstr ife
by terian
ĠSh arp
ĠMac ed
HE M
Ġ25 5
ness et
Ġnet ters
ret urn
Ġem bed
Ġpass ive
nr ad
Ġ18 4
IS S
75 3
Ġsub mitted
Ġsub sequent
Ġmed ian
Ġer r
EC HN
Ġprop ose
comm and
45 5
ĠBl ock
ĠTr ouble
Ġdefin ite
tI s
Ġ:- (\
aus ed
.\' \'\
nU nless
Ġlight ning
LI BR
arn ed
BS D
AP L
Ġfa q
Ġdev oted
Ġdevelop ers
ĠBos io
ĠPr ince
ĠLab our
ĠPres ents
cb m
Ġoriginal s
Ġdist ress
new castle
05 9
ĠNe z
ĠNe ptune
Ġsy nchron
Ġhit ters
ĠShe ll
UT K
Ġmot ives
sy l
INN k
Ġpractic ally
UN B
Ġred raw
gs usgi
Ġviol ations
Ġver b
Ġdam ages
Ġsk ills
ĠRuss otto
Ġap ologies
Ġrid ers
Ġindic ating
tB ut
Ġtw in
Ġmother s
nes pecially
nsh ort
Ġarch ived
Ġfast est
ĠSw iss
Ar ab
dec wrl
cont in
mot orcycles
ĠCle arly
Ġfund ing
Ġmeas uring
Cl inton
sch arle
cor der
ĠSab re
Ġstick er
ncont rol
some one
Ġsens ing
Ġstay ed
Ġinvestig ate
ĠPower Book
ĠLib eral
ĠBrit ain
ĠFran jione
Ġsepar ately
cbnews g
Ġess ay
ĠEr zur
nCom p
Ġill ness
uz zy
npl an
Ke ys
apan ese
Ġeth ical
Ġfill ing
ĠIntern al
Ġmechan ical
ĠMont gomery
Ġrelationship s
mod em
ĠPet e
nMark us
vis ory
Ġder ive
ĠAnt on
Ġcounter steering
EF ORE
gl ass
nob serv
Ġunf air
Ġpredict ions
ĠAB OUT
ĠFrank lin
Ġparticip ated
Ġur ge
,, ,
nSome one
Ġbrief ed
Ġheav ens
Ġheav ier
Ġsusp ic
Ġattrib utes
ĠPas cal
Ġmisc on
Us enet
Ġump ires
Ġmix ed
ĠFer r
Ġfilter ing
Ġep is
Ġswe et
sn ake
Ġmoder ator
omin ations
ĠBi ochemistry
Ġroutine ly
Ġped al
ĠObs erver
Ġacqu ired
ĠMem orial
Ġdeliber ate
Ġod ds
Ġdefe at
Bos nian
Ġforb idden
nost ics
Ġfanatic ism
ĠYan kees
homosexual s
ĠVal ley
Ġbik ers
Ġhon or
ĠPLAY OFF
Ġ\\\\\ \
Ġflaw ed
(*)(*) (*)(*)
Ġfav ors
ĠCompu Trac
ĠSport ster
Ġavail ability
nenc ryption
ĠJO INS
Mag ick
Sat ya
Ġhab itable
Ġconvenient ly
148 35
ĠSOC IALIST
Mad ison
nide as
Ġineff ective
Ġenhance ment
ĠIndust rial
nent ire
ĠSix smith
ĠPE OPLE
Ġretri ev
Ġfeas ible
Ġmirac les
Ġalleg ations
ĠQual comm
Ġguarante ed
wits end
Ġhelicop ter
Ġindirect ly
Ġvide ot
Ġfo am
nAzerbaij an
jv nc
Ġspir its
ERIC AN
523 97
ĠGENOC IDAL
Ġwond ers
Ġcategor ies
ĠBlacks burg
Ġinflict ed
ĠTig ers
aeh l
Ġinten se
nApr il
bsol utely
arise es
ĠErzur um
% +
% <
% \\
& /
& [
) #
* -
/ +
1 19
6 24
7 000
8 24
; $
> !
? +
B s
B oston
C he
C ould
E vent
F an
F ORD
G lenn
J Q
J er
K hz
L eh
M at
M itchell
N AL
P E
R Z
R el
R ep
R CE
T OP
V er
W eek
X R
Y E
Z L
[ \\
_ =
a ig
c im
c ron
d eter
g ia
g aut
i els
i ries
j an
j ay
j pg
k on
k an
k im
l ord
l ations
l uk
l ari
l msc
m itt
m ale
m akes
m ozart
n om
n standard
n occ
p w
r ase
s q
s il
t se
t net
t David
u up
u rop
v irginia
v oboda
w cc
w ire
Ġ ________________________________________________
Ġt ens
Ġt cora
Ġa ver
Ġthe ft
Ġw el
Ġs d
Ġs oup
Ġs aver
Ġs aga
an l
an us
or ne
it ial
it izens
ed monton
Ġc aps
Ġc ats
Ġb uck
om on
om ation
Ġf ra
al ition
Ġp metzger
Ġm ild
Ġm icros
Ġan nex
le ys
le gal
Ġd ent
Ġd ull
Ġd hartung
Ġth ug
Ġth ick
ĠI MP
\' #
Ġh ier
Ġh anging
Ġin come
Ġin just
as cal
Ġn s
Ġn y
Ġn aked
Ġn arain
Ġ( ?)
Ġg re
Ġg ross
ac to
Ġl at
Ġl ens
ĠT ra
ĠT otal
ĠT arga
ĠT ECHN
ut ies
ut ah
us hed
Ġre incarnation
ĠC ab
ĠC iv
ĠC BR
ĠA ncient
ro ved
id ew
Ġon going
im p
ĠM aking
ĠM aine
ĠM ilitary
ĠM TV
ĠM FM
am ation
ig nt
un a
un ctions
Ġ1 21
Ġ1 33
ĠF uck
nt em
nt ogether
ĠB and
ĠB our
ĠR h
ĠR at
ĠP a
ĠP ts
ĠP BM
ĠP apers
ke ys
ur ray
ĠD ow
ĠD ob
ĠD ictionary
ĠD SG
ĠW end
ĠW oll
ĠW ales
ĠW INDOWS
Ġst ra
ag int
ag ora
ĠH ak
ĠH extall
el ot
ab o
ab lish
ab ama
nS up
Ġr anging
nd em
ĠG C
op ing
op oulos
Ġor ion
ĠN agle
Ġ2 25
Ġ2 22
um ans
ers ys
ĠU ART
os wego
ĠL ane
ĠL anguage
ĠL aud
Ġpro fessor
nO nce
ap ies
Ġcom ic
qu ack
ĠE con
\\ :
th row
======== =\
Ġse iz
Ġv oted
ĠJ ab
Ġ3 10
oc ated
oc ols
ni bal
ment ioned
end e
av it
Ġwor sh
ib ble
ns w
ns ource
ns how
Ġun s
Ġun necessary
ud er
ud ing
Ġle e
Ġle ct
ĠK C
ĠK ad
ĠK han
ĠK eller
ell ular
nc over
nc urrent
oo h
ĠV W
ĠV ern
ĠV ision
ĠV CR
Ġne arest
Ġout law
og lu
fer rell
pr inter
Ġcomp ute
Ġcomp elling
Ġdis able
Ġdis ob
nA meric
ĠY anks
ĠSt aff
cl air
ĠCh i
ĠIn form
ass ault
np rom
Ġapp lying
nb r
nb ase
nb ody
nb rian
nb oard
Ġgr ain
ob o
per ly
nm oney
nm embers
ny es
Ġsc ope
pe bb
nl ocal
ĠĠĠĠĠĠĠĠĠĠĠĠĠĠĠĠĠĠĠĠĠĠĠĠĠĠĠĠĠĠĠĠ ĠĠĠĠĠĠĠĠĠĠĠĠĠĠĠĠĠĠĠĠĠĠĠĠĠĠĠĠĠĠĠĠĠ
nB C
nB rett
olog ically
nH mm
na f
che l
che vron
Ġob server
Ġbl at
Ġbl acks
15 6
15 7
15 00
ES SA
25 2
25 7
Ġfl aky
ah ogany
Ġ10 3
AN FORD
Ġacc using
be it
17 6
30 4
Ġcr ashed
Ġatt orney
red it
red ibly
Ġbr aking
ĠAl bany
erv ous
erv ille
ST EP
ern al
Ġinf ected
Ġinf ring
Ġform ing
nJ ews
ĠWe bster
get ic
60 9
Ġquestion ed
Ġx li
OT T
Ġsm oot
ET S
Ġinv ent
Ġshe et
Ġ\\ ____
27 3
>< >
Ġher self
Ġstand off
orm on
uck land
Ġint ensity
ev o
ev ans
90 5
Ġ16 00
Ġ15 2
osed ly
und led
gin ally
Ġdr ain
21 00
Ġend ing
Ġend orse
Ġdirect or
33 2
33 6
Ġtri ps
44 2
IF E
IF IED
ĠSun View
tr ace
els ius
Ġsub stitute
Ġent ers
Ġgun fire
bers pace
St an
St ar
Ġsw ear
45 3
|| \
tI nternet
ĠAny thing
ank ford
Ġeng lish
ĠAm b
ĠQu arter
nst uff
nst arted
Ġhead ing
Ġmen us
Ġpat ently
ĠComm un
IG H
ĠSc ro
ĠTHE Y
ĠMan chester
ogr am
64 2
irc uit
Ġexp ed
Ġbuild s
ours es
LE X
Ġelect ions
Ġrest art
Ġremember ed
nv al
nch ild
Ġfre aks
Ġrece i
ortun e
Ġmention ing
ĠCar leton
ned y
Ġspecific ation
ĠNor ing
ĠComp userve
Ġmot if
ole Fan
ser ies
lev ance
ĠCD ROM
96 3
ls en
can rem
fess ion
ĠMar iners
Ġvol unt
ethod s
Ġindic ators
add i
Ġtem por
Ġtrad emark
tThe y
Ġleg it
Ġdi pl
Ġearth quake
ĠDr ag
Ġcompl aint
Ġmet ers
got ten
Ġhor ror
------------------------------------------------------------------------ --
quest ion
Ġprefer ences
ĠCle mson
nim aster
ncom es
reme ly
Ġprim itive
Ġdifficult ies
ounc es
nSt ephen
Ġaff airs
Ġbill s
Ġident ifying
nic ation
load s
std vax
Ġpurch asing
======================================================================== =\
Ġsens itivity
uly sses
bin aries
nne eds
ĠAg ency
ades chi
Ġrepresent atives
Ġess ence
Ġhom er
Ġcat cher
map le
Ġjudg ing
Ġexec uted
npl ace
Ġremote ly
Ġsum ex
ĠHol t
Ġlo an
nen vironment
Ġprec ision
ĠList ing
ĠCanad ians
Ġclos et
ĠLy nn
ĠKen neth
Ġlaunch ing
Ġsurviv al
ĠMerc er
Ġimprove ments
uok max
Ġbrief ly
vest a
wa ikato
ĠAdv ance
Ġexperi enced
ncomm on
onder ful
Ġshif ts
Ġsatisf y
ĠSen ior
Ġphysic ists
olf gang
Ġreve al
Ġ**** *
ĠChem ical
AE J
ĠArch ive
ĠDi pl
ĠFe ustel
ĠExt ended
Ġlibert arian
Christian ity
Ġfundamental ist
look ed
Ġbull shit
nevery thing
QW K
phys chem
Ġpark ing
Ġtim er
Ġtim ing
ubc ap
ĠSure ly
best os
ĠNov a
Ġpatter ns
nadd ress
nstr ong
Ġgren ade
Armen ian
RV ESTERM
ĠVisual ization
Ġarrog ance
ĠMoh amed
nArmen ians
ĠSho oting
ĠMil waukee
nWill iam
top az
esp onse
ĠPhill ips
Ġcamp us
Ġfasc ist
Ġrighteous ness
HING TON
ĠKel sey
Ġrelat ivism
Ġom ni
Ġvac uum
Ġgif ts
Ġnut ri
ĠSud an
Ġkne es
Ġtong ues
nJon athan
ĠKore a
ĠImake file
kj ec
ĠPublis hers
Ġevol ve
Ġconscious ness
ĠChair man
Ġscream ing
ĠSTAT S
Ġpil ot
Ġpermit s
Ġstead y
nbu ild
Ġexcess ive
Ġdecom press
royal roads
Ġmultit asking
Alex ander
Ġabstr act
iscrim ination
Ġactiv ists
document ed
ĠBarl as
Ġrus news
nRes earch
Ori oleFan
Ġbes ide
Ġsymp athy
tCont ains
Ġsupern atural
ĠKari ya
++++++++++++++++++++++++++++++++++++++++++++++++++++++++++++++++++++++++ \
Grad uate
ĠSore nson
ĠGodd ard
ICHA EL
Ġmagnit ude
ĠMcCull ough
arene bt
gaut jw
pebb les
! ?\
" <
$ ^
% #
& \\
( =
+ ----------------------------
. ?\
4 95
4 77
7 122
8 91
; :
; =
; ?
> :\
A h
B as
B ell
B EG
B arry
B ryan
D V
F ire
H anna
J osip
L ib
L ondon
M organ
N W
N AS
P it
P art
R oss
R IST
T ake
T EL
U nder
V N
V O
V AX
V ery
X S
X W
Y O
Y OU
Y ALE
Y ugoslavia
[ )
[ /
] #
a very
b ear
b ins
c ot
c un
c gu
c ogsci
d ar
e enth
f a
f air
g d
g ait
g iga
h all
h man
h orn
j u
j abi
k its
l m
l ass
m ill
m oses
m rc
n ir
n ames
n version
n igel
p un
p red
p aul
r p
r in
r ti
s qu
s pe
s hel
t as
t ure
t And
t John
u j
u agint
w ol
w hether
z s
z heim
Ġ ::
Ġ ++++++++++++++++++++++++++++++++++++++++++++++++++++++++++++++++++++++++\
Ġa ward
Ġa Xe
he y
he nd
in to
on ed
Ġthe ological
Ġw ing
Ġw reck
Ġs le
an o
or bit
or thodox
is io
Ġc ica
Ġc raig
